{
  "version": "1.0",
  "truncation": null,
  "padding": null,
  "added_tokens": [
    {
      "id": 0,
      "content": "<unk>",
      "single_word": false,
      "lstrip": false,
      "rstrip": false,
      "normalized": false,
      "special": true
    },
    {
      "id": 1,
      "content": "<sep>",
      "single_word": false,
      "lstrip": false,
      "rstrip": false,
      "normalized": false,
      "special": true
    },
    {
      "id": 2,
      "content": "<pad>",
      "single_word": false,
      "lstrip": false,
      "rstrip": false,
      "normalized": false,
      "special": true
    },
    {
      "id": 3,
      "content": "<cls>",
      "single_word": false,
      "lstrip": false,
      "rstrip": false,
      "normalized": false,
      "special": true
    },
    {
      "id": 4,
      "content": "<mask>",
      "single_word": false,
      "lstrip": false,
      "rstrip": false,
      "normalized": false,
      "special": true
    },
    {
      "id": 5,
      "content": "<bos>",
      "single_word": false,
      "lstrip": false,
      "rstrip": false,
      "normalized": false,
      "special": true
    },
    {
      "id": 6,
      "content": "<eos>",
      "single_word": false,
      "lstrip": false,
      "rstrip": false,
      "normalized": false,
      "special": true
    }
  ],
  "normalizer": null,
  "pre_tokenizer": {
    "type": "Whitespace"
  },
  "post_processor": null,
  "decoder": null,
  "model": {
    "type": "BPE",
    "dropout": null,
    "unk_token": null,
    "continuing_subword_prefix": null,
    "end_of_word_suffix": null,
    "fuse_unk": false,
    "byte_fallback": false,
    "ignore_merges": false,
    "vocab": {
      "<unk>": 0,
      "<sep>": 1,
      "<pad>": 2,
      "<cls>": 3,
      "<mask>": 4,
      "<bos>": 5,
      "<eos>": 6,
      "\u0001": 7,
      "!": 8,
      "\"": 9,
      "#": 10,
      "$": 11,
      "%": 12,
      "&": 13,
      "'": 14,
      "(": 15,
      ")": 16,
      "*": 17,
      "+": 18,
      ",": 19,
      "-": 20,
      ".": 21,
      "/": 22,
      "0": 23,
      "1": 24,
      "2": 25,
      "3": 26,
      "4": 27,
      "5": 28,
      "6": 29,
      "7": 30,
      "8": 31,
      "9": 32,
      ":": 33,
      ";": 34,
      "<": 35,
      "=": 36,
      ">": 37,
      "?": 38,
      "@": 39,
      "A": 40,
      "B": 41,
      "C": 42,
      "D": 43,
      "E": 44,
      "F": 45,
      "G": 46,
      "H": 47,
      "I": 48,
      "J": 49,
      "K": 50,
      "L": 51,
      "M": 52,
      "N": 53,
      "O": 54,
      "P": 55,
      "Q": 56,
      "R": 57,
      "S": 58,
      "T": 59,
      "U": 60,
      "V": 61,
      "W": 62,
      "X": 63,
      "Y": 64,
      "Z": 65,
      "[": 66,
      "\\": 67,
      "]": 68,
      "^": 69,
      "_": 70,
      "`": 71,
      "a": 72,
      "b": 73,
      "c": 74,
      "d": 75,
      "e": 76,
      "f": 77,
      "g": 78,
      "h": 79,
      "i": 80,
      "j": 81,
      "k": 82,
      "l": 83,
      "m": 84,
      "n": 85,
      "o": 86,
      "p": 87,
      "q": 88,
      "r": 89,
      "s": 90,
      "t": 91,
      "u": 92,
      "v": 93,
      "w": 94,
      "x": 95,
      "y": 96,
      "z": 97,
      "|": 98,
      "~": 99,
      "§": 100,
      "°": 101,
      "·": 102,
      "¸": 103,
      "¾": 104,
      "Ö": 105,
      "×": 106,
      "Ø": 107,
      "à": 108,
      "á": 109,
      "â": 110,
      "ã": 111,
      "ä": 112,
      "ç": 113,
      "è": 114,
      "é": 115,
      "ê": 116,
      "ë": 117,
      "í": 118,
      "ð": 119,
      "ñ": 120,
      "ó": 121,
      "ô": 122,
      "ö": 123,
      "ø": 124,
      "ú": 125,
      "ü": 126,
      "Ć": 127,
      "ć": 128,
      "Č": 129,
      "č": 130,
      "ğ": 131,
      "ī": 132,
      "ń": 133,
      "ŉ": 134,
      "ś": 135,
      "Š": 136,
      "š": 137,
      "ž": 138,
      "ɡ": 139,
      "˙": 140,
      "Α": 141,
      "Β": 142,
      "α": 143,
      "β": 144,
      "γ": 145,
      "δ": 146,
      "μ": 147,
      "ω": 148,
      "Т": 149,
      "и": 150,
      "ᅘ": 151,
      "​": 152,
      "–": 153,
      "—": 154,
      "―": 155,
      "‘": 156,
      "’": 157,
      "‛": 158,
      "“": 159,
      "”": 160,
      "†": 161,
      "‡": 162,
      "•": 163,
      "…": 164,
      "‧": 165,
      "‰": 166,
      "※": 167,
      "℃": 168,
      "ⅹ": 169,
      "→": 170,
      "−": 171,
      "∕": 172,
      "∶": 173,
      "≈": 174,
      "①": 175,
      "③": 176,
      "④": 177,
      "⑤": 178,
      "⑥": 179,
      "⑦": 180,
      "⑧": 181,
      "⑨": 182,
      "⑴": 183,
      "⑵": 184,
      "⑶": 185,
      "⑷": 186,
      "⑸": 187,
      "⑹": 188,
      "⑺": 189,
      "⑻": 190,
      "⒅": 191,
      "⒈": 192,
      "⒊": 193,
      "─": 194,
      "━": 195,
      "╇": 196,
      "■": 197,
      "□": 198,
      "◆": 199,
      "◊": 200,
      "○": 201,
      "●": 202,
      "★": 203,
      "☆": 204,
      "♦": 205,
      "➢": 206,
      "、": 207,
      "。": 208,
      "〇": 209,
      "〈": 210,
      "〉": 211,
      "《": 212,
      "》": 213,
      "「": 214,
      "」": 215,
      "『": 216,
      "』": 217,
      "【": 218,
      "】": 219,
      "〔": 220,
      "〕": 221,
      "〖": 222,
      "〗": 223,
      "ぃ": 224,
      "い": 225,
      "え": 226,
      "ぷ": 227,
      "ㄇ": 228,
      "㈠": 229,
      "㈡": 230,
      "㈢": 231,
      "㈣": 232,
      "㈤": 233,
      "㈥": 234,
      "㈦": 235,
      "㈧": 236,
      "㈨": 237,
      "㈩": 238,
      "㶨": 239,
      "一": 240,
      "丁": 241,
      "七": 242,
      "万": 243,
      "丈": 244,
      "三": 245,
      "上": 246,
      "下": 247,
      "不": 248,
      "与": 249,
      "丐": 250,
      "丑": 251,
      "专": 252,
      "且": 253,
      "世": 254,
      "丘": 255,
      "丙": 256,
      "业": 257,
      "丛": 258,
      "东": 259,
      "丝": 260,
      "丢": 261,
      "两": 262,
      "严": 263,
      "並": 264,
      "丧": 265,
      "个": 266,
      "丫": 267,
      "中": 268,
      "丰": 269,
      "串": 270,
      "临": 271,
      "丸": 272,
      "丹": 273,
      "为": 274,
      "主": 275,
      "丽": 276,
      "举": 277,
      "乃": 278,
      "久": 279,
      "么": 280,
      "义": 281,
      "之": 282,
      "乌": 283,
      "乍": 284,
      "乎": 285,
      "乏": 286,
      "乐": 287,
      "乒": 288,
      "乓": 289,
      "乔": 290,
      "乖": 291,
      "乘": 292,
      "乙": 293,
      "九": 294,
      "乞": 295,
      "也": 296,
      "习": 297,
      "乡": 298,
      "书": 299,
      "买": 300,
      "乱": 301,
      "乳": 302,
      "乾": 303,
      "了": 304,
      "予": 305,
      "争": 306,
      "事": 307,
      "二": 308,
      "于": 309,
      "亏": 310,
      "云": 311,
      "互": 312,
      "五": 313,
      "井": 314,
      "亘": 315,
      "亚": 316,
      "些": 317,
      "亞": 318,
      "亟": 319,
      "亡": 320,
      "亢": 321,
      "交": 322,
      "亥": 323,
      "亦": 324,
      "产": 325,
      "亨": 326,
      "亩": 327,
      "享": 328,
      "京": 329,
      "亭": 330,
      "亮": 331,
      "亲": 332,
      "亳": 333,
      "亵": 334,
      "人": 335,
      "亿": 336,
      "什": 337,
      "仁": 338,
      "仃": 339,
      "仅": 340,
      "仆": 341,
      "仇": 342,
      "今": 343,
      "介": 344,
      "仍": 345,
      "从": 346,
      "仑": 347,
      "仓": 348,
      "仔": 349,
      "仕": 350,
      "他": 351,
      "仗": 352,
      "付": 353,
      "仙": 354,
      "仝": 355,
      "仟": 356,
      "代": 357,
      "令": 358,
      "以": 359,
      "仪": 360,
      "们": 361,
      "仰": 362,
      "仲": 363,
      "件": 364,
      "价": 365,
      "任": 366,
      "份": 367,
      "仿": 368,
      "企": 369,
      "伊": 370,
      "伍": 371,
      "伏": 372,
      "伐": 373,
      "休": 374,
      "众": 375,
      "优": 376,
      "伙": 377,
      "会": 378,
      "伛": 379,
      "伞": 380,
      "伟": 381,
      "传": 382,
      "伤": 383,
      "伦": 384,
      "伪": 385,
      "伫": 386,
      "伯": 387,
      "估": 388,
      "伴": 389,
      "伶": 390,
      "伸": 391,
      "伺": 392,
      "似": 393,
      "伽": 394,
      "佃": 395,
      "但": 396,
      "位": 397,
      "低": 398,
      "住": 399,
      "佐": 400,
      "佑": 401,
      "体": 402,
      "佔": 403,
      "何": 404,
      "余": 405,
      "佛": 406,
      "作": 407,
      "佝": 408,
      "你": 409,
      "佣": 410,
      "佩": 411,
      "佬": 412,
      "佰": 413,
      "佳": 414,
      "佻": 415,
      "佼": 416,
      "使": 417,
      "侃": 418,
      "侄": 419,
      "來": 420,
      "侈": 421,
      "例": 422,
      "侍": 423,
      "侏": 424,
      "侖": 425,
      "侗": 426,
      "供": 427,
      "依": 428,
      "侠": 429,
      "侣": 430,
      "侥": 431,
      "侦": 432,
      "侧": 433,
      "侨": 434,
      "侩": 435,
      "侪": 436,
      "侬": 437,
      "侮": 438,
      "侯": 439,
      "侵": 440,
      "便": 441,
      "係": 442,
      "促": 443,
      "俄": 444,
      "俊": 445,
      "俏": 446,
      "俐": 447,
      "俑": 448,
      "俗": 449,
      "俘": 450,
      "俚": 451,
      "保": 452,
      "俞": 453,
      "俟": 454,
      "信": 455,
      "俩": 456,
      "俭": 457,
      "修": 458,
      "俯": 459,
      "俱": 460,
      "俸": 461,
      "俺": 462,
      "俾": 463,
      "倆": 464,
      "倍": 465,
      "倏": 466,
      "們": 467,
      "倒": 468,
      "倔": 469,
      "倘": 470,
      "候": 471,
      "倚": 472,
      "借": 473,
      "倡": 474,
      "倦": 475,
      "倨": 476,
      "倩": 477,
      "倫": 478,
      "债": 479,
      "值": 480,
      "倾": 481,
      "假": 482,
      "偉": 483,
      "偎": 484,
      "偏": 485,
      "偑": 486,
      "做": 487,
      "停": 488,
      "健": 489,
      "偶": 490,
      "偷": 491,
      "偻": 492,
      "偽": 493,
      "偿": 494,
      "傀": 495,
      "傅": 496,
      "傍": 497,
      "傑": 498,
      "備": 499,
      "储": 500,
      "催": 501,
      "傭": 502,
      "傲": 503,
      "傳": 504,
      "傷": 505,
      "傻": 506,
      "傾": 507,
      "像": 508,
      "僕": 509,
      "僚": 510,
      "僦": 511,
      "僧": 512,
      "僭": 513,
      "僵": 514,
      "價": 515,
      "僻": 516,
      "儀": 517,
      "儒": 518,
      "儡": 519,
      "優": 520,
      "儿": 521,
      "兀": 522,
      "允": 523,
      "元": 524,
      "兄": 525,
      "充": 526,
      "兆": 527,
      "兇": 528,
      "先": 529,
      "光": 530,
      "克": 531,
      "免": 532,
      "兑": 533,
      "兒": 534,
      "兔": 535,
      "党": 536,
      "兜": 537,
      "兢": 538,
      "入": 539,
      "內": 540,
      "全": 541,
      "八": 542,
      "公": 543,
      "六": 544,
      "兮": 545,
      "兰": 546,
      "共": 547,
      "关": 548,
      "兴": 549,
      "兵": 550,
      "其": 551,
      "具": 552,
      "典": 553,
      "兹": 554,
      "养": 555,
      "兼": 556,
      "兽": 557,
      "冀": 558,
      "内": 559,
      "冈": 560,
      "冉": 561,
      "册": 562,
      "再": 563,
      "冒": 564,
      "冕": 565,
      "冗": 566,
      "写": 567,
      "军": 568,
      "农": 569,
      "冠": 570,
      "冢": 571,
      "冤": 572,
      "冥": 573,
      "冪": 574,
      "冬": 575,
      "冯": 576,
      "冰": 577,
      "冲": 578,
      "决": 579,
      "况": 580,
      "冶": 581,
      "冷": 582,
      "冻": 583,
      "冽": 584,
      "净": 585,
      "凄": 586,
      "准": 587,
      "凉": 588,
      "凋": 589,
      "凌": 590,
      "减": 591,
      "凑": 592,
      "凛": 593,
      "凝": 594,
      "几": 595,
      "凡": 596,
      "凤": 597,
      "凭": 598,
      "凯": 599,
      "凰": 600,
      "凱": 601,
      "凳": 602,
      "凶": 603,
      "凸": 604,
      "凹": 605,
      "出": 606,
      "击": 607,
      "函": 608,
      "凿": 609,
      "刀": 610,
      "刁": 611,
      "刃": 612,
      "分": 613,
      "切": 614,
      "刈": 615,
      "刊": 616,
      "刑": 617,
      "划": 618,
      "列": 619,
      "刘": 620,
      "则": 621,
      "刚": 622,
      "创": 623,
      "初": 624,
      "删": 625,
      "判": 626,
      "別": 627,
      "刨": 628,
      "利": 629,
      "别": 630,
      "刮": 631,
      "到": 632,
      "制": 633,
      "刷": 634,
      "券": 635,
      "刹": 636,
      "刺": 637,
      "刻": 638,
      "刽": 639,
      "剁": 640,
      "剂": 641,
      "剃": 642,
      "削": 643,
      "剌": 644,
      "前": 645,
      "剑": 646,
      "剔": 647,
      "剖": 648,
      "剛": 649,
      "剥": 650,
      "剧": 651,
      "剩": 652,
      "剪": 653,
      "副": 654,
      "割": 655,
      "創": 656,
      "剽": 657,
      "剿": 658,
      "劃": 659,
      "劇": 660,
      "劈": 661,
      "劉": 662,
      "劍": 663,
      "力": 664,
      "劝": 665,
      "办": 666,
      "功": 667,
      "加": 668,
      "务": 669,
      "劣": 670,
      "动": 671,
      "助": 672,
      "努": 673,
      "劫": 674,
      "励": 675,
      "劲": 676,
      "劳": 677,
      "劵": 678,
      "劾": 679,
      "势": 680,
      "勃": 681,
      "勇": 682,
      "勉": 683,
      "勋": 684,
      "勒": 685,
      "動": 686,
      "勘": 687,
      "務": 688,
      "勞": 689,
      "募": 690,
      "勢": 691,
      "勤": 692,
      "勳": 693,
      "勺": 694,
      "勾": 695,
      "勿": 696,
      "匀": 697,
      "包": 698,
      "匆": 699,
      "匈": 700,
      "匍": 701,
      "匐": 702,
      "匕": 703,
      "化": 704,
      "北": 705,
      "匙": 706,
      "匝": 707,
      "匠": 708,
      "匡": 709,
      "匣": 710,
      "匪": 711,
      "匮": 712,
      "匯": 713,
      "匹": 714,
      "区": 715,
      "医": 716,
      "匿": 717,
      "區": 718,
      "十": 719,
      "千": 720,
      "卅": 721,
      "升": 722,
      "午": 723,
      "卉": 724,
      "半": 725,
      "华": 726,
      "协": 727,
      "卑": 728,
      "卒": 729,
      "卓": 730,
      "協": 731,
      "单": 732,
      "卖": 733,
      "南": 734,
      "博": 735,
      "卜": 736,
      "卟": 737,
      "占": 738,
      "卡": 739,
      "卢": 740,
      "卤": 741,
      "卦": 742,
      "卧": 743,
      "卫": 744,
      "卯": 745,
      "印": 746,
      "危": 747,
      "即": 748,
      "却": 749,
      "卵": 750,
      "卷": 751,
      "卸": 752,
      "卿": 753,
      "厂": 754,
      "厄": 755,
      "厅": 756,
      "历": 757,
      "厉": 758,
      "压": 759,
      "厌": 760,
      "厕": 761,
      "厘": 762,
      "厚": 763,
      "原": 764,
      "厢": 765,
      "厥": 766,
      "厦": 767,
      "厨": 768,
      "厩": 769,
      "厮": 770,
      "去": 771,
      "县": 772,
      "叁": 773,
      "参": 774,
      "參": 775,
      "又": 776,
      "叉": 777,
      "及": 778,
      "友": 779,
      "双": 780,
      "反": 781,
      "发": 782,
      "叔": 783,
      "取": 784,
      "受": 785,
      "变": 786,
      "叙": 787,
      "叛": 788,
      "叠": 789,
      "口": 790,
      "古": 791,
      "句": 792,
      "另": 793,
      "叨": 794,
      "叩": 795,
      "只": 796,
      "叫": 797,
      "召": 798,
      "叭": 799,
      "叮": 800,
      "可": 801,
      "台": 802,
      "史": 803,
      "右": 804,
      "叵": 805,
      "叶": 806,
      "号": 807,
      "司": 808,
      "叹": 809,
      "叼": 810,
      "叽": 811,
      "吁": 812,
      "吃": 813,
      "各": 814,
      "吆": 815,
      "合": 816,
      "吉": 817,
      "吊": 818,
      "同": 819,
      "名": 820,
      "后": 821,
      "吏": 822,
      "吐": 823,
      "向": 824,
      "吒": 825,
      "吓": 826,
      "吕": 827,
      "吗": 828,
      "君": 829,
      "吝": 830,
      "吞": 831,
      "吟": 832,
      "吠": 833,
      "吡": 834,
      "否": 835,
      "吧": 836,
      "吨": 837,
      "吩": 838,
      "含": 839,
      "听": 840,
      "吭": 841,
      "吮": 842,
      "启": 843,
      "吱": 844,
      "吳": 845,
      "吴": 846,
      "吵": 847,
      "吸": 848,
      "吹": 849,
      "吻": 850,
      "吼": 851,
      "吾": 852,
      "呀": 853,
      "呃": 854,
      "呆": 855,
      "呈": 856,
      "告": 857,
      "呋": 858,
      "呎": 859,
      "呐": 860,
      "呓": 861,
      "呕": 862,
      "呗": 863,
      "员": 864,
      "呛": 865,
      "呜": 866,
      "呢": 867,
      "呣": 868,
      "呤": 869,
      "周": 870,
      "味": 871,
      "呵": 872,
      "呻": 873,
      "呼": 874,
      "命": 875,
      "咀": 876,
      "咄": 877,
      "咆": 878,
      "咋": 879,
      "和": 880,
      "咎": 881,
      "咏": 882,
      "咐": 883,
      "咒": 884,
      "咔": 885,
      "咕": 886,
      "咖": 887,
      "咙": 888,
      "咚": 889,
      "咝": 890,
      "咧": 891,
      "咨": 892,
      "咪": 893,
      "咫": 894,
      "咬": 895,
      "咭": 896,
      "咯": 897,
      "咱": 898,
      "咳": 899,
      "咴": 900,
      "咸": 901,
      "咽": 902,
      "哀": 903,
      "品": 904,
      "哄": 905,
      "哆": 906,
      "哇": 907,
      "哈": 908,
      "哌": 909,
      "响": 910,
      "哎": 911,
      "哑": 912,
      "哒": 913,
      "哔": 914,
      "哗": 915,
      "哝": 916,
      "哟": 917,
      "員": 918,
      "哥": 919,
      "哦": 920,
      "哨": 921,
      "哩": 922,
      "哪": 923,
      "哭": 924,
      "哮": 925,
      "哲": 926,
      "哺": 927,
      "哼": 928,
      "哽": 929,
      "唆": 930,
      "唇": 931,
      "唉": 932,
      "唐": 933,
      "唑": 934,
      "唔": 935,
      "唠": 936,
      "唤": 937,
      "唧": 938,
      "唬": 939,
      "售": 940,
      "唯": 941,
      "唱": 942,
      "唾": 943,
      "啁": 944,
      "啃": 945,
      "啄": 946,
      "商": 947,
      "啉": 948,
      "啊": 949,
      "問": 950,
      "啟": 951,
      "啡": 952,
      "啤": 953,
      "啥": 954,
      "啦": 955,
      "啧": 956,
      "啪": 957,
      "啬": 958,
      "啭": 959,
      "啮": 960,
      "啰": 961,
      "啲": 962,
      "啶": 963,
      "啸": 964,
      "啻": 965,
      "啼": 966,
      "啾": 967,
      "喀": 968,
      "喂": 969,
      "喃": 970,
      "善": 971,
      "喇": 972,
      "喈": 973,
      "喉": 974,
      "喊": 975,
      "喋": 976,
      "喏": 977,
      "喔": 978,
      "喘": 979,
      "喜": 980,
      "喝": 981,
      "喧": 982,
      "喬": 983,
      "單": 984,
      "喱": 985,
      "喳": 986,
      "喷": 987,
      "喹": 988,
      "喻": 989,
      "喽": 990,
      "嗅": 991,
      "嗉": 992,
      "嗒": 993,
      "嗓": 994,
      "嗖": 995,
      "嗙": 996,
      "嗜": 997,
      "嗡": 998,
      "嗣": 999,
      "嗤": 1000,
      "嗥": 1001,
      "嗦": 1002,
      "嗨": 1003,
      "嗪": 1004,
      "嗫": 1005,
      "嗬": 1006,
      "嗯": 1007,
      "嗳": 1008,
      "嗽": 1009,
      "嘀": 1010,
      "嘈": 1011,
      "嘉": 1012,
      "嘌": 1013,
      "嘎": 1014,
      "嘘": 1015,
      "嘛": 1016,
      "嘟": 1017,
      "嘧": 1018,
      "嘭": 1019,
      "嘱": 1020,
      "嘲": 1021,
      "嘴": 1022,
      "嘶": 1023,
      "嘻": 1024,
      "嘿": 1025,
      "噁": 1026,
      "噎": 1027,
      "噗": 1028,
      "噜": 1029,
      "噢": 1030,
      "噤": 1031,
      "器": 1032,
      "噩": 1033,
      "噪": 1034,
      "噬": 1035,
      "噴": 1036,
      "噶": 1037,
      "噻": 1038,
      "嚅": 1039,
      "嚓": 1040,
      "嚣": 1041,
      "嚷": 1042,
      "嚼": 1043,
      "囊": 1044,
      "囍": 1045,
      "囗": 1046,
      "囚": 1047,
      "四": 1048,
      "回": 1049,
      "因": 1050,
      "团": 1051,
      "囤": 1052,
      "园": 1053,
      "囯": 1054,
      "困": 1055,
      "囱": 1056,
      "围": 1057,
      "固": 1058,
      "国": 1059,
      "图": 1060,
      "囿": 1061,
      "圃": 1062,
      "圆": 1063,
      "圈": 1064,
      "國": 1065,
      "園": 1066,
      "圓": 1067,
      "圖": 1068,
      "團": 1069,
      "土": 1070,
      "圣": 1071,
      "在": 1072,
      "圭": 1073,
      "地": 1074,
      "圳": 1075,
      "场": 1076,
      "圾": 1077,
      "址": 1078,
      "坂": 1079,
      "均": 1080,
      "坊": 1081,
      "坍": 1082,
      "坎": 1083,
      "坏": 1084,
      "坐": 1085,
      "坑": 1086,
      "块": 1087,
      "坚": 1088,
      "坛": 1089,
      "坝": 1090,
      "坞": 1091,
      "坟": 1092,
      "坠": 1093,
      "坡": 1094,
      "坤": 1095,
      "坦": 1096,
      "坩": 1097,
      "坪": 1098,
      "坯": 1099,
      "坷": 1100,
      "垂": 1101,
      "垃": 1102,
      "垄": 1103,
      "型": 1104,
      "垒": 1105,
      "垛": 1106,
      "垠": 1107,
      "垢": 1108,
      "垣": 1109,
      "垦": 1110,
      "垩": 1111,
      "垫": 1112,
      "垮": 1113,
      "埃": 1114,
      "埋": 1115,
      "城": 1116,
      "埔": 1117,
      "埗": 1118,
      "埘": 1119,
      "埜": 1120,
      "域": 1121,
      "埠": 1122,
      "執": 1123,
      "培": 1124,
      "基": 1125,
      "埼": 1126,
      "堂": 1127,
      "堆": 1128,
      "堇": 1129,
      "堑": 1130,
      "堕": 1131,
      "堡": 1132,
      "堤": 1133,
      "堪": 1134,
      "堰": 1135,
      "報": 1136,
      "場": 1137,
      "堵": 1138,
      "塌": 1139,
      "塑": 1140,
      "塔": 1141,
      "塘": 1142,
      "塞": 1143,
      "填": 1144,
      "境": 1145,
      "墅": 1146,
      "墒": 1147,
      "墓": 1148,
      "墙": 1149,
      "增": 1150,
      "墟": 1151,
      "墨": 1152,
      "墩": 1153,
      "壁": 1154,
      "壅": 1155,
      "壑": 1156,
      "壓": 1157,
      "壕": 1158,
      "壤": 1159,
      "士": 1160,
      "壬": 1161,
      "壮": 1162,
      "声": 1163,
      "壳": 1164,
      "壶": 1165,
      "壹": 1166,
      "壺": 1167,
      "处": 1168,
      "备": 1169,
      "复": 1170,
      "夏": 1171,
      "夕": 1172,
      "外": 1173,
      "夙": 1174,
      "多": 1175,
      "夜": 1176,
      "够": 1177,
      "夢": 1178,
      "夥": 1179,
      "大": 1180,
      "天": 1181,
      "太": 1182,
      "夫": 1183,
      "夭": 1184,
      "央": 1185,
      "夯": 1186,
      "失": 1187,
      "头": 1188,
      "夷": 1189,
      "夸": 1190,
      "夹": 1191,
      "夺": 1192,
      "夾": 1193,
      "奄": 1194,
      "奇": 1195,
      "奈": 1196,
      "奉": 1197,
      "奋": 1198,
      "奎": 1199,
      "奏": 1200,
      "契": 1201,
      "奔": 1202,
      "奕": 1203,
      "奖": 1204,
      "套": 1205,
      "奠": 1206,
      "奢": 1207,
      "奥": 1208,
      "奧": 1209,
      "女": 1210,
      "奴": 1211,
      "奶": 1212,
      "奸": 1213,
      "她": 1214,
      "好": 1215,
      "如": 1216,
      "妃": 1217,
      "妄": 1218,
      "妆": 1219,
      "妇": 1220,
      "妈": 1221,
      "妊": 1222,
      "妍": 1223,
      "妒": 1224,
      "妓": 1225,
      "妖": 1226,
      "妙": 1227,
      "妞": 1228,
      "妥": 1229,
      "妨": 1230,
      "妩": 1231,
      "妮": 1232,
      "妲": 1233,
      "妳": 1234,
      "妹": 1235,
      "妻": 1236,
      "妾": 1237,
      "姆": 1238,
      "姊": 1239,
      "始": 1240,
      "姐": 1241,
      "姑": 1242,
      "姓": 1243,
      "委": 1244,
      "姗": 1245,
      "姚": 1246,
      "姜": 1247,
      "姣": 1248,
      "姥": 1249,
      "姨": 1250,
      "姬": 1251,
      "姻": 1252,
      "姿": 1253,
      "威": 1254,
      "娃": 1255,
      "娄": 1256,
      "娅": 1257,
      "娇": 1258,
      "娉": 1259,
      "娘": 1260,
      "娛": 1261,
      "娜": 1262,
      "娟": 1263,
      "娠": 1264,
      "娣": 1265,
      "娥": 1266,
      "娩": 1267,
      "娱": 1268,
      "娴": 1269,
      "娶": 1270,
      "娼": 1271,
      "婆": 1272,
      "婉": 1273,
      "婊": 1274,
      "婕": 1275,
      "婚": 1276,
      "婢": 1277,
      "婪": 1278,
      "婴": 1279,
      "婶": 1280,
      "婿": 1281,
      "媒": 1282,
      "媚": 1283,
      "媛": 1284,
      "媪": 1285,
      "媲": 1286,
      "媳": 1287,
      "媽": 1288,
      "嫁": 1289,
      "嫉": 1290,
      "嫌": 1291,
      "嫖": 1292,
      "嫣": 1293,
      "嫦": 1294,
      "嫩": 1295,
      "嬉": 1296,
      "嬗": 1297,
      "嬷": 1298,
      "孀": 1299,
      "子": 1300,
      "孔": 1301,
      "孕": 1302,
      "孖": 1303,
      "字": 1304,
      "存": 1305,
      "孙": 1306,
      "孚": 1307,
      "孜": 1308,
      "孝": 1309,
      "孟": 1310,
      "孢": 1311,
      "季": 1312,
      "孤": 1313,
      "学": 1314,
      "孩": 1315,
      "孫": 1316,
      "孳": 1317,
      "孵": 1318,
      "學": 1319,
      "孺": 1320,
      "孽": 1321,
      "宁": 1322,
      "它": 1323,
      "宅": 1324,
      "宇": 1325,
      "守": 1326,
      "安": 1327,
      "宋": 1328,
      "完": 1329,
      "宏": 1330,
      "宗": 1331,
      "官": 1332,
      "宙": 1333,
      "定": 1334,
      "宛": 1335,
      "宜": 1336,
      "宝": 1337,
      "实": 1338,
      "宠": 1339,
      "审": 1340,
      "客": 1341,
      "宣": 1342,
      "室": 1343,
      "宪": 1344,
      "宫": 1345,
      "宮": 1346,
      "宰": 1347,
      "害": 1348,
      "宴": 1349,
      "宵": 1350,
      "家": 1351,
      "容": 1352,
      "宽": 1353,
      "宾": 1354,
      "宿": 1355,
      "寂": 1356,
      "寄": 1357,
      "寅": 1358,
      "密": 1359,
      "寇": 1360,
      "富": 1361,
      "寐": 1362,
      "寒": 1363,
      "寓": 1364,
      "寝": 1365,
      "寞": 1366,
      "察": 1367,
      "寡": 1368,
      "寤": 1369,
      "寥": 1370,
      "實": 1371,
      "寧": 1372,
      "寨": 1373,
      "寫": 1374,
      "寶": 1375,
      "寸": 1376,
      "对": 1377,
      "寺": 1378,
      "寻": 1379,
      "导": 1380,
      "寿": 1381,
      "封": 1382,
      "射": 1383,
      "将": 1384,
      "將": 1385,
      "專": 1386,
      "尉": 1387,
      "尊": 1388,
      "對": 1389,
      "導": 1390,
      "小": 1391,
      "少": 1392,
      "尔": 1393,
      "尖": 1394,
      "尘": 1395,
      "尚": 1396,
      "尝": 1397,
      "尤": 1398,
      "尧": 1399,
      "尬": 1400,
      "就": 1401,
      "尴": 1402,
      "尷": 1403,
      "尸": 1404,
      "尹": 1405,
      "尺": 1406,
      "尼": 1407,
      "尽": 1408,
      "尾": 1409,
      "尿": 1410,
      "局": 1411,
      "屁": 1412,
      "层": 1413,
      "居": 1414,
      "屆": 1415,
      "屈": 1416,
      "屉": 1417,
      "届": 1418,
      "屋": 1419,
      "屍": 1420,
      "屎": 1421,
      "屏": 1422,
      "屐": 1423,
      "屑": 1424,
      "展": 1425,
      "属": 1426,
      "屠": 1427,
      "屡": 1428,
      "層": 1429,
      "履": 1430,
      "屬": 1431,
      "屯": 1432,
      "山": 1433,
      "屹": 1434,
      "屿": 1435,
      "岁": 1436,
      "岂": 1437,
      "岌": 1438,
      "岐": 1439,
      "岑": 1440,
      "岔": 1441,
      "岖": 1442,
      "岗": 1443,
      "岛": 1444,
      "岡": 1445,
      "岩": 1446,
      "岭": 1447,
      "岳": 1448,
      "岸": 1449,
      "岿": 1450,
      "峒": 1451,
      "峙": 1452,
      "峡": 1453,
      "峦": 1454,
      "峪": 1455,
      "峭": 1456,
      "峰": 1457,
      "島": 1458,
      "峻": 1459,
      "崇": 1460,
      "崎": 1461,
      "崔": 1462,
      "崖": 1463,
      "崙": 1464,
      "崛": 1465,
      "崩": 1466,
      "崭": 1467,
      "崴": 1468,
      "崽": 1469,
      "嵌": 1470,
      "嵩": 1471,
      "嶺": 1472,
      "嶼": 1473,
      "巅": 1474,
      "巍": 1475,
      "川": 1476,
      "州": 1477,
      "巡": 1478,
      "巢": 1479,
      "工": 1480,
      "左": 1481,
      "巧": 1482,
      "巨": 1483,
      "巩": 1484,
      "巫": 1485,
      "差": 1486,
      "己": 1487,
      "已": 1488,
      "巳": 1489,
      "巴": 1490,
      "巷": 1491,
      "巾": 1492,
      "巿": 1493,
      "币": 1494,
      "市": 1495,
      "布": 1496,
      "帅": 1497,
      "帆": 1498,
      "师": 1499,
      "希": 1500,
      "帐": 1501,
      "帕": 1502,
      "帖": 1503,
      "帘": 1504,
      "帚": 1505,
      "帛": 1506,
      "帜": 1507,
      "帝": 1508,
      "带": 1509,
      "帧": 1510,
      "師": 1511,
      "席": 1512,
      "帮": 1513,
      "帳": 1514,
      "帶": 1515,
      "帷": 1516,
      "常": 1517,
      "帽": 1518,
      "幂": 1519,
      "幅": 1520,
      "幌": 1521,
      "幔": 1522,
      "幕": 1523,
      "幢": 1524,
      "幣": 1525,
      "干": 1526,
      "平": 1527,
      "年": 1528,
      "并": 1529,
      "幸": 1530,
      "幻": 1531,
      "幼": 1532,
      "幽": 1533,
      "广": 1534,
      "庄": 1535,
      "庆": 1536,
      "庇": 1537,
      "床": 1538,
      "序": 1539,
      "庐": 1540,
      "庑": 1541,
      "库": 1542,
      "应": 1543,
      "底": 1544,
      "店": 1545,
      "庙": 1546,
      "庚": 1547,
      "府": 1548,
      "庞": 1549,
      "废": 1550,
      "度": 1551,
      "座": 1552,
      "庫": 1553,
      "庭": 1554,
      "康": 1555,
      "庸": 1556,
      "廈": 1557,
      "廉": 1558,
      "廊": 1559,
      "廓": 1560,
      "廖": 1561,
      "廟": 1562,
      "廠": 1563,
      "廢": 1564,
      "廣": 1565,
      "廳": 1566,
      "延": 1567,
      "廷": 1568,
      "建": 1569,
      "开": 1570,
      "异": 1571,
      "弃": 1572,
      "弄": 1573,
      "弈": 1574,
      "弊": 1575,
      "弋": 1576,
      "式": 1577,
      "弓": 1578,
      "引": 1579,
      "弗": 1580,
      "弘": 1581,
      "弛": 1582,
      "弟": 1583,
      "张": 1584,
      "弥": 1585,
      "弦": 1586,
      "弧": 1587,
      "弯": 1588,
      "弱": 1589,
      "強": 1590,
      "弹": 1591,
      "强": 1592,
      "弼": 1593,
      "彀": 1594,
      "彈": 1595,
      "归": 1596,
      "当": 1597,
      "录": 1598,
      "彗": 1599,
      "形": 1600,
      "彦": 1601,
      "彩": 1602,
      "彪": 1603,
      "彬": 1604,
      "彭": 1605,
      "彰": 1606,
      "影": 1607,
      "彷": 1608,
      "役": 1609,
      "彻": 1610,
      "彼": 1611,
      "往": 1612,
      "征": 1613,
      "径": 1614,
      "待": 1615,
      "徇": 1616,
      "很": 1617,
      "徉": 1618,
      "徊": 1619,
      "律": 1620,
      "後": 1621,
      "徐": 1622,
      "徒": 1623,
      "得": 1624,
      "徘": 1625,
      "徙": 1626,
      "徜": 1627,
      "御": 1628,
      "復": 1629,
      "循": 1630,
      "微": 1631,
      "徵": 1632,
      "德": 1633,
      "徹": 1634,
      "徽": 1635,
      "心": 1636,
      "必": 1637,
      "忆": 1638,
      "忌": 1639,
      "忍": 1640,
      "忏": 1641,
      "忒": 1642,
      "忖": 1643,
      "志": 1644,
      "忘": 1645,
      "忙": 1646,
      "忠": 1647,
      "忡": 1648,
      "忤": 1649,
      "忧": 1650,
      "快": 1651,
      "忱": 1652,
      "念": 1653,
      "忻": 1654,
      "忽": 1655,
      "忿": 1656,
      "怀": 1657,
      "态": 1658,
      "怂": 1659,
      "怅": 1660,
      "怎": 1661,
      "怏": 1662,
      "怒": 1663,
      "怔": 1664,
      "怕": 1665,
      "怖": 1666,
      "怜": 1667,
      "思": 1668,
      "怠": 1669,
      "怡": 1670,
      "急": 1671,
      "怦": 1672,
      "性": 1673,
      "怨": 1674,
      "怪": 1675,
      "怯": 1676,
      "怵": 1677,
      "总": 1678,
      "恋": 1679,
      "恍": 1680,
      "恐": 1681,
      "恒": 1682,
      "恕": 1683,
      "恙": 1684,
      "恢": 1685,
      "恣": 1686,
      "恤": 1687,
      "恨": 1688,
      "恩": 1689,
      "恪": 1690,
      "恫": 1691,
      "恭": 1692,
      "息": 1693,
      "恰": 1694,
      "恳": 1695,
      "恶": 1696,
      "恸": 1697,
      "恻": 1698,
      "恼": 1699,
      "恿": 1700,
      "悄": 1701,
      "悉": 1702,
      "悍": 1703,
      "悔": 1704,
      "悖": 1705,
      "悚": 1706,
      "悟": 1707,
      "悠": 1708,
      "患": 1709,
      "悦": 1710,
      "您": 1711,
      "悬": 1712,
      "悯": 1713,
      "悲": 1714,
      "悴": 1715,
      "悼": 1716,
      "情": 1717,
      "惇": 1718,
      "惊": 1719,
      "惋": 1720,
      "惑": 1721,
      "惕": 1722,
      "惘": 1723,
      "惚": 1724,
      "惜": 1725,
      "惟": 1726,
      "惠": 1727,
      "惡": 1728,
      "惦": 1729,
      "惧": 1730,
      "惨": 1731,
      "惩": 1732,
      "惫": 1733,
      "惬": 1734,
      "惮": 1735,
      "惯": 1736,
      "惰": 1737,
      "想": 1738,
      "惶": 1739,
      "惹": 1740,
      "愁": 1741,
      "愆": 1742,
      "愈": 1743,
      "愉": 1744,
      "意": 1745,
      "愕": 1746,
      "愚": 1747,
      "愛": 1748,
      "感": 1749,
      "愣": 1750,
      "愤": 1751,
      "愧": 1752,
      "愿": 1753,
      "慈": 1754,
      "慊": 1755,
      "態": 1756,
      "慌": 1757,
      "慎": 1758,
      "慑": 1759,
      "慕": 1760,
      "慢": 1761,
      "慤": 1762,
      "慧": 1763,
      "慨": 1764,
      "慰": 1765,
      "慵": 1766,
      "慶": 1767,
      "慷": 1768,
      "慾": 1769,
      "憋": 1770,
      "憎": 1771,
      "憔": 1772,
      "憧": 1773,
      "憩": 1774,
      "憬": 1775,
      "憲": 1776,
      "憾": 1777,
      "懂": 1778,
      "懈": 1779,
      "應": 1780,
      "懊": 1781,
      "懒": 1782,
      "懦": 1783,
      "懵": 1784,
      "懶": 1785,
      "懷": 1786,
      "戀": 1787,
      "戈": 1788,
      "戊": 1789,
      "戍": 1790,
      "戏": 1791,
      "成": 1792,
      "我": 1793,
      "戒": 1794,
      "或": 1795,
      "戗": 1796,
      "战": 1797,
      "戚": 1798,
      "戟": 1799,
      "截": 1800,
      "戮": 1801,
      "戰": 1802,
      "戲": 1803,
      "戳": 1804,
      "戴": 1805,
      "户": 1806,
      "戾": 1807,
      "房": 1808,
      "所": 1809,
      "扁": 1810,
      "扇": 1811,
      "扈": 1812,
      "扉": 1813,
      "手": 1814,
      "才": 1815,
      "扎": 1816,
      "扑": 1817,
      "扒": 1818,
      "打": 1819,
      "扔": 1820,
      "托": 1821,
      "扛": 1822,
      "扣": 1823,
      "执": 1824,
      "扩": 1825,
      "扪": 1826,
      "扫": 1827,
      "扬": 1828,
      "扭": 1829,
      "扮": 1830,
      "扯": 1831,
      "扰": 1832,
      "扳": 1833,
      "扶": 1834,
      "批": 1835,
      "扼": 1836,
      "找": 1837,
      "承": 1838,
      "技": 1839,
      "抄": 1840,
      "抉": 1841,
      "把": 1842,
      "抑": 1843,
      "抒": 1844,
      "抓": 1845,
      "投": 1846,
      "抖": 1847,
      "抗": 1848,
      "折": 1849,
      "抚": 1850,
      "抛": 1851,
      "抠": 1852,
      "抡": 1853,
      "抢": 1854,
      "护": 1855,
      "报": 1856,
      "抨": 1857,
      "披": 1858,
      "抬": 1859,
      "抭": 1860,
      "抯": 1861,
      "抱": 1862,
      "抵": 1863,
      "抹": 1864,
      "抺": 1865,
      "押": 1866,
      "抽": 1867,
      "拂": 1868,
      "担": 1869,
      "拆": 1870,
      "拇": 1871,
      "拈": 1872,
      "拉": 1873,
      "拋": 1874,
      "拌": 1875,
      "拍": 1876,
      "拎": 1877,
      "拐": 1878,
      "拒": 1879,
      "拓": 1880,
      "拔": 1881,
      "拖": 1882,
      "拗": 1883,
      "拘": 1884,
      "拙": 1885,
      "拚": 1886,
      "招": 1887,
      "拜": 1888,
      "拟": 1889,
      "拢": 1890,
      "拣": 1891,
      "拥": 1892,
      "拦": 1893,
      "拧": 1894,
      "拨": 1895,
      "择": 1896,
      "括": 1897,
      "拭": 1898,
      "拮": 1899,
      "拯": 1900,
      "拱": 1901,
      "拳": 1902,
      "拴": 1903,
      "拷": 1904,
      "拼": 1905,
      "拽": 1906,
      "拾": 1907,
      "拿": 1908,
      "持": 1909,
      "挂": 1910,
      "指": 1911,
      "挈": 1912,
      "按": 1913,
      "挎": 1914,
      "挑": 1915,
      "挖": 1916,
      "挚": 1917,
      "挛": 1918,
      "挝": 1919,
      "挞": 1920,
      "挟": 1921,
      "挠": 1922,
      "挡": 1923,
      "挣": 1924,
      "挤": 1925,
      "挥": 1926,
      "挨": 1927,
      "挪": 1928,
      "挫": 1929,
      "振": 1930,
      "挺": 1931,
      "挽": 1932,
      "捂": 1933,
      "捅": 1934,
      "捆": 1935,
      "捉": 1936,
      "捍": 1937,
      "捏": 1938,
      "捐": 1939,
      "捕": 1940,
      "捞": 1941,
      "损": 1942,
      "捡": 1943,
      "换": 1944,
      "捣": 1945,
      "捧": 1946,
      "据": 1947,
      "捱": 1948,
      "捲": 1949,
      "捶": 1950,
      "捷": 1951,
      "捺": 1952,
      "捻": 1953,
      "掀": 1954,
      "授": 1955,
      "掉": 1956,
      "掌": 1957,
      "掏": 1958,
      "掐": 1959,
      "排": 1960,
      "掖": 1961,
      "掘": 1962,
      "掠": 1963,
      "探": 1964,
      "掣": 1965,
      "接": 1966,
      "控": 1967,
      "推": 1968,
      "掩": 1969,
      "措": 1970,
      "掬": 1971,
      "掮": 1972,
      "掰": 1973,
      "掳": 1974,
      "掴": 1975,
      "掷": 1976,
      "掸": 1977,
      "掺": 1978,
      "揄": 1979,
      "揉": 1980,
      "揍": 1981,
      "描": 1982,
      "提": 1983,
      "插": 1984,
      "揚": 1985,
      "換": 1986,
      "握": 1987,
      "揣": 1988,
      "揩": 1989,
      "揭": 1990,
      "援": 1991,
      "揽": 1992,
      "揾": 1993,
      "搀": 1994,
      "搁": 1995,
      "搂": 1996,
      "搅": 1997,
      "搏": 1998,
      "搐": 1999,
      "搓": 2000,
      "搗": 2001,
      "搜": 2002,
      "搞": 2003,
      "搪": 2004,
      "搬": 2005,
      "搭": 2006,
      "携": 2007,
      "摁": 2008,
      "摄": 2009,
      "摆": 2010,
      "摇": 2011,
      "摈": 2012,
      "摊": 2013,
      "摒": 2014,
      "摔": 2015,
      "摗": 2016,
      "摘": 2017,
      "摧": 2018,
      "摩": 2019,
      "摸": 2020,
      "摺": 2021,
      "撂": 2022,
      "撇": 2023,
      "撑": 2024,
      "撒": 2025,
      "撕": 2026,
      "撞": 2027,
      "撤": 2028,
      "撬": 2029,
      "播": 2030,
      "撮": 2031,
      "撰": 2032,
      "撲": 2033,
      "撵": 2034,
      "撷": 2035,
      "撼": 2036,
      "擅": 2037,
      "擊": 2038,
      "操": 2039,
      "擎": 2040,
      "擒": 2041,
      "據": 2042,
      "擦": 2043,
      "擾": 2044,
      "攀": 2045,
      "攒": 2046,
      "攘": 2047,
      "攝": 2048,
      "攣": 2049,
      "攫": 2050,
      "支": 2051,
      "收": 2052,
      "攸": 2053,
      "改": 2054,
      "攻": 2055,
      "放": 2056,
      "政": 2057,
      "故": 2058,
      "效": 2059,
      "敌": 2060,
      "敏": 2061,
      "救": 2062,
      "敕": 2063,
      "敖": 2064,
      "教": 2065,
      "敛": 2066,
      "敝": 2067,
      "敞": 2068,
      "敢": 2069,
      "散": 2070,
      "敦": 2071,
      "敬": 2072,
      "数": 2073,
      "敲": 2074,
      "整": 2075,
      "敷": 2076,
      "數": 2077,
      "文": 2078,
      "斋": 2079,
      "斌": 2080,
      "斐": 2081,
      "斑": 2082,
      "斓": 2083,
      "斗": 2084,
      "料": 2085,
      "斜": 2086,
      "斟": 2087,
      "斡": 2088,
      "斤": 2089,
      "斥": 2090,
      "斧": 2091,
      "斩": 2092,
      "断": 2093,
      "斯": 2094,
      "新": 2095,
      "斷": 2096,
      "方": 2097,
      "於": 2098,
      "施": 2099,
      "旁": 2100,
      "旅": 2101,
      "旋": 2102,
      "旎": 2103,
      "族": 2104,
      "旖": 2105,
      "旗": 2106,
      "无": 2107,
      "既": 2108,
      "日": 2109,
      "旦": 2110,
      "旧": 2111,
      "旨": 2112,
      "早": 2113,
      "旬": 2114,
      "旭": 2115,
      "旱": 2116,
      "旳": 2117,
      "时": 2118,
      "旷": 2119,
      "旺": 2120,
      "昂": 2121,
      "昆": 2122,
      "昊": 2123,
      "昌": 2124,
      "明": 2125,
      "昏": 2126,
      "易": 2127,
      "昔": 2128,
      "昙": 2129,
      "星": 2130,
      "映": 2131,
      "春": 2132,
      "昧": 2133,
      "昨": 2134,
      "昭": 2135,
      "是": 2136,
      "昵": 2137,
      "昼": 2138,
      "显": 2139,
      "時": 2140,
      "晃": 2141,
      "晋": 2142,
      "晏": 2143,
      "晒": 2144,
      "晓": 2145,
      "晕": 2146,
      "晚": 2147,
      "晟": 2148,
      "晤": 2149,
      "晦": 2150,
      "晨": 2151,
      "普": 2152,
      "景": 2153,
      "晰": 2154,
      "晴": 2155,
      "晶": 2156,
      "晷": 2157,
      "智": 2158,
      "晾": 2159,
      "暂": 2160,
      "暇": 2161,
      "暑": 2162,
      "暖": 2163,
      "暗": 2164,
      "暧": 2165,
      "暨": 2166,
      "暮": 2167,
      "暴": 2168,
      "曉": 2169,
      "曙": 2170,
      "曝": 2171,
      "曦": 2172,
      "曲": 2173,
      "曳": 2174,
      "更": 2175,
      "書": 2176,
      "曹": 2177,
      "曼": 2178,
      "曾": 2179,
      "替": 2180,
      "最": 2181,
      "會": 2182,
      "月": 2183,
      "有": 2184,
      "朊": 2185,
      "朋": 2186,
      "服": 2187,
      "朔": 2188,
      "朗": 2189,
      "望": 2190,
      "朝": 2191,
      "期": 2192,
      "朦": 2193,
      "木": 2194,
      "未": 2195,
      "末": 2196,
      "本": 2197,
      "札": 2198,
      "术": 2199,
      "朱": 2200,
      "朴": 2201,
      "朵": 2202,
      "机": 2203,
      "朽": 2204,
      "杀": 2205,
      "杂": 2206,
      "权": 2207,
      "杆": 2208,
      "杉": 2209,
      "李": 2210,
      "杏": 2211,
      "材": 2212,
      "村": 2213,
      "杖": 2214,
      "杜": 2215,
      "杞": 2216,
      "束": 2217,
      "杠": 2218,
      "条": 2219,
      "来": 2220,
      "杨": 2221,
      "杭": 2222,
      "杯": 2223,
      "杰": 2224,
      "東": 2225,
      "杳": 2226,
      "松": 2227,
      "板": 2228,
      "极": 2229,
      "构": 2230,
      "枉": 2231,
      "析": 2232,
      "枕": 2233,
      "林": 2234,
      "枚": 2235,
      "果": 2236,
      "枝": 2237,
      "枞": 2238,
      "枢": 2239,
      "枣": 2240,
      "枪": 2241,
      "枫": 2242,
      "枭": 2243,
      "枯": 2244,
      "架": 2245,
      "枷": 2246,
      "柄": 2247,
      "柏": 2248,
      "某": 2249,
      "柑": 2250,
      "染": 2251,
      "柔": 2252,
      "柚": 2253,
      "柜": 2254,
      "柠": 2255,
      "查": 2256,
      "柬": 2257,
      "柯": 2258,
      "柱": 2259,
      "柳": 2260,
      "柴": 2261,
      "柿": 2262,
      "栅": 2263,
      "标": 2264,
      "栈": 2265,
      "栋": 2266,
      "栏": 2267,
      "树": 2268,
      "栒": 2269,
      "栓": 2270,
      "栖": 2271,
      "栗": 2272,
      "校": 2273,
      "栩": 2274,
      "株": 2275,
      "样": 2276,
      "核": 2277,
      "根": 2278,
      "格": 2279,
      "栽": 2280,
      "桂": 2281,
      "桃": 2282,
      "桅": 2283,
      "框": 2284,
      "案": 2285,
      "桉": 2286,
      "桌": 2287,
      "桐": 2288,
      "桑": 2289,
      "桔": 2290,
      "桠": 2291,
      "桡": 2292,
      "档": 2293,
      "桥": 2294,
      "桦": 2295,
      "桨": 2296,
      "桩": 2297,
      "桶": 2298,
      "梁": 2299,
      "梅": 2300,
      "梆": 2301,
      "梗": 2302,
      "條": 2303,
      "梢": 2304,
      "梦": 2305,
      "梧": 2306,
      "梨": 2307,
      "梭": 2308,
      "梯": 2309,
      "械": 2310,
      "梳": 2311,
      "梵": 2312,
      "检": 2313,
      "棉": 2314,
      "棋": 2315,
      "棍": 2316,
      "棒": 2317,
      "棕": 2318,
      "棗": 2319,
      "棘": 2320,
      "棚": 2321,
      "棠": 2322,
      "森": 2323,
      "棱": 2324,
      "棲": 2325,
      "棵": 2326,
      "棺": 2327,
      "椅": 2328,
      "植": 2329,
      "椎": 2330,
      "椒": 2331,
      "椭": 2332,
      "椰": 2333,
      "楂": 2334,
      "楔": 2335,
      "楚": 2336,
      "楞": 2337,
      "楠": 2338,
      "業": 2339,
      "極": 2340,
      "楷": 2341,
      "楼": 2342,
      "概": 2343,
      "榄": 2344,
      "榆": 2345,
      "榈": 2346,
      "榔": 2347,
      "榛": 2348,
      "榜": 2349,
      "榨": 2350,
      "榮": 2351,
      "榴": 2352,
      "榷": 2353,
      "榻": 2354,
      "槁": 2355,
      "構": 2356,
      "槌": 2357,
      "槍": 2358,
      "槛": 2359,
      "槟": 2360,
      "槳": 2361,
      "槽": 2362,
      "槿": 2363,
      "樂": 2364,
      "樓": 2365,
      "標": 2366,
      "樟": 2367,
      "模": 2368,
      "樣": 2369,
      "横": 2370,
      "樱": 2371,
      "樵": 2372,
      "樸": 2373,
      "樹": 2374,
      "樽": 2375,
      "橄": 2376,
      "橇": 2377,
      "橋": 2378,
      "橘": 2379,
      "橙": 2380,
      "機": 2381,
      "橡": 2382,
      "橥": 2383,
      "橱": 2384,
      "檀": 2385,
      "檐": 2386,
      "檔": 2387,
      "檞": 2388,
      "檬": 2389,
      "檸": 2390,
      "權": 2391,
      "欖": 2392,
      "欠": 2393,
      "次": 2394,
      "欢": 2395,
      "欣": 2396,
      "欧": 2397,
      "欲": 2398,
      "欺": 2399,
      "欽": 2400,
      "款": 2401,
      "歇": 2402,
      "歉": 2403,
      "歌": 2404,
      "歐": 2405,
      "歡": 2406,
      "止": 2407,
      "正": 2408,
      "此": 2409,
      "步": 2410,
      "武": 2411,
      "歧": 2412,
      "歪": 2413,
      "歲": 2414,
      "歷": 2415,
      "歸": 2416,
      "歹": 2417,
      "死": 2418,
      "歼": 2419,
      "殃": 2420,
      "殆": 2421,
      "殉": 2422,
      "殊": 2423,
      "残": 2424,
      "殒": 2425,
      "殖": 2426,
      "殘": 2427,
      "殡": 2428,
      "殭": 2429,
      "殯": 2430,
      "殴": 2431,
      "段": 2432,
      "殷": 2433,
      "殺": 2434,
      "殿": 2435,
      "毁": 2436,
      "毅": 2437,
      "毋": 2438,
      "母": 2439,
      "每": 2440,
      "毒": 2441,
      "比": 2442,
      "毕": 2443,
      "毗": 2444,
      "毙": 2445,
      "毛": 2446,
      "毡": 2447,
      "毫": 2448,
      "毯": 2449,
      "毳": 2450,
      "毽": 2451,
      "氏": 2452,
      "氐": 2453,
      "民": 2454,
      "氓": 2455,
      "气": 2456,
      "氙": 2457,
      "氛": 2458,
      "氟": 2459,
      "氡": 2460,
      "氢": 2461,
      "氣": 2462,
      "氦": 2463,
      "氧": 2464,
      "氨": 2465,
      "氩": 2466,
      "氪": 2467,
      "氮": 2468,
      "氯": 2469,
      "氰": 2470,
      "水": 2471,
      "氵": 2472,
      "永": 2473,
      "汀": 2474,
      "汁": 2475,
      "求": 2476,
      "汇": 2477,
      "汉": 2478,
      "汕": 2479,
      "汗": 2480,
      "汛": 2481,
      "汝": 2482,
      "汞": 2483,
      "江": 2484,
      "池": 2485,
      "污": 2486,
      "汤": 2487,
      "汪": 2488,
      "汰": 2489,
      "汲": 2490,
      "汶": 2491,
      "汹": 2492,
      "決": 2493,
      "汽": 2494,
      "沁": 2495,
      "沂": 2496,
      "沃": 2497,
      "沅": 2498,
      "沆": 2499,
      "沈": 2500,
      "沉": 2501,
      "沌": 2502,
      "沐": 2503,
      "沓": 2504,
      "沙": 2505,
      "沛": 2506,
      "沟": 2507,
      "没": 2508,
      "沥": 2509,
      "沦": 2510,
      "沧": 2511,
      "沪": 2512,
      "沫": 2513,
      "沭": 2514,
      "沮": 2515,
      "沱": 2516,
      "河": 2517,
      "沸": 2518,
      "油": 2519,
      "治": 2520,
      "沼": 2521,
      "沽": 2522,
      "沾": 2523,
      "沿": 2524,
      "泄": 2525,
      "泉": 2526,
      "泊": 2527,
      "泌": 2528,
      "泓": 2529,
      "法": 2530,
      "泛": 2531,
      "泞": 2532,
      "泡": 2533,
      "波": 2534,
      "泣": 2535,
      "泥": 2536,
      "注": 2537,
      "泪": 2538,
      "泮": 2539,
      "泯": 2540,
      "泰": 2541,
      "泳": 2542,
      "泵": 2543,
      "泻": 2544,
      "泼": 2545,
      "泽": 2546,
      "洁": 2547,
      "洄": 2548,
      "洋": 2549,
      "洒": 2550,
      "洗": 2551,
      "洙": 2552,
      "洛": 2553,
      "洞": 2554,
      "津": 2555,
      "洪": 2556,
      "洫": 2557,
      "洮": 2558,
      "洲": 2559,
      "活": 2560,
      "洼": 2561,
      "洽": 2562,
      "派": 2563,
      "流": 2564,
      "浃": 2565,
      "浅": 2566,
      "浆": 2567,
      "浇": 2568,
      "浊": 2569,
      "测": 2570,
      "济": 2571,
      "浏": 2572,
      "浑": 2573,
      "浓": 2574,
      "浙": 2575,
      "浜": 2576,
      "浣": 2577,
      "浦": 2578,
      "浩": 2579,
      "浪": 2580,
      "浮": 2581,
      "浴": 2582,
      "海": 2583,
      "浸": 2584,
      "涂": 2585,
      "涅": 2586,
      "消": 2587,
      "涉": 2588,
      "涌": 2589,
      "涎": 2590,
      "涓": 2591,
      "涕": 2592,
      "涛": 2593,
      "涝": 2594,
      "涡": 2595,
      "涣": 2596,
      "涤": 2597,
      "润": 2598,
      "涧": 2599,
      "涨": 2600,
      "涩": 2601,
      "涯": 2602,
      "液": 2603,
      "涵": 2604,
      "涸": 2605,
      "涼": 2606,
      "淀": 2607,
      "淄": 2608,
      "淆": 2609,
      "淇": 2610,
      "淋": 2611,
      "淌": 2612,
      "淑": 2613,
      "淘": 2614,
      "淙": 2615,
      "淡": 2616,
      "淤": 2617,
      "淫": 2618,
      "淬": 2619,
      "淮": 2620,
      "深": 2621,
      "混": 2622,
      "淹": 2623,
      "添": 2624,
      "清": 2625,
      "渊": 2626,
      "渍": 2627,
      "渎": 2628,
      "渐": 2629,
      "渔": 2630,
      "渗": 2631,
      "渚": 2632,
      "渝": 2633,
      "渠": 2634,
      "渡": 2635,
      "渣": 2636,
      "渤": 2637,
      "渥": 2638,
      "温": 2639,
      "測": 2640,
      "渭": 2641,
      "港": 2642,
      "渲": 2643,
      "渴": 2644,
      "游": 2645,
      "渺": 2646,
      "湄": 2647,
      "湍": 2648,
      "湎": 2649,
      "湖": 2650,
      "湘": 2651,
      "湛": 2652,
      "湟": 2653,
      "湮": 2654,
      "湯": 2655,
      "湾": 2656,
      "湿": 2657,
      "溃": 2658,
      "溅": 2659,
      "溉": 2660,
      "源": 2661,
      "準": 2662,
      "溜": 2663,
      "溢": 2664,
      "溪": 2665,
      "溫": 2666,
      "溯": 2667,
      "溴": 2668,
      "溶": 2669,
      "溺": 2670,
      "滁": 2671,
      "滋": 2672,
      "滑": 2673,
      "滓": 2674,
      "滔": 2675,
      "滕": 2676,
      "滚": 2677,
      "滞": 2678,
      "满": 2679,
      "滤": 2680,
      "滥": 2681,
      "滨": 2682,
      "滩": 2683,
      "滴": 2684,
      "滿": 2685,
      "漂": 2686,
      "漆": 2687,
      "漏": 2688,
      "漓": 2689,
      "演": 2690,
      "漠": 2691,
      "漢": 2692,
      "漩": 2693,
      "漫": 2694,
      "漱": 2695,
      "漾": 2696,
      "潔": 2697,
      "潘": 2698,
      "潛": 2699,
      "潜": 2700,
      "潞": 2701,
      "潟": 2702,
      "潦": 2703,
      "潭": 2704,
      "潮": 2705,
      "潴": 2706,
      "潺": 2707,
      "澄": 2708,
      "澈": 2709,
      "澍": 2710,
      "澎": 2711,
      "澜": 2712,
      "澡": 2713,
      "澤": 2714,
      "澧": 2715,
      "澱": 2716,
      "澳": 2717,
      "激": 2718,
      "濒": 2719,
      "濟": 2720,
      "濮": 2721,
      "濯": 2722,
      "濱": 2723,
      "濶": 2724,
      "瀑": 2725,
      "瀚": 2726,
      "瀨": 2727,
      "灌": 2728,
      "灐": 2729,
      "灣": 2730,
      "火": 2731,
      "灭": 2732,
      "灯": 2733,
      "灰": 2734,
      "灵": 2735,
      "灶": 2736,
      "灸": 2737,
      "灼": 2738,
      "灾": 2739,
      "灿": 2740,
      "炉": 2741,
      "炊": 2742,
      "炎": 2743,
      "炒": 2744,
      "炕": 2745,
      "炖": 2746,
      "炙": 2747,
      "炫": 2748,
      "炬": 2749,
      "炭": 2750,
      "炮": 2751,
      "炯": 2752,
      "炳": 2753,
      "炸": 2754,
      "点": 2755,
      "為": 2756,
      "炻": 2757,
      "炼": 2758,
      "炽": 2759,
      "烁": 2760,
      "烂": 2761,
      "烃": 2762,
      "烈": 2763,
      "烏": 2764,
      "烘": 2765,
      "烙": 2766,
      "烛": 2767,
      "烟": 2768,
      "烤": 2769,
      "烦": 2770,
      "烧": 2771,
      "烨": 2772,
      "烩": 2773,
      "烫": 2774,
      "烬": 2775,
      "热": 2776,
      "烯": 2777,
      "烷": 2778,
      "烹": 2779,
      "焉": 2780,
      "焊": 2781,
      "焕": 2782,
      "焖": 2783,
      "焙": 2784,
      "焚": 2785,
      "無": 2786,
      "焦": 2787,
      "焰": 2788,
      "然": 2789,
      "煅": 2790,
      "煌": 2791,
      "煎": 2792,
      "煞": 2793,
      "煤": 2794,
      "煦": 2795,
      "照": 2796,
      "煨": 2797,
      "煮": 2798,
      "煲": 2799,
      "煸": 2800,
      "煽": 2801,
      "熄": 2802,
      "熊": 2803,
      "熏": 2804,
      "熔": 2805,
      "熙": 2806,
      "熟": 2807,
      "熨": 2808,
      "熬": 2809,
      "熱": 2810,
      "熵": 2811,
      "熹": 2812,
      "燃": 2813,
      "燈": 2814,
      "燎": 2815,
      "燔": 2816,
      "燕": 2817,
      "營": 2818,
      "燥": 2819,
      "燮": 2820,
      "爆": 2821,
      "爪": 2822,
      "爬": 2823,
      "爭": 2824,
      "爰": 2825,
      "爱": 2826,
      "爲": 2827,
      "爵": 2828,
      "父": 2829,
      "爷": 2830,
      "爸": 2831,
      "爹": 2832,
      "爽": 2833,
      "爾": 2834,
      "爿": 2835,
      "牆": 2836,
      "片": 2837,
      "版": 2838,
      "牌": 2839,
      "牎": 2840,
      "牐": 2841,
      "牒": 2842,
      "牙": 2843,
      "牛": 2844,
      "牟": 2845,
      "牠": 2846,
      "牡": 2847,
      "牢": 2848,
      "牦": 2849,
      "牧": 2850,
      "物": 2851,
      "牲": 2852,
      "牵": 2853,
      "特": 2854,
      "牺": 2855,
      "牾": 2856,
      "犀": 2857,
      "犁": 2858,
      "犄": 2859,
      "犊": 2860,
      "犬": 2861,
      "犯": 2862,
      "状": 2863,
      "犸": 2864,
      "犹": 2865,
      "狀": 2866,
      "狂": 2867,
      "狄": 2868,
      "狈": 2869,
      "狐": 2870,
      "狒": 2871,
      "狗": 2872,
      "狙": 2873,
      "狠": 2874,
      "狡": 2875,
      "狦": 2876,
      "狩": 2877,
      "独": 2878,
      "狭": 2879,
      "狮": 2880,
      "狱": 2881,
      "狸": 2882,
      "狼": 2883,
      "猎": 2884,
      "猖": 2885,
      "猛": 2886,
      "猜": 2887,
      "猝": 2888,
      "猩": 2889,
      "猪": 2890,
      "猫": 2891,
      "猬": 2892,
      "献": 2893,
      "猴": 2894,
      "猶": 2895,
      "猷": 2896,
      "猾": 2897,
      "猿": 2898,
      "獅": 2899,
      "獎": 2900,
      "獗": 2901,
      "獨": 2902,
      "獭": 2903,
      "獲": 2904,
      "獸": 2905,
      "獾": 2906,
      "玄": 2907,
      "率": 2908,
      "玉": 2909,
      "王": 2910,
      "玛": 2911,
      "玥": 2912,
      "玩": 2913,
      "玫": 2914,
      "环": 2915,
      "现": 2916,
      "玲": 2917,
      "玳": 2918,
      "玷": 2919,
      "玺": 2920,
      "玻": 2921,
      "珀": 2922,
      "珂": 2923,
      "珈": 2924,
      "珊": 2925,
      "珍": 2926,
      "珐": 2927,
      "珞": 2928,
      "珠": 2929,
      "珥": 2930,
      "珩": 2931,
      "班": 2932,
      "現": 2933,
      "球": 2934,
      "琅": 2935,
      "理": 2936,
      "琉": 2937,
      "琊": 2938,
      "琌": 2939,
      "琐": 2940,
      "琛": 2941,
      "琢": 2942,
      "琥": 2943,
      "琪": 2944,
      "琳": 2945,
      "琴": 2946,
      "琵": 2947,
      "琶": 2948,
      "琼": 2949,
      "瑕": 2950,
      "瑙": 2951,
      "瑚": 2952,
      "瑛": 2953,
      "瑜": 2954,
      "瑞": 2955,
      "瑟": 2956,
      "瑪": 2957,
      "瑰": 2958,
      "瑶": 2959,
      "璀": 2960,
      "璃": 2961,
      "璇": 2962,
      "璋": 2963,
      "璎": 2964,
      "璧": 2965,
      "環": 2966,
      "瓊": 2967,
      "瓜": 2968,
      "瓢": 2969,
      "瓣": 2970,
      "瓦": 2971,
      "瓮": 2972,
      "瓯": 2973,
      "瓶": 2974,
      "瓷": 2975,
      "甄": 2976,
      "甘": 2977,
      "甙": 2978,
      "甚": 2979,
      "甜": 2980,
      "生": 2981,
      "產": 2982,
      "用": 2983,
      "甩": 2984,
      "甫": 2985,
      "田": 2986,
      "由": 2987,
      "甲": 2988,
      "申": 2989,
      "电": 2990,
      "男": 2991,
      "甸": 2992,
      "町": 2993,
      "画": 2994,
      "畅": 2995,
      "界": 2996,
      "畏": 2997,
      "畑": 2998,
      "畔": 2999,
      "留": 3000,
      "畜": 3001,
      "略": 3002,
      "番": 3003,
      "畫": 3004,
      "異": 3005,
      "畴": 3006,
      "當": 3007,
      "畸": 3008,
      "畿": 3009,
      "疆": 3010,
      "疏": 3011,
      "疑": 3012,
      "疗": 3013,
      "疙": 3014,
      "疚": 3015,
      "疝": 3016,
      "疟": 3017,
      "疡": 3018,
      "疣": 3019,
      "疤": 3020,
      "疥": 3021,
      "疫": 3022,
      "疮": 3023,
      "疯": 3024,
      "疱": 3025,
      "疲": 3026,
      "疵": 3027,
      "疹": 3028,
      "疼": 3029,
      "疽": 3030,
      "疾": 3031,
      "病": 3032,
      "症": 3033,
      "痉": 3034,
      "痊": 3035,
      "痍": 3036,
      "痒": 3037,
      "痔": 3038,
      "痕": 3039,
      "痘": 3040,
      "痛": 3041,
      "痞": 3042,
      "痢": 3043,
      "痤": 3044,
      "痪": 3045,
      "痫": 3046,
      "痰": 3047,
      "痴": 3048,
      "痷": 3049,
      "痹": 3050,
      "痼": 3051,
      "瘀": 3052,
      "瘘": 3053,
      "瘙": 3054,
      "瘟": 3055,
      "瘠": 3056,
      "瘢": 3057,
      "瘤": 3058,
      "瘦": 3059,
      "瘩": 3060,
      "瘪": 3061,
      "瘫": 3062,
      "瘸": 3063,
      "瘾": 3064,
      "療": 3065,
      "癌": 3066,
      "癖": 3067,
      "癜": 3068,
      "癞": 3069,
      "癫": 3070,
      "癸": 3071,
      "登": 3072,
      "發": 3073,
      "白": 3074,
      "百": 3075,
      "皂": 3076,
      "的": 3077,
      "皆": 3078,
      "皇": 3079,
      "皈": 3080,
      "皎": 3081,
      "皑": 3082,
      "皙": 3083,
      "皮": 3084,
      "皱": 3085,
      "皿": 3086,
      "盂": 3087,
      "盃": 3088,
      "盆": 3089,
      "盈": 3090,
      "益": 3091,
      "盎": 3092,
      "盏": 3093,
      "盐": 3094,
      "监": 3095,
      "盒": 3096,
      "盔": 3097,
      "盖": 3098,
      "盗": 3099,
      "盘": 3100,
      "盛": 3101,
      "盟": 3102,
      "盥": 3103,
      "盧": 3104,
      "目": 3105,
      "盯": 3106,
      "盲": 3107,
      "直": 3108,
      "相": 3109,
      "盹": 3110,
      "盼": 3111,
      "盾": 3112,
      "省": 3113,
      "眉": 3114,
      "看": 3115,
      "眖": 3116,
      "真": 3117,
      "眠": 3118,
      "眨": 3119,
      "眩": 3120,
      "眶": 3121,
      "眷": 3122,
      "眸": 3123,
      "眺": 3124,
      "眼": 3125,
      "眾": 3126,
      "着": 3127,
      "睁": 3128,
      "睐": 3129,
      "睑": 3130,
      "睛": 3131,
      "睡": 3132,
      "督": 3133,
      "睦": 3134,
      "睫": 3135,
      "睬": 3136,
      "睹": 3137,
      "睺": 3138,
      "睽": 3139,
      "睾": 3140,
      "睿": 3141,
      "瞄": 3142,
      "瞌": 3143,
      "瞎": 3144,
      "瞒": 3145,
      "瞟": 3146,
      "瞠": 3147,
      "瞥": 3148,
      "瞧": 3149,
      "瞩": 3150,
      "瞪": 3151,
      "瞬": 3152,
      "瞭": 3153,
      "瞰": 3154,
      "瞳": 3155,
      "瞻": 3156,
      "瞿": 3157,
      "矗": 3158,
      "矚": 3159,
      "矛": 3160,
      "矜": 3161,
      "矢": 3162,
      "矣": 3163,
      "知": 3164,
      "矩": 3165,
      "矫": 3166,
      "短": 3167,
      "矮": 3168,
      "石": 3169,
      "矶": 3170,
      "矸": 3171,
      "矿": 3172,
      "码": 3173,
      "砂": 3174,
      "砌": 3175,
      "砍": 3176,
      "研": 3177,
      "砖": 3178,
      "砚": 3179,
      "砟": 3180,
      "砧": 3181,
      "砭": 3182,
      "砰": 3183,
      "破": 3184,
      "砷": 3185,
      "砸": 3186,
      "砺": 3187,
      "砼": 3188,
      "砾": 3189,
      "础": 3190,
      "硂": 3191,
      "硅": 3192,
      "硐": 3193,
      "硒": 3194,
      "硕": 3195,
      "硝": 3196,
      "硫": 3197,
      "硬": 3198,
      "确": 3199,
      "硷": 3200,
      "硼": 3201,
      "碌": 3202,
      "碍": 3203,
      "碎": 3204,
      "碑": 3205,
      "碗": 3206,
      "碘": 3207,
      "碟": 3208,
      "碡": 3209,
      "碧": 3210,
      "碰": 3211,
      "碱": 3212,
      "碲": 3213,
      "碳": 3214,
      "碴": 3215,
      "碼": 3216,
      "碾": 3217,
      "磁": 3218,
      "磅": 3219,
      "磊": 3220,
      "磋": 3221,
      "磐": 3222,
      "磨": 3223,
      "磴": 3224,
      "磷": 3225,
      "磺": 3226,
      "礁": 3227,
      "礎": 3228,
      "礦": 3229,
      "礶": 3230,
      "示": 3231,
      "礼": 3232,
      "社": 3233,
      "祁": 3234,
      "祂": 3235,
      "祆": 3236,
      "祇": 3237,
      "祈": 3238,
      "祉": 3239,
      "祐": 3240,
      "祖": 3241,
      "祛": 3242,
      "祜": 3243,
      "祝": 3244,
      "神": 3245,
      "祟": 3246,
      "祠": 3247,
      "祢": 3248,
      "祥": 3249,
      "票": 3250,
      "祭": 3251,
      "祷": 3252,
      "祸": 3253,
      "禁": 3254,
      "禄": 3255,
      "禅": 3256,
      "福": 3257,
      "禥": 3258,
      "禧": 3259,
      "禮": 3260,
      "离": 3261,
      "禽": 3262,
      "禾": 3263,
      "秀": 3264,
      "私": 3265,
      "秃": 3266,
      "秆": 3267,
      "秉": 3268,
      "秋": 3269,
      "种": 3270,
      "科": 3271,
      "秒": 3272,
      "秕": 3273,
      "秘": 3274,
      "租": 3275,
      "秤": 3276,
      "秦": 3277,
      "秧": 3278,
      "秩": 3279,
      "积": 3280,
      "称": 3281,
      "秸": 3282,
      "移": 3283,
      "秽": 3284,
      "稀": 3285,
      "程": 3286,
      "稍": 3287,
      "税": 3288,
      "稗": 3289,
      "稚": 3290,
      "稠": 3291,
      "稣": 3292,
      "種": 3293,
      "稱": 3294,
      "稳": 3295,
      "稻": 3296,
      "稼": 3297,
      "稽": 3298,
      "稿": 3299,
      "穆": 3300,
      "積": 3301,
      "穏": 3302,
      "穗": 3303,
      "穴": 3304,
      "究": 3305,
      "穷": 3306,
      "穹": 3307,
      "空": 3308,
      "穿": 3309,
      "突": 3310,
      "窃": 3311,
      "窄": 3312,
      "窍": 3313,
      "窑": 3314,
      "窒": 3315,
      "窖": 3316,
      "窗": 3317,
      "窘": 3318,
      "窜": 3319,
      "窝": 3320,
      "窟": 3321,
      "窥": 3322,
      "窦": 3323,
      "窨": 3324,
      "窩": 3325,
      "立": 3326,
      "竒": 3327,
      "竖": 3328,
      "站": 3329,
      "竞": 3330,
      "竟": 3331,
      "章": 3332,
      "竣": 3333,
      "童": 3334,
      "竭": 3335,
      "端": 3336,
      "競": 3337,
      "竹": 3338,
      "竺": 3339,
      "竿": 3340,
      "笃": 3341,
      "笆": 3342,
      "笋": 3343,
      "笑": 3344,
      "笔": 3345,
      "笛": 3346,
      "笞": 3347,
      "符": 3348,
      "笨": 3349,
      "第": 3350,
      "笼": 3351,
      "等": 3352,
      "筋": 3353,
      "筍": 3354,
      "筏": 3355,
      "筐": 3356,
      "筑": 3357,
      "筒": 3358,
      "答": 3359,
      "策": 3360,
      "筛": 3361,
      "筝": 3362,
      "筱": 3363,
      "筷": 3364,
      "筹": 3365,
      "签": 3366,
      "简": 3367,
      "箇": 3368,
      "箍": 3369,
      "箔": 3370,
      "箕": 3371,
      "算": 3372,
      "管": 3373,
      "箩": 3374,
      "箫": 3375,
      "箭": 3376,
      "箱": 3377,
      "箴": 3378,
      "節": 3379,
      "篆": 3380,
      "篇": 3381,
      "築": 3382,
      "篓": 3383,
      "篘": 3384,
      "篝": 3385,
      "篡": 3386,
      "篪": 3387,
      "篮": 3388,
      "篱": 3389,
      "篷": 3390,
      "簇": 3391,
      "簧": 3392,
      "簸": 3393,
      "簽": 3394,
      "簿": 3395,
      "籃": 3396,
      "籌": 3397,
      "籍": 3398,
      "籠": 3399,
      "米": 3400,
      "类": 3401,
      "籽": 3402,
      "粉": 3403,
      "粒": 3404,
      "粗": 3405,
      "粘": 3406,
      "粟": 3407,
      "粤": 3408,
      "粥": 3409,
      "粪": 3410,
      "粮": 3411,
      "粱": 3412,
      "粹": 3413,
      "精": 3414,
      "糅": 3415,
      "糊": 3416,
      "糕": 3417,
      "糖": 3418,
      "糙": 3419,
      "糜": 3420,
      "糟": 3421,
      "糠": 3422,
      "糯": 3423,
      "系": 3424,
      "紀": 3425,
      "約": 3426,
      "紅": 3427,
      "紊": 3428,
      "紋": 3429,
      "納": 3430,
      "紐": 3431,
      "紙": 3432,
      "級": 3433,
      "素": 3434,
      "索": 3435,
      "紧": 3436,
      "紫": 3437,
      "累": 3438,
      "細": 3439,
      "紳": 3440,
      "終": 3441,
      "組": 3442,
      "結": 3443,
      "絕": 3444,
      "給": 3445,
      "絮": 3446,
      "統": 3447,
      "絲": 3448,
      "經": 3449,
      "綠": 3450,
      "綫": 3451,
      "維": 3452,
      "綱": 3453,
      "網": 3454,
      "緊": 3455,
      "緋": 3456,
      "緒": 3457,
      "線": 3458,
      "緣": 3459,
      "編": 3460,
      "緬": 3461,
      "緯": 3462,
      "練": 3463,
      "縛": 3464,
      "縣": 3465,
      "總": 3466,
      "繁": 3467,
      "織": 3468,
      "繼": 3469,
      "纂": 3470,
      "續": 3471,
      "纜": 3472,
      "纠": 3473,
      "红": 3474,
      "纤": 3475,
      "纥": 3476,
      "约": 3477,
      "级": 3478,
      "纪": 3479,
      "纬": 3480,
      "纭": 3481,
      "纯": 3482,
      "纱": 3483,
      "纲": 3484,
      "纳": 3485,
      "纵": 3486,
      "纶": 3487,
      "纷": 3488,
      "纸": 3489,
      "纹": 3490,
      "纺": 3491,
      "纽": 3492,
      "纾": 3493,
      "线": 3494,
      "练": 3495,
      "组": 3496,
      "绅": 3497,
      "细": 3498,
      "织": 3499,
      "终": 3500,
      "绊": 3501,
      "绌": 3502,
      "绍": 3503,
      "绎": 3504,
      "经": 3505,
      "绑": 3506,
      "绒": 3507,
      "结": 3508,
      "绕": 3509,
      "绘": 3510,
      "给": 3511,
      "绚": 3512,
      "络": 3513,
      "绝": 3514,
      "绞": 3515,
      "统": 3516,
      "绢": 3517,
      "绣": 3518,
      "绥": 3519,
      "继": 3520,
      "绩": 3521,
      "绪": 3522,
      "续": 3523,
      "绯": 3524,
      "绰": 3525,
      "绳": 3526,
      "维": 3527,
      "绵": 3528,
      "绷": 3529,
      "绸": 3530,
      "绺": 3531,
      "绻": 3532,
      "综": 3533,
      "绽": 3534,
      "绿": 3535,
      "缀": 3536,
      "缄": 3537,
      "缅": 3538,
      "缆": 3539,
      "缈": 3540,
      "缉": 3541,
      "缎": 3542,
      "缓": 3543,
      "缔": 3544,
      "缕": 3545,
      "编": 3546,
      "缘": 3547,
      "缚": 3548,
      "缛": 3549,
      "缜": 3550,
      "缝": 3551,
      "缠": 3552,
      "缤": 3553,
      "缥": 3554,
      "缦": 3555,
      "缩": 3556,
      "缪": 3557,
      "缭": 3558,
      "缮": 3559,
      "缯": 3560,
      "缰": 3561,
      "缱": 3562,
      "缴": 3563,
      "缸": 3564,
      "缺": 3565,
      "罂": 3566,
      "罄": 3567,
      "罐": 3568,
      "网": 3569,
      "罔": 3570,
      "罕": 3571,
      "罗": 3572,
      "罚": 3573,
      "罢": 3574,
      "罩": 3575,
      "罪": 3576,
      "置": 3577,
      "罱": 3578,
      "署": 3579,
      "罹": 3580,
      "羁": 3581,
      "羅": 3582,
      "羊": 3583,
      "美": 3584,
      "羔": 3585,
      "羚": 3586,
      "羞": 3587,
      "羟": 3588,
      "羡": 3589,
      "群": 3590,
      "羧": 3591,
      "義": 3592,
      "羯": 3593,
      "羹": 3594,
      "羽": 3595,
      "翁": 3596,
      "翅": 3597,
      "翊": 3598,
      "翌": 3599,
      "翎": 3600,
      "習": 3601,
      "翔": 3602,
      "翘": 3603,
      "翟": 3604,
      "翠": 3605,
      "翩": 3606,
      "翰": 3607,
      "翱": 3608,
      "翻": 3609,
      "翼": 3610,
      "耀": 3611,
      "老": 3612,
      "考": 3613,
      "者": 3614,
      "耆": 3615,
      "而": 3616,
      "耍": 3617,
      "耐": 3618,
      "耕": 3619,
      "耗": 3620,
      "耘": 3621,
      "耙": 3622,
      "耦": 3623,
      "耳": 3624,
      "耶": 3625,
      "耷": 3626,
      "耸": 3627,
      "耻": 3628,
      "耽": 3629,
      "耿": 3630,
      "聂": 3631,
      "聆": 3632,
      "聊": 3633,
      "聋": 3634,
      "职": 3635,
      "联": 3636,
      "聖": 3637,
      "聘": 3638,
      "聚": 3639,
      "聞": 3640,
      "聪": 3641,
      "聯": 3642,
      "聲": 3643,
      "聶": 3644,
      "職": 3645,
      "肃": 3646,
      "肄": 3647,
      "肆": 3648,
      "肇": 3649,
      "肉": 3650,
      "肋": 3651,
      "肌": 3652,
      "肖": 3653,
      "肘": 3654,
      "肚": 3655,
      "肛": 3656,
      "肝": 3657,
      "肟": 3658,
      "肠": 3659,
      "股": 3660,
      "肢": 3661,
      "肤": 3662,
      "肥": 3663,
      "肩": 3664,
      "肪": 3665,
      "肮": 3666,
      "肯": 3667,
      "育": 3668,
      "肴": 3669,
      "肺": 3670,
      "肼": 3671,
      "肽": 3672,
      "肾": 3673,
      "肿": 3674,
      "胀": 3675,
      "胁": 3676,
      "胃": 3677,
      "胆": 3678,
      "背": 3679,
      "胎": 3680,
      "胖": 3681,
      "胚": 3682,
      "胛": 3683,
      "胜": 3684,
      "胞": 3685,
      "胡": 3686,
      "胥": 3687,
      "胧": 3688,
      "胫": 3689,
      "胬": 3690,
      "胭": 3691,
      "胰": 3692,
      "胱": 3693,
      "胳": 3694,
      "胶": 3695,
      "胸": 3696,
      "胺": 3697,
      "能": 3698,
      "脂": 3699,
      "脆": 3700,
      "脈": 3701,
      "脉": 3702,
      "脊": 3703,
      "脏": 3704,
      "脐": 3705,
      "脑": 3706,
      "脒": 3707,
      "脓": 3708,
      "脖": 3709,
      "脚": 3710,
      "脱": 3711,
      "脲": 3712,
      "脸": 3713,
      "脾": 3714,
      "腈": 3715,
      "腊": 3716,
      "腋": 3717,
      "腌": 3718,
      "腐": 3719,
      "腑": 3720,
      "腓": 3721,
      "腔": 3722,
      "腕": 3723,
      "腥": 3724,
      "腦": 3725,
      "腭": 3726,
      "腮": 3727,
      "腰": 3728,
      "腱": 3729,
      "腹": 3730,
      "腺": 3731,
      "腻": 3732,
      "腾": 3733,
      "腿": 3734,
      "膀": 3735,
      "膈": 3736,
      "膊": 3737,
      "膏": 3738,
      "膛": 3739,
      "膜": 3740,
      "膝": 3741,
      "膨": 3742,
      "膳": 3743,
      "膺": 3744,
      "臀": 3745,
      "臂": 3746,
      "臃": 3747,
      "臆": 3748,
      "臊": 3749,
      "臘": 3750,
      "臣": 3751,
      "臨": 3752,
      "自": 3753,
      "臫": 3754,
      "臭": 3755,
      "至": 3756,
      "致": 3757,
      "臺": 3758,
      "臼": 3759,
      "舀": 3760,
      "舅": 3761,
      "舆": 3762,
      "與": 3763,
      "興": 3764,
      "舉": 3765,
      "舊": 3766,
      "舌": 3767,
      "舍": 3768,
      "舎": 3769,
      "舐": 3770,
      "舒": 3771,
      "舔": 3772,
      "舜": 3773,
      "舞": 3774,
      "舟": 3775,
      "航": 3776,
      "舫": 3777,
      "般": 3778,
      "舰": 3779,
      "舱": 3780,
      "舵": 3781,
      "舶": 3782,
      "船": 3783,
      "艄": 3784,
      "艇": 3785,
      "艉": 3786,
      "艘": 3787,
      "艦": 3788,
      "良": 3789,
      "艰": 3790,
      "色": 3791,
      "艳": 3792,
      "艺": 3793,
      "艾": 3794,
      "节": 3795,
      "芋": 3796,
      "芍": 3797,
      "芒": 3798,
      "芘": 3799,
      "芙": 3800,
      "芜": 3801,
      "芝": 3802,
      "芥": 3803,
      "芦": 3804,
      "芪": 3805,
      "芬": 3806,
      "芭": 3807,
      "芮": 3808,
      "芯": 3809,
      "花": 3810,
      "芳": 3811,
      "芹": 3812,
      "芽": 3813,
      "苄": 3814,
      "苇": 3815,
      "苍": 3816,
      "苏": 3817,
      "苑": 3818,
      "苓": 3819,
      "苔": 3820,
      "苗": 3821,
      "苘": 3822,
      "苛": 3823,
      "苞": 3824,
      "苟": 3825,
      "苣": 3826,
      "苤": 3827,
      "若": 3828,
      "苦": 3829,
      "苯": 3830,
      "英": 3831,
      "苷": 3832,
      "苹": 3833,
      "茁": 3834,
      "茂": 3835,
      "范": 3836,
      "茄": 3837,
      "茅": 3838,
      "茎": 3839,
      "茜": 3840,
      "茧": 3841,
      "茨": 3842,
      "茫": 3843,
      "茱": 3844,
      "茲": 3845,
      "茵": 3846,
      "茶": 3847,
      "茸": 3848,
      "茹": 3849,
      "荃": 3850,
      "荆": 3851,
      "草": 3852,
      "荐": 3853,
      "荒": 3854,
      "荔": 3855,
      "荚": 3856,
      "荞": 3857,
      "荟": 3858,
      "荠": 3859,
      "荡": 3860,
      "荣": 3861,
      "荤": 3862,
      "荧": 3863,
      "荨": 3864,
      "荫": 3865,
      "药": 3866,
      "荷": 3867,
      "荸": 3868,
      "荼": 3869,
      "莅": 3870,
      "莆": 3871,
      "莉": 3872,
      "莊": 3873,
      "莎": 3874,
      "莓": 3875,
      "莢": 3876,
      "莨": 3877,
      "莫": 3878,
      "莱": 3879,
      "莲": 3880,
      "莴": 3881,
      "获": 3882,
      "莹": 3883,
      "莺": 3884,
      "莽": 3885,
      "菁": 3886,
      "菅": 3887,
      "菇": 3888,
      "菊": 3889,
      "菌": 3890,
      "菜": 3891,
      "菝": 3892,
      "菠": 3893,
      "菩": 3894,
      "菪": 3895,
      "華": 3896,
      "菱": 3897,
      "菲": 3898,
      "菸": 3899,
      "萃": 3900,
      "萄": 3901,
      "萊": 3902,
      "萌": 3903,
      "萍": 3904,
      "萎": 3905,
      "萘": 3906,
      "萝": 3907,
      "萤": 3908,
      "营": 3909,
      "萦": 3910,
      "萧": 3911,
      "萨": 3912,
      "萬": 3913,
      "落": 3914,
      "葉": 3915,
      "著": 3916,
      "葛": 3917,
      "葜": 3918,
      "葡": 3919,
      "董": 3920,
      "葩": 3921,
      "葫": 3922,
      "葬": 3923,
      "葱": 3924,
      "葵": 3925,
      "蒂": 3926,
      "蒋": 3927,
      "蒙": 3928,
      "蒜": 3929,
      "蒲": 3930,
      "蒸": 3931,
      "蒺": 3932,
      "蒽": 3933,
      "蒿": 3934,
      "蓄": 3935,
      "蓋": 3936,
      "蓍": 3937,
      "蓑": 3938,
      "蓓": 3939,
      "蓝": 3940,
      "蓠": 3941,
      "蓬": 3942,
      "蓮": 3943,
      "蔑": 3944,
      "蔓": 3945,
      "蔗": 3946,
      "蔚": 3947,
      "蔡": 3948,
      "蔫": 3949,
      "蔬": 3950,
      "蔼": 3951,
      "蔽": 3952,
      "蕃": 3953,
      "蕉": 3954,
      "蕊": 3955,
      "蕨": 3956,
      "蕭": 3957,
      "蕴": 3958,
      "蕾": 3959,
      "薄": 3960,
      "薅": 3961,
      "薇": 3962,
      "薛": 3963,
      "薩": 3964,
      "薪": 3965,
      "薯": 3966,
      "藉": 3967,
      "藍": 3968,
      "藏": 3969,
      "藐": 3970,
      "藓": 3971,
      "藜": 3972,
      "藝": 3973,
      "藤": 3974,
      "藩": 3975,
      "藻": 3976,
      "藿": 3977,
      "蘇": 3978,
      "蘑": 3979,
      "蘖": 3980,
      "蘭": 3981,
      "蘸": 3982,
      "虎": 3983,
      "虏": 3984,
      "虐": 3985,
      "虑": 3986,
      "虔": 3987,
      "處": 3988,
      "虚": 3989,
      "虞": 3990,
      "號": 3991,
      "虫": 3992,
      "虬": 3993,
      "虱": 3994,
      "虹": 3995,
      "虻": 3996,
      "虽": 3997,
      "虾": 3998,
      "蚀": 3999,
      "蚁": 4000,
      "蚂": 4001,
      "蚊": 4002,
      "蚌": 4003,
      "蚓": 4004,
      "蚕": 4005,
      "蚜": 4006,
      "蚝": 4007,
      "蚬": 4008,
      "蚯": 4009,
      "蚱": 4010,
      "蛀": 4011,
      "蛆": 4012,
      "蛇": 4013,
      "蛊": 4014,
      "蛋": 4015,
      "蛎": 4016,
      "蛘": 4017,
      "蛙": 4018,
      "蛛": 4019,
      "蛞": 4020,
      "蛤": 4021,
      "蛮": 4022,
      "蛸": 4023,
      "蛾": 4024,
      "蜀": 4025,
      "蜂": 4026,
      "蜃": 4027,
      "蜍": 4028,
      "蜒": 4029,
      "蜓": 4030,
      "蜕": 4031,
      "蜗": 4032,
      "蜘": 4033,
      "蜚": 4034,
      "蜜": 4035,
      "蜡": 4036,
      "蜥": 4037,
      "蜴": 4038,
      "蜷": 4039,
      "蜻": 4040,
      "蜿": 4041,
      "蝇": 4042,
      "蝉": 4043,
      "蝎": 4044,
      "蝓": 4045,
      "蝗": 4046,
      "蝘": 4047,
      "蝠": 4048,
      "蝦": 4049,
      "蝴": 4050,
      "蝶": 4051,
      "蝾": 4052,
      "螂": 4053,
      "螈": 4054,
      "融": 4055,
      "螨": 4056,
      "螯": 4057,
      "螳": 4058,
      "螺": 4059,
      "蟑": 4060,
      "蟒": 4061,
      "蟠": 4062,
      "蟲": 4063,
      "蟹": 4064,
      "蟾": 4065,
      "蠊": 4066,
      "蠍": 4067,
      "蠕": 4068,
      "蠡": 4069,
      "蠢": 4070,
      "蠵": 4071,
      "蠹": 4072,
      "血": 4073,
      "衅": 4074,
      "行": 4075,
      "衍": 4076,
      "術": 4077,
      "衔": 4078,
      "街": 4079,
      "衙": 4080,
      "衝": 4081,
      "衡": 4082,
      "衣": 4083,
      "补": 4084,
      "表": 4085,
      "衫": 4086,
      "衬": 4087,
      "衰": 4088,
      "衷": 4089,
      "袁": 4090,
      "袄": 4091,
      "袅": 4092,
      "袈": 4093,
      "袋": 4094,
      "袍": 4095,
      "袒": 4096,
      "袖": 4097,
      "袜": 4098,
      "袢": 4099,
      "被": 4100,
      "袭": 4101,
      "袱": 4102,
      "袼": 4103,
      "裁": 4104,
      "裂": 4105,
      "装": 4106,
      "裆": 4107,
      "裔": 4108,
      "裕": 4109,
      "裘": 4110,
      "裙": 4111,
      "補": 4112,
      "裝": 4113,
      "裟": 4114,
      "裡": 4115,
      "裤": 4116,
      "裨": 4117,
      "裳": 4118,
      "裸": 4119,
      "裹": 4120,
      "製": 4121,
      "褂": 4122,
      "複": 4123,
      "褐": 4124,
      "褒": 4125,
      "褓": 4126,
      "褚": 4127,
      "褥": 4128,
      "褪": 4129,
      "褫": 4130,
      "褶": 4131,
      "襁": 4132,
      "襄": 4133,
      "襟": 4134,
      "襪": 4135,
      "襲": 4136,
      "西": 4137,
      "要": 4138,
      "覃": 4139,
      "覆": 4140,
      "見": 4141,
      "規": 4142,
      "視": 4143,
      "親": 4144,
      "覺": 4145,
      "覽": 4146,
      "觀": 4147,
      "见": 4148,
      "观": 4149,
      "规": 4150,
      "觅": 4151,
      "视": 4152,
      "览": 4153,
      "觉": 4154,
      "觊": 4155,
      "觎": 4156,
      "觐": 4157,
      "角": 4158,
      "解": 4159,
      "触": 4160,
      "言": 4161,
      "計": 4162,
      "訊": 4163,
      "記": 4164,
      "訥": 4165,
      "設": 4166,
      "許": 4167,
      "訶": 4168,
      "註": 4169,
      "評": 4170,
      "詞": 4171,
      "詩": 4172,
      "詹": 4173,
      "誉": 4174,
      "誊": 4175,
      "誌": 4176,
      "誓": 4177,
      "誕": 4178,
      "語": 4179,
      "說": 4180,
      "課": 4181,
      "請": 4182,
      "論": 4183,
      "諜": 4184,
      "諸": 4185,
      "諾": 4186,
      "謀": 4187,
      "謎": 4188,
      "謝": 4189,
      "謦": 4190,
      "證": 4191,
      "識": 4192,
      "警": 4193,
      "譬": 4194,
      "議": 4195,
      "護": 4196,
      "變": 4197,
      "讓": 4198,
      "计": 4199,
      "订": 4200,
      "认": 4201,
      "讥": 4202,
      "讦": 4203,
      "讨": 4204,
      "让": 4205,
      "讪": 4206,
      "讫": 4207,
      "讬": 4208,
      "训": 4209,
      "议": 4210,
      "讯": 4211,
      "记": 4212,
      "讲": 4213,
      "讳": 4214,
      "讶": 4215,
      "讷": 4216,
      "许": 4217,
      "讹": 4218,
      "论": 4219,
      "讼": 4220,
      "讽": 4221,
      "设": 4222,
      "访": 4223,
      "诀": 4224,
      "证": 4225,
      "诂": 4226,
      "诃": 4227,
      "评": 4228,
      "诅": 4229,
      "识": 4230,
      "诈": 4231,
      "诉": 4232,
      "诊": 4233,
      "诋": 4234,
      "词": 4235,
      "诏": 4236,
      "译": 4237,
      "试": 4238,
      "诗": 4239,
      "诘": 4240,
      "诙": 4241,
      "诚": 4242,
      "话": 4243,
      "诞": 4244,
      "诠": 4245,
      "诡": 4246,
      "询": 4247,
      "诣": 4248,
      "该": 4249,
      "详": 4250,
      "诧": 4251,
      "诫": 4252,
      "诬": 4253,
      "语": 4254,
      "误": 4255,
      "诰": 4256,
      "诱": 4257,
      "诲": 4258,
      "说": 4259,
      "诵": 4260,
      "请": 4261,
      "诸": 4262,
      "诺": 4263,
      "读": 4264,
      "诽": 4265,
      "课": 4266,
      "诿": 4267,
      "谁": 4268,
      "调": 4269,
      "谄": 4270,
      "谅": 4271,
      "谆": 4272,
      "谈": 4273,
      "谊": 4274,
      "谋": 4275,
      "谍": 4276,
      "谎": 4277,
      "谐": 4278,
      "谒": 4279,
      "谓": 4280,
      "谕": 4281,
      "谘": 4282,
      "谚": 4283,
      "谛": 4284,
      "谜": 4285,
      "谝": 4286,
      "谟": 4287,
      "谢": 4288,
      "谣": 4289,
      "谤": 4290,
      "谦": 4291,
      "谨": 4292,
      "谩": 4293,
      "谬": 4294,
      "谭": 4295,
      "谱": 4296,
      "谴": 4297,
      "谵": 4298,
      "谷": 4299,
      "豁": 4300,
      "豆": 4301,
      "豌": 4302,
      "豐": 4303,
      "豚": 4304,
      "象": 4305,
      "豪": 4306,
      "豫": 4307,
      "豹": 4308,
      "豺": 4309,
      "貂": 4310,
      "貌": 4311,
      "貓": 4312,
      "貝": 4313,
      "貞": 4314,
      "貢": 4315,
      "貨": 4316,
      "貪": 4317,
      "貴": 4318,
      "費": 4319,
      "賀": 4320,
      "資": 4321,
      "賈": 4322,
      "賓": 4323,
      "質": 4324,
      "賴": 4325,
      "賽": 4326,
      "贇": 4327,
      "贊": 4328,
      "贝": 4329,
      "贞": 4330,
      "负": 4331,
      "贡": 4332,
      "财": 4333,
      "责": 4334,
      "贤": 4335,
      "败": 4336,
      "账": 4337,
      "货": 4338,
      "质": 4339,
      "贩": 4340,
      "贪": 4341,
      "贫": 4342,
      "贬": 4343,
      "购": 4344,
      "贮": 4345,
      "贯": 4346,
      "贱": 4347,
      "贴": 4348,
      "贵": 4349,
      "贷": 4350,
      "贸": 4351,
      "费": 4352,
      "贺": 4353,
      "贻": 4354,
      "贼": 4355,
      "贾": 4356,
      "贿": 4357,
      "赁": 4358,
      "赂": 4359,
      "赃": 4360,
      "资": 4361,
      "赅": 4362,
      "赈": 4363,
      "赊": 4364,
      "赋": 4365,
      "赌": 4366,
      "赎": 4367,
      "赏": 4368,
      "赐": 4369,
      "赔": 4370,
      "赖": 4371,
      "赘": 4372,
      "赚": 4373,
      "赛": 4374,
      "赝": 4375,
      "赞": 4376,
      "赠": 4377,
      "赡": 4378,
      "赢": 4379,
      "赣": 4380,
      "赤": 4381,
      "赦": 4382,
      "赧": 4383,
      "赫": 4384,
      "赭": 4385,
      "走": 4386,
      "赴": 4387,
      "赵": 4388,
      "赶": 4389,
      "起": 4390,
      "趁": 4391,
      "超": 4392,
      "越": 4393,
      "趋": 4394,
      "趟": 4395,
      "趣": 4396,
      "足": 4397,
      "趴": 4398,
      "趸": 4399,
      "趾": 4400,
      "跃": 4401,
      "跄": 4402,
      "跆": 4403,
      "跋": 4404,
      "跌": 4405,
      "跎": 4406,
      "跑": 4407,
      "跚": 4408,
      "跛": 4409,
      "距": 4410,
      "跟": 4411,
      "跤": 4412,
      "跨": 4413,
      "跪": 4414,
      "路": 4415,
      "跳": 4416,
      "践": 4417,
      "跷": 4418,
      "跺": 4419,
      "跻": 4420,
      "踉": 4421,
      "踊": 4422,
      "踌": 4423,
      "踏": 4424,
      "踝": 4425,
      "踞": 4426,
      "踢": 4427,
      "踩": 4428,
      "踪": 4429,
      "踮": 4430,
      "踯": 4431,
      "踱": 4432,
      "踵": 4433,
      "踹": 4434,
      "蹂": 4435,
      "蹄": 4436,
      "蹈": 4437,
      "蹉": 4438,
      "蹊": 4439,
      "蹋": 4440,
      "蹒": 4441,
      "蹚": 4442,
      "蹦": 4443,
      "蹩": 4444,
      "蹬": 4445,
      "蹭": 4446,
      "蹲": 4447,
      "蹼": 4448,
      "躁": 4449,
      "躅": 4450,
      "躇": 4451,
      "躏": 4452,
      "身": 4453,
      "躬": 4454,
      "躯": 4455,
      "躲": 4456,
      "躺": 4457,
      "車": 4458,
      "軌": 4459,
      "軍": 4460,
      "軸": 4461,
      "載": 4462,
      "輔": 4463,
      "輕": 4464,
      "輛": 4465,
      "輝": 4466,
      "輪": 4467,
      "輯": 4468,
      "輸": 4469,
      "輻": 4470,
      "轉": 4471,
      "车": 4472,
      "轧": 4473,
      "轨": 4474,
      "轩": 4475,
      "转": 4476,
      "轭": 4477,
      "轮": 4478,
      "软": 4479,
      "轰": 4480,
      "轴": 4481,
      "轻": 4482,
      "轼": 4483,
      "载": 4484,
      "轾": 4485,
      "轿": 4486,
      "较": 4487,
      "辄": 4488,
      "辅": 4489,
      "辆": 4490,
      "辈": 4491,
      "辉": 4492,
      "辊": 4493,
      "辍": 4494,
      "辐": 4495,
      "辑": 4496,
      "输": 4497,
      "辖": 4498,
      "辗": 4499,
      "辘": 4500,
      "辙": 4501,
      "辚": 4502,
      "辛": 4503,
      "辜": 4504,
      "辞": 4505,
      "辟": 4506,
      "辣": 4507,
      "辦": 4508,
      "辨": 4509,
      "辩": 4510,
      "辫": 4511,
      "辯": 4512,
      "辰": 4513,
      "辱": 4514,
      "農": 4515,
      "边": 4516,
      "辽": 4517,
      "达": 4518,
      "迁": 4519,
      "迂": 4520,
      "迄": 4521,
      "迅": 4522,
      "过": 4523,
      "迈": 4524,
      "迎": 4525,
      "运": 4526,
      "近": 4527,
      "返": 4528,
      "还": 4529,
      "这": 4530,
      "进": 4531,
      "远": 4532,
      "违": 4533,
      "连": 4534,
      "迟": 4535,
      "迥": 4536,
      "迦": 4537,
      "迩": 4538,
      "迪": 4539,
      "迫": 4540,
      "迭": 4541,
      "述": 4542,
      "迴": 4543,
      "迷": 4544,
      "迸": 4545,
      "迹": 4546,
      "追": 4547,
      "退": 4548,
      "送": 4549,
      "适": 4550,
      "逃": 4551,
      "逅": 4552,
      "逆": 4553,
      "选": 4554,
      "逊": 4555,
      "逍": 4556,
      "透": 4557,
      "逐": 4558,
      "递": 4559,
      "途": 4560,
      "逗": 4561,
      "這": 4562,
      "通": 4563,
      "逛": 4564,
      "逝": 4565,
      "逞": 4566,
      "速": 4567,
      "造": 4568,
      "逢": 4569,
      "連": 4570,
      "逮": 4571,
      "週": 4572,
      "進": 4573,
      "逵": 4574,
      "逸": 4575,
      "逹": 4576,
      "逻": 4577,
      "逼": 4578,
      "逾": 4579,
      "遁": 4580,
      "遂": 4581,
      "遇": 4582,
      "遊": 4583,
      "運": 4584,
      "遍": 4585,
      "過": 4586,
      "遏": 4587,
      "遐": 4588,
      "遒": 4589,
      "道": 4590,
      "達": 4591,
      "遗": 4592,
      "遜": 4593,
      "遞": 4594,
      "遠": 4595,
      "遢": 4596,
      "遣": 4597,
      "遥": 4598,
      "遨": 4599,
      "遭": 4600,
      "遮": 4601,
      "遲": 4602,
      "遴": 4603,
      "遵": 4604,
      "選": 4605,
      "避": 4606,
      "邀": 4607,
      "邁": 4608,
      "邂": 4609,
      "邃": 4610,
      "邊": 4611,
      "邋": 4612,
      "邑": 4613,
      "邓": 4614,
      "邝": 4615,
      "邠": 4616,
      "邢": 4617,
      "那": 4618,
      "邦": 4619,
      "邪": 4620,
      "邮": 4621,
      "邯": 4622,
      "邱": 4623,
      "邵": 4624,
      "邸": 4625,
      "邹": 4626,
      "邻": 4627,
      "郁": 4628,
      "郊": 4629,
      "郎": 4630,
      "郑": 4631,
      "郓": 4632,
      "郝": 4633,
      "郡": 4634,
      "部": 4635,
      "郭": 4636,
      "郯": 4637,
      "郵": 4638,
      "郸": 4639,
      "都": 4640,
      "鄂": 4641,
      "鄉": 4642,
      "鄙": 4643,
      "鄧": 4644,
      "鄭": 4645,
      "酊": 4646,
      "酋": 4647,
      "酌": 4648,
      "配": 4649,
      "酐": 4650,
      "酒": 4651,
      "酗": 4652,
      "酚": 4653,
      "酝": 4654,
      "酥": 4655,
      "酩": 4656,
      "酪": 4657,
      "酬": 4658,
      "酮": 4659,
      "酯": 4660,
      "酰": 4661,
      "酱": 4662,
      "酵": 4663,
      "酶": 4664,
      "酷": 4665,
      "酸": 4666,
      "酿": 4667,
      "醇": 4668,
      "醉": 4669,
      "醋": 4670,
      "醒": 4671,
      "醚": 4672,
      "醛": 4673,
      "醣": 4674,
      "醪": 4675,
      "醫": 4676,
      "醺": 4677,
      "釆": 4678,
      "采": 4679,
      "釉": 4680,
      "释": 4681,
      "釋": 4682,
      "里": 4683,
      "重": 4684,
      "野": 4685,
      "量": 4686,
      "金": 4687,
      "釗": 4688,
      "釜": 4689,
      "鈍": 4690,
      "鈴": 4691,
      "鈾": 4692,
      "鉑": 4693,
      "鉴": 4694,
      "銀": 4695,
      "銅": 4696,
      "銮": 4697,
      "鋒": 4698,
      "錄": 4699,
      "錢": 4700,
      "錦": 4701,
      "錫": 4702,
      "鍊": 4703,
      "鎖": 4704,
      "鎮": 4705,
      "鏈": 4706,
      "鏡": 4707,
      "鐵": 4708,
      "鑒": 4709,
      "鑽": 4710,
      "针": 4711,
      "钉": 4712,
      "钍": 4713,
      "钎": 4714,
      "钓": 4715,
      "钙": 4716,
      "钚": 4717,
      "钛": 4718,
      "钜": 4719,
      "钝": 4720,
      "钞": 4721,
      "钟": 4722,
      "钠": 4723,
      "钡": 4724,
      "钢": 4725,
      "钤": 4726,
      "钥": 4727,
      "钦": 4728,
      "钧": 4729,
      "钨": 4730,
      "钩": 4731,
      "钬": 4732,
      "钮": 4733,
      "钱": 4734,
      "钳": 4735,
      "钴": 4736,
      "钵": 4737,
      "钶": 4738,
      "钹": 4739,
      "钻": 4740,
      "钼": 4741,
      "钽": 4742,
      "钾": 4743,
      "铀": 4744,
      "铁": 4745,
      "铂": 4746,
      "铃": 4747,
      "铅": 4748,
      "铆": 4749,
      "铈": 4750,
      "铉": 4751,
      "铋": 4752,
      "铌": 4753,
      "铍": 4754,
      "铐": 4755,
      "铑": 4756,
      "铛": 4757,
      "铜": 4758,
      "铝": 4759,
      "铟": 4760,
      "铢": 4761,
      "铣": 4762,
      "铤": 4763,
      "铧": 4764,
      "铩": 4765,
      "铬": 4766,
      "铭": 4767,
      "铯": 4768,
      "铰": 4769,
      "铱": 4770,
      "铲": 4771,
      "铵": 4772,
      "银": 4773,
      "铸": 4774,
      "铺": 4775,
      "铼": 4776,
      "链": 4777,
      "铿": 4778,
      "销": 4779,
      "锁": 4780,
      "锂": 4781,
      "锄": 4782,
      "锅": 4783,
      "锆": 4784,
      "锇": 4785,
      "锈": 4786,
      "锉": 4787,
      "锋": 4788,
      "锌": 4789,
      "锐": 4790,
      "锑": 4791,
      "锗": 4792,
      "错": 4793,
      "锚": 4794,
      "锝": 4795,
      "锡": 4796,
      "锣": 4797,
      "锤": 4798,
      "锥": 4799,
      "锦": 4800,
      "锨": 4801,
      "锭": 4802,
      "键": 4803,
      "锯": 4804,
      "锰": 4805,
      "锶": 4806,
      "锹": 4807,
      "锻": 4808,
      "镀": 4809,
      "镁": 4810,
      "镇": 4811,
      "镉": 4812,
      "镊": 4813,
      "镍": 4814,
      "镑": 4815,
      "镓": 4816,
      "镖": 4817,
      "镗": 4818,
      "镛": 4819,
      "镜": 4820,
      "镣": 4821,
      "镧": 4822,
      "镫": 4823,
      "镭": 4824,
      "镯": 4825,
      "镰": 4826,
      "镱": 4827,
      "镶": 4828,
      "長": 4829,
      "长": 4830,
      "門": 4831,
      "閃": 4832,
      "開": 4833,
      "間": 4834,
      "閔": 4835,
      "闆": 4836,
      "關": 4837,
      "门": 4838,
      "闩": 4839,
      "闪": 4840,
      "闭": 4841,
      "问": 4842,
      "闯": 4843,
      "闰": 4844,
      "闲": 4845,
      "间": 4846,
      "闵": 4847,
      "闷": 4848,
      "闸": 4849,
      "闹": 4850,
      "闺": 4851,
      "闻": 4852,
      "闽": 4853,
      "阀": 4854,
      "阁": 4855,
      "阂": 4856,
      "阄": 4857,
      "阅": 4858,
      "阈": 4859,
      "阉": 4860,
      "阐": 4861,
      "阔": 4862,
      "阖": 4863,
      "阜": 4864,
      "队": 4865,
      "阡": 4866,
      "阪": 4867,
      "阮": 4868,
      "阱": 4869,
      "防": 4870,
      "阳": 4871,
      "阴": 4872,
      "阵": 4873,
      "阶": 4874,
      "阻": 4875,
      "阿": 4876,
      "陀": 4877,
      "附": 4878,
      "际": 4879,
      "陆": 4880,
      "陈": 4881,
      "陋": 4882,
      "陌": 4883,
      "降": 4884,
      "限": 4885,
      "陕": 4886,
      "陛": 4887,
      "陡": 4888,
      "院": 4889,
      "陣": 4890,
      "除": 4891,
      "陨": 4892,
      "险": 4893,
      "陪": 4894,
      "陰": 4895,
      "陳": 4896,
      "陵": 4897,
      "陶": 4898,
      "陷": 4899,
      "陸": 4900,
      "陽": 4901,
      "隆": 4902,
      "隊": 4903,
      "隋": 4904,
      "随": 4905,
      "隐": 4906,
      "隔": 4907,
      "隕": 4908,
      "隘": 4909,
      "隙": 4910,
      "際": 4911,
      "障": 4912,
      "隧": 4913,
      "險": 4914,
      "隶": 4915,
      "隼": 4916,
      "隽": 4917,
      "难": 4918,
      "雀": 4919,
      "雁": 4920,
      "雄": 4921,
      "雅": 4922,
      "集": 4923,
      "雇": 4924,
      "雉": 4925,
      "雌": 4926,
      "雍": 4927,
      "雏": 4928,
      "雕": 4929,
      "雙": 4930,
      "雜": 4931,
      "難": 4932,
      "雨": 4933,
      "雪": 4934,
      "雯": 4935,
      "雲": 4936,
      "雳": 4937,
      "零": 4938,
      "雷": 4939,
      "電": 4940,
      "雾": 4941,
      "需": 4942,
      "霄": 4943,
      "霆": 4944,
      "震": 4945,
      "霉": 4946,
      "霍": 4947,
      "霏": 4948,
      "霓": 4949,
      "霖": 4950,
      "霜": 4951,
      "霞": 4952,
      "霧": 4953,
      "霰": 4954,
      "露": 4955,
      "霸": 4956,
      "霹": 4957,
      "靈": 4958,
      "青": 4959,
      "靖": 4960,
      "静": 4961,
      "靜": 4962,
      "非": 4963,
      "靠": 4964,
      "靡": 4965,
      "面": 4966,
      "革": 4967,
      "靳": 4968,
      "靴": 4969,
      "靶": 4970,
      "鞅": 4971,
      "鞋": 4972,
      "鞘": 4973,
      "鞠": 4974,
      "鞣": 4975,
      "鞭": 4976,
      "鞮": 4977,
      "韋": 4978,
      "韓": 4979,
      "韦": 4980,
      "韧": 4981,
      "韩": 4982,
      "韭": 4983,
      "音": 4984,
      "韵": 4985,
      "韶": 4986,
      "頁": 4987,
      "頃": 4988,
      "項": 4989,
      "預": 4990,
      "頓": 4991,
      "領": 4992,
      "頭": 4993,
      "頰": 4994,
      "頹": 4995,
      "頻": 4996,
      "題": 4997,
      "額": 4998,
      "類": 4999,
      "顯": 5000,
      "页": 5001,
      "顶": 5002,
      "顷": 5003,
      "项": 5004,
      "顺": 5005,
      "须": 5006,
      "顽": 5007,
      "顾": 5008,
      "顿": 5009,
      "颁": 5010,
      "颂": 5011,
      "预": 5012,
      "颅": 5013,
      "领": 5014,
      "颇": 5015,
      "颈": 5016,
      "颊": 5017,
      "颌": 5018,
      "颐": 5019,
      "频": 5020,
      "颓": 5021,
      "颖": 5022,
      "颗": 5023,
      "题": 5024,
      "颚": 5025,
      "颜": 5026,
      "额": 5027,
      "颞": 5028,
      "颠": 5029,
      "颤": 5030,
      "颧": 5031,
      "風": 5032,
      "颯": 5033,
      "颱": 5034,
      "颶": 5035,
      "飄": 5036,
      "风": 5037,
      "飓": 5038,
      "飕": 5039,
      "飘": 5040,
      "飙": 5041,
      "飚": 5042,
      "飛": 5043,
      "飞": 5044,
      "食": 5045,
      "飨": 5046,
      "飯": 5047,
      "飲": 5048,
      "飴": 5049,
      "餅": 5050,
      "養": 5051,
      "餐": 5052,
      "館": 5053,
      "餮": 5054,
      "饒": 5055,
      "饕": 5056,
      "饥": 5057,
      "饨": 5058,
      "饪": 5059,
      "饭": 5060,
      "饮": 5061,
      "饰": 5062,
      "饱": 5063,
      "饲": 5064,
      "饴": 5065,
      "饵": 5066,
      "饶": 5067,
      "饷": 5068,
      "饺": 5069,
      "饼": 5070,
      "饿": 5071,
      "馀": 5072,
      "馄": 5073,
      "馅": 5074,
      "馆": 5075,
      "馈": 5076,
      "馊": 5077,
      "馏": 5078,
      "馒": 5079,
      "首": 5080,
      "香": 5081,
      "馨": 5082,
      "馬": 5083,
      "馮": 5084,
      "駁": 5085,
      "駐": 5086,
      "駒": 5087,
      "駕": 5088,
      "駛": 5089,
      "騎": 5090,
      "驅": 5091,
      "驗": 5092,
      "驚": 5093,
      "驪": 5094,
      "马": 5095,
      "驭": 5096,
      "驮": 5097,
      "驯": 5098,
      "驰": 5099,
      "驱": 5100,
      "驳": 5101,
      "驴": 5102,
      "驶": 5103,
      "驻": 5104,
      "驼": 5105,
      "驾": 5106,
      "驿": 5107,
      "骁": 5108,
      "骂": 5109,
      "骄": 5110,
      "骆": 5111,
      "骇": 5112,
      "骈": 5113,
      "骋": 5114,
      "验": 5115,
      "骎": 5116,
      "骏": 5117,
      "骑": 5118,
      "骗": 5119,
      "骚": 5120,
      "骛": 5121,
      "骝": 5122,
      "骡": 5123,
      "骤": 5124,
      "骨": 5125,
      "骷": 5126,
      "骸": 5127,
      "骼": 5128,
      "髁": 5129,
      "髅": 5130,
      "髋": 5131,
      "髓": 5132,
      "體": 5133,
      "高": 5134,
      "髦": 5135,
      "髮": 5136,
      "髯": 5137,
      "髻": 5138,
      "鬃": 5139,
      "鬈": 5140,
      "鬓": 5141,
      "鬱": 5142,
      "鬼": 5143,
      "魁": 5144,
      "魂": 5145,
      "魄": 5146,
      "魅": 5147,
      "魇": 5148,
      "魏": 5149,
      "魔": 5150,
      "魚": 5151,
      "魟": 5152,
      "魨": 5153,
      "魮": 5154,
      "魯": 5155,
      "鮈": 5156,
      "鮋": 5157,
      "鮑": 5158,
      "鮮": 5159,
      "鮰": 5160,
      "鯉": 5161,
      "鯛": 5162,
      "鯨": 5163,
      "鯰": 5164,
      "鯽": 5165,
      "鰭": 5166,
      "鰻": 5167,
      "鱈": 5168,
      "鱉": 5169,
      "鱔": 5170,
      "鱟": 5171,
      "鱨": 5172,
      "鱷": 5173,
      "鱸": 5174,
      "鱼": 5175,
      "鱿": 5176,
      "鲁": 5177,
      "鲈": 5178,
      "鲍": 5179,
      "鲐": 5180,
      "鲑": 5181,
      "鲜": 5182,
      "鲤": 5183,
      "鲨": 5184,
      "鲫": 5185,
      "鲱": 5186,
      "鲵": 5187,
      "鲸": 5188,
      "鲼": 5189,
      "鳃": 5190,
      "鳄": 5191,
      "鳌": 5192,
      "鳍": 5193,
      "鳏": 5194,
      "鳐": 5195,
      "鳖": 5196,
      "鳗": 5197,
      "鳞": 5198,
      "鳟": 5199,
      "鳳": 5200,
      "鳾": 5201,
      "鴝": 5202,
      "鴨": 5203,
      "鴿": 5204,
      "鵙": 5205,
      "鶯": 5206,
      "鷯": 5207,
      "鷹": 5208,
      "鸟": 5209,
      "鸠": 5210,
      "鸡": 5211,
      "鸢": 5212,
      "鸣": 5213,
      "鸥": 5214,
      "鸦": 5215,
      "鸨": 5216,
      "鸪": 5217,
      "鸫": 5218,
      "鸭": 5219,
      "鸵": 5220,
      "鸽": 5221,
      "鸿": 5222,
      "鹀": 5223,
      "鹃": 5224,
      "鹅": 5225,
      "鹆": 5226,
      "鹈": 5227,
      "鹉": 5228,
      "鹊": 5229,
      "鹌": 5230,
      "鹏": 5231,
      "鹑": 5232,
      "鹘": 5233,
      "鹛": 5234,
      "鹤": 5235,
      "鹦": 5236,
      "鹩": 5237,
      "鹪": 5238,
      "鹫": 5239,
      "鹬": 5240,
      "鹭": 5241,
      "鹰": 5242,
      "鹽": 5243,
      "鹿": 5244,
      "麂": 5245,
      "麋": 5246,
      "麒": 5247,
      "麗": 5248,
      "麟": 5249,
      "麥": 5250,
      "麦": 5251,
      "麵": 5252,
      "麸": 5253,
      "麻": 5254,
      "麼": 5255,
      "麽": 5256,
      "麾": 5257,
      "黃": 5258,
      "黄": 5259,
      "黉": 5260,
      "黎": 5261,
      "黏": 5262,
      "黑": 5263,
      "黔": 5264,
      "默": 5265,
      "黛": 5266,
      "黜": 5267,
      "黝": 5268,
      "點": 5269,
      "黠": 5270,
      "黨": 5271,
      "黩": 5272,
      "黯": 5273,
      "鼎": 5274,
      "鼓": 5275,
      "鼠": 5276,
      "鼢": 5277,
      "鼬": 5278,
      "鼯": 5279,
      "鼹": 5280,
      "鼻": 5281,
      "鼾": 5282,
      "齊": 5283,
      "齐": 5284,
      "齒": 5285,
      "齡": 5286,
      "齿": 5287,
      "龃": 5288,
      "龄": 5289,
      "龈": 5290,
      "龉": 5291,
      "龋": 5292,
      "龍": 5293,
      "龐": 5294,
      "龙": 5295,
      "龜": 5296,
      "龟": 5297,
      "쵈": 5298,
      "": 5299,
      "": 5300,
      "": 5301,
      "": 5302,
      "": 5303,
      "": 5304,
      "": 5305,
      "": 5306,
      "": 5307,
      "": 5308,
      "": 5309,
      "": 5310,
      "": 5311,
      "": 5312,
      "": 5313,
      "": 5314,
      "": 5315,
      "": 5316,
      "": 5317,
      "": 5318,
      "": 5319,
      "": 5320,
      "": 5321,
      "": 5322,
      "": 5323,
      "": 5324,
      "": 5325,
      "": 5326,
      "": 5327,
      "": 5328,
      "": 5329,
      "": 5330,
      "": 5331,
      "": 5332,
      "": 5333,
      "": 5334,
      "": 5335,
      "": 5336,
      "": 5337,
      "": 5338,
      "年": 5339,
      "領": 5340,
      "輪": 5341,
      "︰": 5342,
      "﹐": 5343,
      "﹑": 5344,
      "﹖": 5345,
      "﹝": 5346,
      "﹞": 5347,
      "﹣": 5348,
      "！": 5349,
      "＂": 5350,
      "＄": 5351,
      "％": 5352,
      "（": 5353,
      "）": 5354,
      "＊": 5355,
      "＋": 5356,
      "，": 5357,
      "－": 5358,
      "．": 5359,
      "／": 5360,
      "０": 5361,
      "１": 5362,
      "２": 5363,
      "３": 5364,
      "４": 5365,
      "５": 5366,
      "６": 5367,
      "７": 5368,
      "８": 5369,
      "９": 5370,
      "：": 5371,
      "；": 5372,
      "＝": 5373,
      "＞": 5374,
      "？": 5375,
      "Ａ": 5376,
      "Ｂ": 5377,
      "Ｄ": 5378,
      "Ｅ": 5379,
      "Ｈ": 5380,
      "Ｎ": 5381,
      "Ｏ": 5382,
      "Ｐ": 5383,
      "Ｒ": 5384,
      "Ｓ": 5385,
      "Ｔ": 5386,
      "Ｕ": 5387,
      "Ｗ": 5388,
      "［": 5389,
      "］": 5390,
      "＿": 5391,
      "ａ": 5392,
      "ｂ": 5393,
      "ｃ": 5394,
      "ｅ": 5395,
      "ｈ": 5396,
      "ｉ": 5397,
      "ｌ": 5398,
      "ｍ": 5399,
      "ｎ": 5400,
      "ｓ": 5401,
      "ｔ": 5402,
      "～": 5403,
      "￡": 5404,
      "￥": 5405,
      "�": 5406,
      "20": 5407,
      "国家": 5408,
      "委员": 5409,
      "委员会": 5410,
      "200": 5411,
      "会议": 5412,
      "联合": 5413,
      "工作": 5414,
      "问题": 5415,
      "国际": 5416,
      "发展": 5417,
      "联合国": 5418,
      "19": 5419,
      "报告": 5420,
      "组织": 5421,
      "一个": 5422,
      "我们": 5423,
      "提供": 5424,
      "政府": 5425,
      "关于": 5426,
      "以及": 5427,
      "方面": 5428,
      "社会": 5429,
      "10": 5430,
      "进行": 5431,
      "包括": 5432,
      "其他": 5433,
      "这些": 5434,
      "通过": 5435,
      "机构": 5436,
      "情况": 5437,
      "方案": 5438,
      "行动": 5439,
      "执行": 5440,
      "有关": 5441,
      "特别": 5442,
      "199": 5443,
      "12": 5444,
      "决议": 5445,
      "经济": 5446,
      "代表": 5447,
      "秘书": 5448,
      "人权": 5449,
      "安全": 5450,
      "人员": 5451,
      "活动": 5452,
      "妇女": 5453,
      "所有": 5454,
      "他们": 5455,
      "公约": 5456,
      "建议": 5457,
      "没有": 5458,
      "项目": 5459,
      "合作": 5460,
      "大会": 5461,
      "管理": 5462,
      "11": 5463,
      "00": 5464,
      "技术": 5465,
      "区域": 5466,
      "理事": 5467,
      "缔约": 5468,
      "规定": 5469,
      "计划": 5470,
      "根据": 5471,
      "理事会": 5472,
      "需要": 5473,
      "可能": 5474,
      "决定": 5475,
      "儿童": 5476,
      "法律": 5477,
      "可以": 5478,
      "系统": 5479,
      "提出": 5480,
      "采取": 5481,
      "措施": 5482,
      "这一": 5483,
      "支持": 5484,
      "服务": 5485,
      "权利": 5486,
      "重要": 5487,
      "世界": 5488,
      "影响": 5489,
      "研究": 5490,
      "和平": 5491,
      "政策": 5492,
      "必须": 5493,
      "保护": 5494,
      "13": 5495,
      "主义": 5496,
      "资源": 5497,
      "基金": 5498,
      "秘书长": 5499,
      "促进": 5500,
      "环境": 5501,
      "继续": 5502,
      "15": 5503,
      "认为": 5504,
      "使用": 5505,
      "成员": 5506,
      "行为": 5507,
      "要求": 5508,
      "加强": 5509,
      "努力": 5510,
      "一些": 5511,
      "教育": 5512,
      "目标": 5513,
      "主席": 5514,
      "信息": 5515,
      "能力": 5516,
      "号决议": 5517,
      "确保": 5518,
      "任何": 5519,
      "缔约国": 5520,
      "提交": 5521,
      "美元": 5522,
      "--": 5523,
      "部门": 5524,
      "注意": 5525,
      "建立": 5526,
      "部分": 5527,
      "14": 5528,
      "作为": 5529,
      "主要": 5530,
      "的人": 5531,
      "和国": 5532,
      "协调": 5533,
      "的一": 5534,
      "援助": 5535,
      "全球": 5536,
      "月2": 5537,
      "届会议": 5538,
      "审议": 5539,
      "文件": 5540,
      "这种": 5541,
      "地区": 5542,
      "已经": 5543,
      "这个": 5544,
      "先生": 5545,
      "如果": 5546,
      "共和国": 5547,
      "事务": 5548,
      "增加": 5549,
      "草案": 5550,
      "之间": 5551,
      "审查": 5552,
      "公司": 5553,
      "因为": 5554,
      "中国": 5555,
      "持续": 5556,
      "战略": 5557,
      "人民": 5558,
      "参与": 5559,
      "相关": 5560,
      "考虑": 5561,
      "实施": 5562,
      "举行": 5563,
      "各国": 5564,
      "期间": 5565,
      "实现": 5566,
      "有效": 5567,
      "因此": 5568,
      "表示": 5569,
      "领域": 5570,
      "开展": 5571,
      "关系": 5572,
      "第二": 5573,
      "讨论": 5574,
      "程序": 5575,
      "作出": 5576,
      "作用": 5577,
      "中的": 5578,
      "预算": 5579,
      "武器": 5580,
      "中心": 5581,
      "解决": 5582,
      "政治": 5583,
      "的工作": 5584,
      "得到": 5585,
      "18": 5586,
      "获得": 5587,
      "非洲": 5588,
      "美国": 5589,
      "30": 5590,
      "小组": 5591,
      "自己": 5592,
      "9年": 5593,
      "指出": 5594,
      "斯坦": 5595,
      "资料": 5596,
      "的报告": 5597,
      "贸易": 5598,
      "提高": 5599,
      "议程": 5600,
      "基础": 5601,
      "16": 5602,
      "行政": 5603,
      "支助": 5604,
      "处理": 5605,
      "8年": 5606,
      "人的": 5607,
      "时间": 5608,
      "方面的": 5609,
      "数据": 5610,
      "其中": 5611,
      "调查": 5612,
      "方法": 5613,
      "的是": 5614,
      "意见": 5615,
      "一步": 5616,
      "犯罪": 5617,
      "7年": 5618,
      "正在": 5619,
      "培训": 5620,
      "但是": 5621,
      "5年": 5622,
      "特别是": 5623,
      ")。": 5624,
      "代表团": 5625,
      "条约": 5626,
      "由于": 5627,
      "开发": 5628,
      "第2": 5629,
      "同时": 5630,
      "能够": 5631,
      "17": 5632,
      "标准": 5633,
      "专家": 5634,
      "进一步": 5635,
      "人口": 5636,
      "目前": 5637,
      "机制": 5638,
      "原则": 5639,
      "什么": 5640,
      "方式": 5641,
      "特派": 5642,
      "它们": 5643,
      "制定": 5644,
      "的问题": 5645,
      "参加": 5646,
      "司法": 5647,
      "说明": 5648,
      "许多": 5649,
      "开始": 5650,
      "减少": 5651,
      "必要": 5652,
      "6年": 5653,
      "不同": 5654,
      "确定": 5655,
      "秘书处": 5656,
      "利用": 5657,
      "共同": 5658,
      "任务": 5659,
      "注意到": 5660,
      "发言": 5661,
      "框架": 5662,
      "发展中": 5663,
      "尼亚": 5664,
      "各种": 5665,
      "制度": 5666,
      "第一": 5667,
      "评估": 5668,
      "文化": 5669,
      "安全理事会": 5670,
      "生活": 5671,
      "特派团": 5672,
      "强调": 5673,
      "及其": 5674,
      "欧洲": 5675,
      "冲突": 5676,
      "工作人员": 5677,
      "不是": 5678,
      "进程": 5679,
      "取得": 5680,
      "用于": 5681,
      "歧视": 5682,
      "暴力": 5683,
      "an": 5684,
      "1日": 5685,
      "以便": 5686,
      "家庭": 5687,
      "投资": 5688,
      "平等": 5689,
      "机会": 5690,
      "咨询": 5691,
      "建设": 5692,
      "部队": 5693,
      "可持续": 5694,
      "的情况": 5695,
      "发展中国家": 5696,
      "发生": 5697,
      "现在": 5698,
      "责任": 5699,
      "第5": 5700,
      "法院": 5701,
      "了一": 5702,
      "分析": 5703,
      "0年": 5704,
      "条件": 5705,
      "生产": 5706,
      "的国家": 5707,
      "和其他": 5708,
      "具体": 5709,
      "利亚": 5710,
      "4年": 5711,
      "范围": 5712,
      "问题的": 5713,
      "12月": 5714,
      "会员": 5715,
      "结果": 5716,
      "具有": 5717,
      "充分": 5718,
      "应当": 5719,
      "费用": 5720,
      "这样": 5721,
      "维持": 5722,
      "此外": 5723,
      "而且": 5724,
      "高级": 5725,
      "民主": 5726,
      "接受": 5727,
      "基本": 5728,
      "第三": 5729,
      "是否": 5730,
      "企业": 5731,
      "新的": 5732,
      "办法": 5733,
      "伙伴": 5734,
      "各项": 5735,
      "按照": 5736,
      "全面": 5737,
      "存在": 5738,
      "成为": 5739,
      "工作组": 5740,
      "3年": 5741,
      "自由": 5742,
      "地方": 5743,
      "会员国": 5744,
      "对于": 5745,
      "为了": 5746,
      "希望": 5747,
      "适当": 5748,
      "er": 5749,
      "严重": 5750,
      "联盟": 5751,
      "办事": 5752,
      "难民": 5753,
      "个人": 5754,
      "缔约方": 5755,
      "设立": 5756,
      "第3": 5757,
      "次会议": 5758,
      "2010": 5759,
      "滋病": 5760,
      "进展": 5761,
      "人道": 5762,
      "公共": 5763,
      "性别": 5764,
      "办事处": 5765,
      "不能": 5766,
      "帮助": 5767,
      "艾滋病": 5768,
      "消除": 5769,
      "最后": 5770,
      "资金": 5771,
      "就是": 5772,
      "承诺": 5773,
      "应该": 5774,
      "鼓励": 5775,
      "监测": 5776,
      "第6": 5777,
      "市场": 5778,
      "造成": 5779,
      "产生": 5780,
      "正式": 5781,
      "负责": 5782,
      "一种": 5783,
      "受到": 5784,
      "恐怖": 5785,
      "尤其": 5786,
      "在这": 5787,
      "议定": 5788,
      "协助": 5789,
      "他的": 5790,
      "设施": 5791,
      "一般": 5792,
      "银行": 5793,
      "如何": 5794,
      "一项": 5795,
      "健康": 5796,
      "变化": 5797,
      "2011": 5798,
      "增长": 5799,
      "卫生": 5800,
      "做法": 5801,
      "选举": 5802,
      "义务": 5803,
      "办公": 5804,
      "规划": 5805,
      "25": 5806,
      "2年": 5807,
      "控制": 5808,
      "以下": 5809,
      "地位": 5810,
      "预防": 5811,
      "形式": 5812,
      "业务": 5813,
      "协定": 5814,
      "国内": 5815,
      "第4": 5816,
      "议定书": 5817,
      "ar": 5818,
      "认识": 5819,
      "色列": 5820,
      "以色列": 5821,
      "安排": 5822,
      "科学": 5823,
      "1年": 5824,
      "并且": 5825,
      "谈判": 5826,
      "000": 5827,
      "实际": 5828,
      "过程": 5829,
      "利益": 5830,
      "目的": 5831,
      "欢迎": 5832,
      "独立": 5833,
      "上的": 5834,
      "事项": 5835,
      "阿拉": 5836,
      "知道": 5837,
      "成果": 5838,
      "规则": 5839,
      "时候": 5840,
      "这是": 5841,
      "决议草案": 5842,
      "性的": 5843,
      "大的": 5844,
      "优先": 5845,
      "立法": 5846,
      "我的": 5847,
      "尽管": 5848,
      "第十": 5849,
      "领土": 5850,
      "）。": 5851,
      "2005年": 5852,
      "in": 5853,
      "人道主义": 5854,
      "积极": 5855,
      "第五": 5856,
      "之间的": 5857,
      "6月": 5858,
      "改革": 5859,
      "涉及": 5860,
      "完成": 5861,
      "介绍": 5862,
      "你的": 5863,
      "当局": 5864,
      "武装": 5865,
      "阿拉伯": 5866,
      "临时": 5867,
      "例如": 5868,
      "第四": 5869,
      "改善": 5870,
      "有关的": 5871,
      "军事": 5872,
      "种族": 5873,
      "之后": 5874,
      "24": 5875,
      "巴勒": 5876,
      "2012": 5877,
      "2006年": 5878,
      "批准": 5879,
      "以来": 5880,
      "领导": 5881,
      "风险": 5882,
      "国家的": 5883,
      "附件": 5884,
      "巴勒斯坦": 5885,
      "关切": 5886,
      "监督": 5887,
      "办公室": 5888,
      "两个": 5889,
      "比亚": 5890,
      "委员会的": 5891,
      "挑战": 5892,
      "评价": 5893,
      "2009年": 5894,
      "更多": 5895,
      "人们": 5896,
      "或者": 5897,
      "直接": 5898,
      "提出的": 5899,
      "采用": 5900,
      "知识": 5901,
      "表明": 5902,
      "2008年": 5903,
      "法庭": 5904,
      "协商": 5905,
      "50": 5906,
      "on": 5907,
      "之前": 5908,
      "综合": 5909,
      "非常": 5910,
      "or": 5911,
      "那些": 5912,
      "无法": 5913,
      "禁止": 5914,
      "的影响": 5915,
      "al": 5916,
      "2010年": 5917,
      "观察": 5918,
      "金融": 5919,
      "结构": 5920,
      "非政府": 5921,
      "土著": 5922,
      "稳定": 5923,
      "23": 5924,
      "财政": 5925,
      "统计": 5926,
      "刑事": 5927,
      "一致": 5928,
      "2007年": 5929,
      "收入": 5930,
      "7月": 5931,
      "宣言": 5932,
      "履行": 5933,
      "报告员": 5934,
      "26": 5935,
      "保障": 5936,
      "空间": 5937,
      "限制": 5938,
      "警察": 5939,
      "部长": 5940,
      "两年": 5941,
      "打击": 5942,
      "然而": 5943,
      "en": 5944,
      "经费": 5945,
      "21": 5946,
      "状况": 5947,
      "重申": 5948,
      "受害": 5949,
      "2013": 5950,
      "指导": 5951,
      "内的": 5952,
      "运动": 5953,
      "规定的": 5954,
      "案件": 5955,
      "关注": 5956,
      "恐怖主义": 5957,
      "针对": 5958,
      "出现": 5959,
      "的一个": 5960,
      "现有": 5961,
      "理会": 5962,
      "广泛": 5963,
      "第六": 5964,
      "组织的": 5965,
      "内容": 5966,
      "虽然": 5967,
      "星期": 5968,
      "需求": 5969,
      "印度": 5970,
      "对话": 5971,
      "2011年": 5972,
      "因素": 5973,
      "防止": 5974,
      "全国": 5975,
      "土地": 5976,
      "申请": 5977,
      "联系": 5978,
      "最近": 5979,
      "城市": 5980,
      "安理会": 5981,
      "社区": 5982,
      "选择": 5983,
      "就业": 5984,
      "这项": 5985,
      "2004年": 5986,
      "导致": 5987,
      "经验": 5988,
      "罗斯": 5989,
      "审计": 5990,
      "者的": 5991,
      "仍然": 5992,
      "推动": 5993,
      "工作的": 5994,
      "所需": 5995,
      "原因": 5996,
      "不会": 5997,
      "专门": 5998,
      "同意": 5999,
      "一直": 6000,
      "扩大": 6001,
      "裁军": 6002,
      "2000年": 6003,
      "的最": 6004,
      "集团": 6005,
      "产品": 6006,
      "新闻": 6007,
      "组成": 6008,
      "联邦": 6009,
      "尤其是": 6010,
      "多数": 6011,
      "的权利": 6012,
      "残疾": 6013,
      "材料": 6014,
      "符合": 6015,
      "拉克": 6016,
      "结论": 6017,
      ")；": 6018,
      "到了": 6019,
      "制订": 6020,
      "大学": 6021,
      "阶段": 6022,
      "协议": 6023,
      "发挥": 6024,
      "议程项目": 6025,
      "之一": 6026,
      "威胁": 6027,
      "请求": 6028,
      "Ad": 6029,
      "面临": 6030,
      "和国际": 6031,
      "一切": 6032,
      "的国际": 6033,
      "网络": 6034,
      "记录": 6035,
      "重新": 6036,
      "了解": 6037,
      "提供的": 6038,
      "》，": 6039,
      "人类": 6040,
      "发达": 6041,
      "好的": 6042,
      "程度": 6043,
      "财务": 6044,
      "40": 6045,
      "公民": 6046,
      "设计": 6047,
      "可持续发展": 6048,
      "2003年": 6049,
      "198": 6050,
      "22": 6051,
      "9月": 6052,
      "特别报告员": 6053,
      "专业": 6054,
      "俄罗斯": 6055,
      "来的": 6056,
      "定期": 6057,
      "10月": 6058,
      ")，": 6059,
      "60": 6060,
      "某些": 6061,
      "专员": 6062,
      "保持": 6063,
      "自然": 6064,
      "违反": 6065,
      "考虑到": 6066,
      "员额": 6067,
      "自己的": 6068,
      "下列": 6069,
      "长期": 6070,
      "关键": 6071,
      "纳入": 6072,
      "一次": 6073,
      "成功": 6074,
      "明确": 6075,
      "非法": 6076,
      "年度": 6077,
      "论坛": 6078,
      "过去": 6079,
      "农业": 6080,
      "在其": 6081,
      "事实": 6082,
      "伊拉克": 6083,
      "2012年": 6084,
      "群体": 6085,
      "事件": 6086,
      "非政府组织": 6087,
      "内部": 6088,
      "呼吁": 6089,
      "29": 6090,
      "准则": 6091,
      "价值": 6092,
      "执行情况": 6093,
      "的规定": 6094,
      "侵犯": 6095,
      "Add": 6096,
      "完全": 6097,
      "遵守": 6098,
      "27": 6099,
      "核武器": 6100,
      "气候": 6101,
      "西亚": 6102,
      "不断": 6103,
      "日本": 6104,
      "普遍": 6105,
      "上述": 6106,
      "来自": 6107,
      "电子": 6108,
      "重点": 6109,
      "保证": 6110,
      "结束": 6111,
      "进行了": 6112,
      "总统": 6113,
      "该国": 6114,
      "估计": 6115,
      "举行的": 6116,
      "联合国系统": 6117,
      "定的": 6118,
      "宪法": 6119,
      "他们的": 6120,
      "准备": 6121,
      "工程": 6122,
      "条款": 6123,
      "经常": 6124,
      "28": 6125,
      "发现": 6126,
      "计算": 6127,
      "2002年": 6128,
      "我们的": 6129,
      "民族": 6130,
      "外交": 6131,
      "当地": 6132,
      "宗教": 6133,
      "是一个": 6134,
      "感到": 6135,
      "提供了": 6136,
      "学校": 6137,
      "的重要": 6138,
      "11月": 6139,
      "加入": 6140,
      "只有": 6141,
      "和社会": 6142,
      "适用": 6143,
      "从而": 6144,
      "的活动": 6145,
      "质量": 6146,
      "重大": 6147,
      "2001年": 6148,
      "承认": 6149,
      "合同": 6150,
      "收到": 6151,
      "会议的": 6152,
      "是在": 6153,
      "生物": 6154,
      "登记": 6155,
      "改进": 6156,
      "两年期": 6157,
      "回顾": 6158,
      "伙伴关系": 6159,
      "国际社会": 6160,
      ")、": 6161,
      "捐助": 6162,
      "日至": 6163,
      "助于": 6164,
      "女士": 6165,
      "应用": 6166,
      "管制": 6167,
      "应对": 6168,
      "海洋": 6169,
      "2013年": 6170,
      "保健": 6171,
      "拥有": 6172,
      "千年": 6173,
      "5月": 6174,
      "1999年": 6175,
      "第1": 6176,
      "官员": 6177,
      "并不": 6178,
      "所述": 6179,
      "更加": 6180,
      "维持和平": 6181,
      "反映": 6182,
      "的能力": 6183,
      "危险": 6184,
      "确认": 6185,
      "成员国": 6186,
      "贡献": 6187,
      "1月": 6188,
      "3月": 6189,
      "不可": 6190,
      "as": 6191,
      "扩散": 6192,
      "出口": 6193,
      "协会": 6194,
      "设备": 6195,
      "首脑": 6196,
      "做出": 6197,
      "编写": 6198,
      "劳动": 6199,
      "同样": 6200,
      "旨在": 6201,
      "不过": 6202,
      "倡议": 6203,
      "解释": 6204,
      "重要的": 6205,
      "一级": 6206,
      "举办": 6207,
      "反对": 6208,
      "恢复": 6209,
      "本国": 6210,
      "整个": 6211,
      "的所有": 6212,
      "有助于": 6213,
      "在这方面": 6214,
      "美洲": 6215,
      "基金会": 6216,
      "危机": 6217,
      "工业": 6218,
      "工具": 6219,
      "条例": 6220,
      "水平": 6221,
      "35": 6222,
      "一起": 6223,
      "编制": 6224,
      "一样": 6225,
      "资产": 6226,
      "通知": 6227,
      "采取的": 6228,
      "分配": 6229,
      "实体": 6230,
      "构成": 6231,
      "调整": 6232,
      "活动的": 6233,
      "你们": 6234,
      "民间": 6235,
      "粮食": 6236,
      "能源": 6237,
      "检查": 6238,
      "还有": 6239,
      "保留": 6240,
      "学生": 6241,
      "法官": 6242,
      "还是": 6243,
      "青年": 6244,
      "宣传": 6245,
      "指标": 6246,
      "的主要": 6247,
      "艾滋病毒": 6248,
      "商业": 6249,
      "孩子": 6250,
      "的法律": 6251,
      "起来": 6252,
      "基于": 6253,
      "我国": 6254,
      "苏丹": 6255,
      "成立": 6256,
      "所以": 6257,
      "文书": 6258,
      "计划署": 6259,
      "紧急": 6260,
      "职业": 6261,
      "一份": 6262,
      "了一个": 6263,
      "亚洲": 6264,
      "死亡": 6265,
      "规模": 6266,
      "局势": 6267,
      "有些": 6268,
      "达成": 6269,
      "尊重": 6270,
      "显示": 6271,
      "多边": 6272,
      "令人": 6273,
      "1998年": 6274,
      "\"。": 6275,
      "访问": 6276,
      "发展目标": 6277,
      "4月": 6278,
      "列入": 6279,
      "农村": 6280,
      "总部": 6281,
      "机关": 6282,
      "证明": 6283,
      "机构的": 6284,
      "30日": 6285,
      "将在": 6286,
      "达到": 6287,
      "都是": 6288,
      "给予": 6289,
      "理由": 6290,
      "现象": 6291,
      "财产": 6292,
      "价格": 6293,
      "的努力": 6294,
      "签署": 6295,
      "落实": 6296,
      "运输": 6297,
      "行动计划": 6298,
      "的情况下": 6299,
      "33": 6300,
      "不得": 6301,
      "创造": 6302,
      "外国": 6303,
      "那么": 6304,
      "马里": 6305,
      "at": 6306,
      "拘留": 6307,
      "es": 6308,
      "议会": 6309,
      "医疗": 6310,
      "十年": 6311,
      "改变": 6312,
      "本报告": 6313,
      "贫穷": 6314,
      "），": 6315,
      "供应": 6316,
      "声明": 6317,
      "酷刑": 6318,
      "并在": 6319,
      "来说": 6320,
      "is": 6321,
      "各方": 6322,
      "支付": 6323,
      "富汗": 6324,
      "竞争": 6325,
      "阿富汗": 6326,
      "今天": 6327,
      "题为": 6328,
      "的发展": 6329,
      "单位": 6330,
      "森林": 6331,
      "补充": 6332,
      "65": 6333,
      "传统": 6334,
      "缺乏": 6335,
      "2014": 6336,
      "情况下": 6337,
      "后续": 6338,
      "委会": 6339,
      "的建议": 6340,
      "进入": 6341,
      "发达国家": 6342,
      "下午": 6343,
      "地点": 6344,
      "大多数": 6345,
      "实行": 6346,
      "成本": 6347,
      "很多": 6348,
      "提议": 6349,
      "超过": 6350,
      "政府间": 6351,
      "债务": 6352,
      "决策": 6353,
      "性和": 6354,
      "数量": 6355,
      "有人": 6356,
      "核心": 6357,
      "的信": 6358,
      "相互": 6359,
      "为此": 6360,
      "英语": 6361,
      "提交人": 6362,
      "贩运": 6363,
      "国际法": 6364,
      "历史": 6365,
      "手段": 6366,
      "治疗": 6367,
      "交流": 6368,
      "享有": 6369,
      "发表": 6370,
      "197": 6371,
      "第五十": 6372,
      "8月": 6373,
      "am": 6374,
      "个月": 6375,
      "维护": 6376,
      "方案的": 6377,
      "允许": 6378,
      "也是": 6379,
      "宣布": 6380,
      "满足": 6381,
      "困难": 6382,
      "收集": 6383,
      "人数": 6384,
      "授权": 6385,
      "2月": 6386,
      "今后": 6387,
      "精神": 6388,
      "课程": 6389,
      "万美元": 6390,
      "主任": 6391,
      "力的": 6392,
      "大量": 6393,
      "法国": 6394,
      "主管": 6395,
      "日内": 6396,
      "若干": 6397,
      "民间社会": 6398,
      "一名": 6399,
      "学习": 6400,
      "全体": 6401,
      "和发展": 6402,
      "而言": 6403,
      "00美元": 6404,
      "移民": 6405,
      "进行的": 6406,
      "次会议上": 6407,
      "受害者": 6408,
      "37": 6409,
      "提案": 6410,
      "提到": 6411,
      "支出": 6412,
      "通信": 6413,
      "31日": 6414,
      "修订": 6415,
      "女性": 6416,
      "非正式": 6417,
      "45": 6418,
      "实质": 6419,
      "证据": 6420,
      "赔偿": 6421,
      "通过的": 6422,
      "干事": 6423,
      "的方式": 6424,
      "的时候": 6425,
      "职能": 6426,
      "加拿": 6427,
      "化学": 6428,
      "如此": 6429,
      "战争": 6430,
      "贫困": 6431,
      "采购": 6432,
      "消费": 6433,
      "；(": 6434,
      "100": 6435,
      "观察员": 6436,
      "el": 6437,
      "少数": 6438,
      "电话": 6439,
      "36": 6440,
      "下的": 6441,
      "体制": 6442,
      "筹备": 6443,
      "避免": 6444,
      "第六十": 6445,
      "步骤": 6446,
      "%。": 6447,
      "所作": 6448,
      "模式": 6449,
      "损失": 6450,
      "毒品": 6451,
      "纽约": 6452,
      "部署": 6453,
      "鉴于": 6454,
      "58": 6455,
      "予以": 6456,
      "团体": 6457,
      "每年": 6458,
      "英国": 6459,
      "59": 6460,
      "交易": 6461,
      "伊斯": 6462,
      "和技术": 6463,
      "私营": 6464,
      "1997年": 6465,
      "第二十": 6466,
      "刚果": 6467,
      "详细": 6468,
      "和平与": 6469,
      "48": 6470,
      "喜欢": 6471,
      "及社会": 6472,
      "比较": 6473,
      "的事": 6474,
      "妇女的": 6475,
      "多样": 6476,
      "特殊": 6477,
      "申诉": 6478,
      "答复": 6479,
      "统一": 6480,
      "加拿大": 6481,
      "3日": 6482,
      "传播": 6483,
      "德国": 6484,
      "拟订": 6485,
      "效率": 6486,
      "密切": 6487,
      "所载": 6488,
      "第7": 6489,
      "罪行": 6490,
      "气候变化": 6491,
      "与会": 6492,
      "过程中": 6493,
      "日内瓦": 6494,
      "un": 6495,
      "意义": 6496,
      "有限": 6497,
      "权力": 6498,
      "维亚": 6499,
      "不仅": 6500,
      "的其他": 6501,
      "加以": 6502,
      "千年发展目标": 6503,
      "伊朗": 6504,
      "增强": 6505,
      "如下": 6506,
      "宪章": 6507,
      "最不": 6508,
      "未来": 6509,
      "通常": 6510,
      "十分": 6511,
      "训练": 6512,
      "亿美元": 6513,
      "公平": 6514,
      "感谢": 6515,
      "比例": 6516,
      "索赔": 6517,
      "63": 6518,
      "从事": 6519,
      "来源": 6520,
      "透明": 6521,
      "体系": 6522,
      "拟议": 6523,
      "每个": 6524,
      "的基础": 6525,
      "身份": 6526,
      "47": 6527,
      "依据": 6528,
      "修正": 6529,
      "这类": 6530,
      "2008": 6531,
      "49": 6532,
      "再次": 6533,
      "看到": 6534,
      "经济及社会": 6535,
      "欧洲联盟": 6536,
      "伊斯兰": 6537,
      "8日": 6538,
      "告诉": 6539,
      "香港": 6540,
      "人力": 6541,
      "媒体": 6542,
      "属于": 6543,
      "检察": 6544,
      "里亚": 6545,
      "专题": 6546,
      "出版": 6547,
      "号决定": 6548,
      "然后": 6549,
      "通过了": 6550,
      "领域的": 6551,
      "以上": 6552,
      "移徙": 6553,
      "系列": 6554,
      "语言": 6555,
      "组织和": 6556,
      "有效的": 6557,
      "巴嫩": 6558,
      "带来": 6559,
      "敦促": 6560,
      "概念": 6561,
      "纲领": 6562,
      "32": 6563,
      "ww": 6564,
      "最终": 6565,
      "阿尔": 6566,
      "除了": 6567,
      "黎巴嫩": 6568,
      "取得的": 6569,
      "ch": 6570,
      "寻求": 6571,
      "尚未": 6572,
      "表现": 6573,
      "咨询委员会": 6574,
      "三个": 6575,
      "境内": 6576,
      "律师": 6577,
      "39": 6578,
      "》。": 6579,
      "污染": 6580,
      "药物": 6581,
      "4日": 6582,
      "占领": 6583,
      "反应": 6584,
      "最高": 6585,
      "她的": 6586,
      "王国": 6587,
      "转让": 6588,
      "迅速": 6589,
      "9日": 6590,
      "公众": 6591,
      "有利": 6592,
      "物质": 6593,
      "的经济": 6594,
      "重视": 6595,
      "劳工": 6596,
      "承担": 6597,
      "1995年": 6598,
      "经济及社会理事会": 6599,
      "一定": 6600,
      "依照": 6601,
      "观点": 6602,
      "诉讼": 6603,
      "降低": 6604,
      "开发署": 6605,
      "以前": 6606,
      "住房": 6607,
      "双方": 6608,
      "数字": 6609,
      "高级专员": 6610,
      "其中包括": 6611,
      "38": 6612,
      "生命": 6613,
      "不足": 6614,
      "举措": 6615,
      "甚至": 6616,
      "提出了": 6617,
      "开发计划署": 6618,
      "认识到": 6619,
      "44": 6620,
      "各个": 6621,
      "理解": 6622,
      "的决定": 6623,
      "的目标": 6624,
      "平民": 6625,
      "相信": 6626,
      "57": 6627,
      "只是": 6628,
      "她们": 6629,
      "平均": 6630,
      "职位": 6631,
      "基础设施": 6632,
      "主题": 6633,
      "任命": 6634,
      "核准": 6635,
      "的信息": 6636,
      "，《": 6637,
      "出席": 6638,
      "召开": 6639,
      "真正": 6640,
      "致力": 6641,
      "货币": 6642,
      "预计": 6643,
      "国民": 6644,
      "居民": 6645,
      "自愿": 6646,
      "66": 6647,
      "公开": 6648,
      "及时": 6649,
      "另外": 6650,
      "建筑": 6651,
      "性质": 6652,
      "生效": 6653,
      "不要": 6654,
      "失所": 6655,
      "定义": 6656,
      "引起": 6657,
      "的大": 6658,
      "儿童权利": 6659,
      "公正": 6660,
      "指控": 6661,
      "流离": 6662,
      "疾病": 6663,
      "辩论": 6664,
      "过渡": 6665,
      "34": 6666,
      "妇女和": 6667,
      "首脑会议": 6668,
      "愿意": 6669,
      "资助": 6670,
      "趋势": 6671,
      "运作": 6672,
      "遭受": 6673,
      "1994年": 6674,
      "5日": 6675,
      "分别": 6676,
      "担任": 6677,
      "朋友": 6678,
      "的话": 6679,
      "磋商": 6680,
      "障碍": 6681,
      "原子": 6682,
      "常驻": 6683,
      "有权": 6684,
      "各国政府": 6685,
      "流离失所": 6686,
      "31": 6687,
      "CN": 6688,
      "至少": 6689,
      "6日": 6690,
      "下降": 6691,
      "顾问": 6692,
      "政策和": 6693,
      "%，": 6694,
      "不扩散": 6695,
      "会计": 6696,
      "其它": 6697,
      "复杂": 6698,
      "人和": 6699,
      "商品": 6700,
      "损害": 6701,
      "探讨": 6702,
      "有所": 6703,
      "报告的": 6704,
      "56": 6705,
      "中央": 6706,
      "之外": 6707,
      "叙利亚": 6708,
      "明显": 6709,
      "的任何": 6710,
      "的资料": 6711,
      "而不是": 6712,
      "邀请": 6713,
      "那样": 6714,
      "介绍了": 6715,
      "\"，": 6716,
      "52": 6717,
      "似乎": 6718,
      "的行为": 6719,
      "的作用": 6720,
      "）；": 6721,
      "2006": 6722,
      "上午": 6723,
      "15日": 6724,
      "各级": 6725,
      "澳大": 6726,
      "的新": 6727,
      "相当": 6728,
      "第8": 6729,
      "预期": 6730,
      "保险": 6731,
      "古巴": 6732,
      "另一": 6733,
      "当前": 6734,
      "来越": 6735,
      "在国家": 6736,
      "太平": 6737,
      "来文": 6738,
      "破坏": 6739,
      "：“": 6740,
      "69": 6741,
      "7日": 6742,
      "出了": 6743,
      "合理": 6744,
      "墨西": 6745,
      "越来越": 6746,
      "澳大利亚": 6747,
      "64": 6748,
      "意味": 6749,
      "数额": 6750,
      "班牙": 6751,
      "男女": 6752,
      "目的是": 6753,
      "西班牙": 6754,
      "适用于": 6755,
      "飞机": 6756,
      "必要的": 6757,
      "土著人民": 6758,
      "墨西哥": 6759,
      "70": 6760,
      "土耳": 6761,
      "网站": 6762,
      "适应": 6763,
      "随着": 6764,
      "行动的": 6765,
      "儿童基金会": 6766,
      "不同的": 6767,
      "高级别": 6768,
      "2014年": 6769,
      "1996年": 6770,
      "太平洋": 6771,
      "土耳其": 6772,
      "东西": 6773,
      "拒绝": 6774,
      "第9": 6775,
      "背景": 6776,
      "集中": 6777,
      "能力建设": 6778,
      "世纪": 6779,
      "两性": 6780,
      "他说": 6781,
      "灾害": 6782,
      "的机会": 6783,
      "贸发": 6784,
      "委员会还": 6785,
      "致力于": 6786,
      "68": 6787,
      "il": 6788,
      "上诉": 6789,
      "不到": 6790,
      "将其": 6791,
      "的不": 6792,
      "系统的": 6793,
      "54": 6794,
      "截至": 6795,
      "）、": 6796,
      "民主共和国": 6797,
      "和保护": 6798,
      "容易": 6799,
      "清单": 6800,
      "的时间": 6801,
      "足够": 6802,
      "范围内": 6803,
      "开放": 6804,
      "时期": 6805,
      "的各项": 6806,
      "ur": 6807,
      "以后": 6808,
      "此种": 6809,
      "讲习": 6810,
      "发展的": 6811,
      "专家组": 6812,
      "巴西": 6813,
      "日期": 6814,
      "制造": 6815,
      "捐款": 6816,
      "行使": 6817,
      "2000": 6818,
      "力量": 6819,
      "加勒": 6820,
      "合法": 6821,
      "和经济": 6822,
      "日益": 6823,
      "机构和": 6824,
      "与会者": 6825,
      "80": 6826,
      "》(": 6827,
      "任择": 6828,
      "修改": 6829,
      "北京": 6830,
      "待遇": 6831,
      "第15": 6832,
      "表决": 6833,
      "众国": 6834,
      "地雷": 6835,
      "此类": 6836,
      "2004": 6837,
      "联合王国": 6838,
      "意味着": 6839,
      "意识": 6840,
      "福利": 6841,
      "立即": 6842,
      "类似": 6843,
      "残疾人": 6844,
      "55": 6845,
      "也许": 6846,
      "女孩": 6847,
      "巴基": 6848,
      "第13": 6849,
      "委员会在": 6850,
      "加勒比": 6851,
      "——": 6852,
      "塞尔": 6853,
      "工作队": 6854,
      "62": 6855,
      "ad": 6856,
      "it": 6857,
      "为什么": 6858,
      "少年": 6859,
      "形成": 6860,
      "心理": 6861,
      "怎么": 6862,
      "更好": 6863,
      "试验": 6864,
      "地区的": 6865,
      "优先事项": 6866,
      "巴基斯坦": 6867,
      "61": 6868,
      "请秘书长": 6869,
      "行为的": 6870,
      "武装冲突": 6871,
      "人力资源": 6872,
      "全部": 6873,
      "几乎": 6874,
      "将会": 6875,
      "管辖": 6876,
      "腐败": 6877,
      "视为": 6878,
      "1993年": 6879,
      "秘书长关于": 6880,
      "化的": 6881,
      "无论": 6882,
      "2015": 6883,
      "会议室": 6884,
      "可能会": 6885,
      "42": 6886,
      "加拉": 6887,
      "官方": 6888,
      "接触": 6889,
      "首先": 6890,
      "行动纲领": 6891,
      "的一部分": 6892,
      "原子能": 6893,
      "67": 6894,
      "在内的": 6895,
      "大约": 6896,
      "往往": 6897,
      "才能": 6898,
      "满意": 6899,
      "筹资": 6900,
      "讲习班": 6901,
      "外地": 6902,
      "审判": 6903,
      "小时": 6904,
      "相关的": 6905,
      "适当的": 6906,
      "分发": 6907,
      "国的": 6908,
      "拉丁": 6909,
      "监狱": 6910,
      "人口基金": 6911,
      "任择议定书": 6912,
      "也不": 6913,
      "挪威": 6914,
      "马拉": 6915,
      "1个": 6916,
      "发出": 6917,
      "和联合国": 6918,
      "对妇女": 6919,
      "销售": 6920,
      "实质性": 6921,
      "投票": 6922,
      "攸关": 6923,
      "欧盟": 6924,
      "汽车": 6925,
      "起诉": 6926,
      "第四十": 6927,
      "交通": 6928,
      "流动": 6929,
      "离开": 6930,
      "2001": 6931,
      "儿童的": 6932,
      "研究所": 6933,
      "最不发达国家": 6934,
      "。”": 6935,
      "与联合国": 6936,
      "侵害": 6937,
      "的要求": 6938,
      "索马里": 6939,
      "觉得": 6940,
      "赞赏": 6941,
      "信托": 6942,
      "许可": 6943,
      "2009": 6944,
      "会议上": 6945,
      "53": 6946,
      "所涉": 6947,
      "委员会建议": 6948,
      "43": 6949,
      "ic": 6950,
      "在此": 6951,
      "有必要": 6952,
      "196": 6953,
      "以外": 6954,
      "立场": 6955,
      "职责": 6956,
      "贷款": 6957,
      "服务的": 6958,
      "几个": 6959,
      "现代": 6960,
      "用的": 6961,
      "的研究": 6962,
      "虐待": 6963,
      "决议草案A": 6964,
      "om": 6965,
      "一位": 6966,
      "以确保": 6967,
      "克斯坦": 6968,
      "年龄": 6969,
      "我想": 6970,
      "通报": 6971,
      "51": 6972,
      "主权": 6973,
      "停止": 6974,
      "理论": 6975,
      "各自": 6976,
      "地注意到": 6977,
      "埃及": 6978,
      "大利": 6979,
      "年来": 6980,
      "自治": 6981,
      "获取": 6982,
      "报告中": 6983,
      "利益攸关": 6984,
      "名单": 6985,
      "处于": 6986,
      "工人": 6987,
      "旅游": 6988,
      "根本": 6989,
      "资本": 6990,
      "那个": 6991,
      "人权和": 6992,
      "人权理事会": 6993,
      "作了": 6994,
      "对其": 6995,
      "总体": 6996,
      "技能": 6997,
      "持久": 6998,
      "的任务": 6999,
      "18日": 7000,
      "一年": 7001,
      "海地": 7002,
      "物的": 7003,
      "采取行动": 7004,
      "提交的": 7005,
      "贸发会议": 7006,
      "拉丁美洲": 7007,
      "当事": 7008,
      "俄罗斯联邦": 7009,
      "维持和平行动": 7010,
      "ev": 7011,
      "意大利": 7012,
      "普通": 7013,
      "电视": 7014,
      "评论": 7015,
      "方案和": 7016,
      "II": 7017,
      "助理": 7018,
      "数目": 7019,
      "案文": 7020,
      "2005": 7021,
      "国际公约": 7022,
      "人士": 7023,
      "分子": 7024,
      "增进": 7025,
      "的代表": 7026,
      "科技": 7027,
      "双边": 7028,
      "年轻": 7029,
      "本身": 7030,
      "信息和": 7031,
      "后续行动": 7032,
      "也纳": 7033,
      "内亚": 7034,
      "卢旺": 7035,
      "后果": 7036,
      "指定": 7037,
      "有可能": 7038,
      "维也纳": 7039,
      "至关": 7040,
      "资格": 7041,
      "卢旺达": 7042,
      "几内亚": 7043,
      "实验": 7044,
      "本组织": 7045,
      "科索": 7046,
      "种族歧视": 7047,
      "科索沃": 7048,
      "创新": 7049,
      "另一个": 7050,
      "大使": 7051,
      "平衡": 7052,
      "提请": 7053,
      "次级": 7054,
      "的执行情况": 7055,
      "规范": 7056,
      "缔约方会议": 7057,
      "000美元": 7058,
      "两性平等": 7059,
      "公务": 7060,
      "在该": 7061,
      "执法": 7062,
      "的支持": 7063,
      "科威": 7064,
      "协调员": 7065,
      "领导人": 7066,
      "2015年": 7067,
      "即使": 7068,
      "尼西亚": 7069,
      "的技术": 7070,
      "研讨": 7071,
      "数据库": 7072,
      "第三十": 7073,
      "科威特": 7074,
      "一下": 7075,
      "不应": 7076,
      "兴趣": 7077,
      "后的": 7078,
      "和区域": 7079,
      "结合": 7080,
      "脆弱": 7081,
      "里的": 7082,
      "2003": 7083,
      "14日": 7084,
      "仲裁": 7085,
      "拉夫": 7086,
      "正常": 7087,
      "父母": 7088,
      "用户": 7089,
      "罗马": 7090,
      "转移": 7091,
      "附属": 7092,
      "的一项": 7093,
      "私营部门": 7094,
      "90": 7095,
      "不再": 7096,
      "候选": 7097,
      "启动": 7098,
      "延长": 7099,
      "攻击": 7100,
      "救济": 7101,
      "瑞士": 7102,
      "用途": 7103,
      "的项目": 7104,
      "第18": 7105,
      "行的": 7106,
      "的重要性": 7107,
      "刚果民主共和国": 7108,
      "》、": 7109,
      "替代": 7110,
      "有一": 7111,
      "第七": 7112,
      "1990年": 7113,
      "和平与安全": 7114,
      "研讨会": 7115,
      "ed": 7116,
      "ol": 7117,
      "今年": 7118,
      "和文化": 7119,
      "国籍": 7120,
      "将继续": 7121,
      "排放": 7122,
      "放在": 7123,
      "达尔": 7124,
      "人权委员会": 7125,
      "出来": 7126,
      "及其他": 7127,
      "的方法": 7128,
      "者和": 7129,
      "道路": 7130,
      "20日": 7131,
      "os": 7132,
      "变得": 7133,
      "在联合国": 7134,
      "治理": 7135,
      "经过": 7136,
      "袭击": 7137,
      "6月30日": 7138,
      "..": 7139,
      "判决": 7140,
      "南非": 7141,
      "提及": 7142,
      "权的": 7143,
      "母亲": 7144,
      "的措施": 7145,
      "私人": 7146,
      "预测": 7147,
      "人权事务": 7148,
      "客户": 7149,
      "高度": 7150,
      "人员的": 7151,
      "项目的": 7152,
      "更多的": 7153,
      "检察官": 7154,
      "二十": 7155,
      "投入": 7156,
      "补救": 7157,
      "10日": 7158,
      "77": 7159,
      "主持": 7160,
      "大部分": 7161,
      "大规模": 7162,
      "工发": 7163,
      "的政策": 7164,
      "第11": 7165,
      "联络": 7166,
      "返回": 7167,
      "食物": 7168,
      "国际组织": 7169,
      "教育和": 7170,
      "主席团": 7171,
      "一般性": 7172,
      "46": 7173,
      "安保": 7174,
      "感染": 7175,
      "法治": 7176,
      "特定": 7177,
      "男子": 7178,
      "经营": 7179,
      "而是": 7180,
      "表达": 7181,
      "月22": 7182,
      "上文": 7183,
      "尔兰": 7184,
      "总是": 7185,
      "旅行": 7186,
      "殖民": 7187,
      "特设": 7188,
      "监察": 7189,
      "行政和": 7190,
      "特别是在": 7191,
      "建设和平": 7192,
      "这样的": 7193,
      "个国家": 7194,
      "和执行": 7195,
      "和犯罪": 7196,
      "在于": 7197,
      "处罚": 7198,
      "常设": 7199,
      "打算": 7200,
      "的各种": 7201,
      "看法": 7202,
      "第12": 7203,
      "起草": 7204,
      "途径": 7205,
      "2002": 7206,
      "以及在": 7207,
      "这一点": 7208,
      "与发展": 7209,
      "供资": 7210,
      "切实": 7211,
      "合众国": 7212,
      "所列": 7213,
      "本文": 7214,
      "根廷": 7215,
      "爆炸": 7216,
      "爱尔兰": 7217,
      "遗憾": 7218,
      "阿根廷": 7219,
      "特别代表": 7220,
      "1日至": 7221,
      "形式的": 7222,
      "利益攸关方": 7223,
      "便利": 7224,
      "最佳": 7225,
      "有的": 7226,
      "状态": 7227,
      "约束": 7228,
      "美利": 7229,
      "这次": 7230,
      "述了": 7231,
      "信托基金": 7232,
      "ah": 7233,
      "初步": 7234,
      "医生": 7235,
      "找到": 7236,
      "朝鲜": 7237,
      "生态": 7238,
      "，\"": 7239,
      "规划署": 7240,
      "实际上": 7241,
      "临时议程": 7242,
      "73": 7243,
      "中东": 7244,
      "刑法": 7245,
      "斯拉夫": 7246,
      "正如": 7247,
      "维和": 7248,
      "账户": 7249,
      "共同体": 7250,
      "美利坚": 7251,
      "地球": 7252,
      "尼日": 7253,
      "居住": 7254,
      "现金": 7255,
      "葡萄": 7256,
      "印度尼西亚": 7257,
      "第1款": 7258,
      "41": 7259,
      "南部": 7260,
      "富尔": 7261,
      "当然": 7262,
      "的行动": 7263,
      "采取措施": 7264,
      "美利坚合众国": 7265,
      "伦比亚": 7266,
      "外部": 7267,
      "我要": 7268,
      "查明": 7269,
      "的儿童": 7270,
      "航空": 7271,
      "西兰": 7272,
      "方案预算": 7273,
      "克兰": 7274,
      "公布": 7275,
      "出的": 7276,
      "制裁": 7277,
      "和国家": 7278,
      "哥伦比亚": 7279,
      "商定": 7280,
      "身体": 7281,
      "随后": 7282,
      "2007": 7283,
      "技术援助": 7284,
      "有效地": 7285,
      "ou": 7286,
      "为基础": 7287,
      "他在": 7288,
      "它的": 7289,
      "态度": 7290,
      "次区域": 7291,
      "的社会": 7292,
      "的安全": 7293,
      "相同": 7294,
      "酌情": 7295,
      "重建": 7296,
      "颁布": 7297,
      "管理和": 7298,
      "种族主义": 7299,
      "号文件": 7300,
      "唯一": 7301,
      "对此": 7302,
      "就会": 7303,
      "差异": 7304,
      "斯洛": 7305,
      "新西兰": 7306,
      "更为": 7307,
      "的说明": 7308,
      "石油": 7309,
      "货物": 7310,
      "都有": 7311,
      "12日": 7312,
      "性别平等": 7313,
      "org": 7314,
      "事实上": 7315,
      "达尔富尔": 7316,
      "不受": 7317,
      "分享": 7318,
      "南斯拉夫": 7319,
      "和管理": 7320,
      "坚持": 7321,
      "岛屿": 7322,
      "指南": 7323,
      "效果": 7324,
      "更新": 7325,
      "的合作": 7326,
      "第17": 7327,
      "跨国": 7328,
      "如果你": 7329,
      "多样性": 7330,
      "et": 7331,
      "全世界": 7332,
      "化和": 7333,
      "卫星": 7334,
      "很大": 7335,
      "我不": 7336,
      "类型": 7337,
      "试图": 7338,
      "软件": 7339,
      "载于": 7340,
      "面的": 7341,
      "不利": 7342,
      "展开": 7343,
      "方向": 7344,
      "现实": 7345,
      "的承诺": 7346,
      "进口": 7347,
      "那里": 7348,
      "11日": 7349,
      "事务部": 7350,
      "第一次": 7351,
      "代理": 7352,
      "养恤": 7353,
      "团结": 7354,
      "失业": 7355,
      "子女": 7356,
      "帝汶": 7357,
      "清楚": 7358,
      "的原则": 7359,
      "裁决": 7360,
      "阁下": 7361,
      "防治": 7362,
      "执行局": 7363,
      "建立一个": 7364,
      "小组委员会": 7365,
      "产生的": 7366,
      "月22日": 7367,
      "之中": 7368,
      "争取": 7369,
      "完整": 7370,
      "并将": 7371,
      "总额": 7372,
      "未能": 7373,
      "良好": 7374,
      "难以": 7375,
      "19日": 7376,
      "1999": 7377,
      "经济和社会": 7378,
      "ass": 7379,
      "毒品和犯罪": 7380,
      "ov": 7381,
      "东帝汶": 7382,
      "享受": 7383,
      "剥夺": 7384,
      "同一": 7385,
      "学院": 7386,
      "成年": 7387,
      "问责": 7388,
      "16日": 7389,
      "刑事司法": 7390,
      "参考": 7391,
      "发布": 7392,
      "方针": 7393,
      "最低": 7394,
      "最大": 7395,
      "波斯": 7396,
      "的意见": 7397,
      "议题": 7398,
      "边界": 7399,
      "付款": 7400,
      "伤害": 7401,
      "压力": 7402,
      "实践": 7403,
      "工资": 7404,
      "弹药": 7405,
      "报道": 7406,
      "百分": 7407,
      "语文": 7408,
      "购买": 7409,
      "世界银行": 7410,
      "了一项": 7411,
      "毒品和犯罪问题": 7412,
      "书面": 7413,
      "依然": 7414,
      "包含": 7415,
      "向大会": 7416,
      "塞拉": 7417,
      "是个": 7418,
      "是一种": 7419,
      "有一个": 7420,
      "的基本": 7421,
      "的地方": 7422,
      "着重": 7423,
      "科特": 7424,
      "17日": 7425,
      "框架内": 7426,
      "12月31日": 7427,
      "预防犯罪": 7428,
      "更好地": 7429,
      "AC": 7430,
      "依赖": 7431,
      "功能": 7432,
      "在国际": 7433,
      "开支": 7434,
      "志愿": 7435,
      "推广": 7436,
      "期限": 7437,
      "相应": 7438,
      "证书": 7439,
      "ri": 7440,
      "行业": 7441,
      "错误": 7442,
      "隆迪": 7443,
      "机构间": 7444,
      "届会议上": 7445,
      "原子能机构": 7446,
      "下来": 7447,
      "乌克兰": 7448,
      "分类": 7449,
      "剥削": 7450,
      "大家": 7451,
      "布隆迪": 7452,
      "法令": 7453,
      "的结果": 7454,
      "第10": 7455,
      "进步": 7456,
      "体育": 7457,
      "值得": 7458,
      "并没有": 7459,
      "快速": 7460,
      "核查": 7461,
      "荷兰": 7462,
      "参加了": 7463,
      "CO": 7464,
      "多的": 7465,
      "强迫": 7466,
      "相比": 7467,
      "简单": 7468,
      "国际合作": 7469,
      "政府的": 7470,
      "包括在": 7471,
      "审议了": 7472,
      "通信技术": 7473,
      "事情": 7474,
      "使其": 7475,
      "协作": 7476,
      "各地": 7477,
      "和建议": 7478,
      "指示": 7479,
      "摘要": 7480,
      "有时": 7481,
      "正确": 7482,
      "自动": 7483,
      "集体": 7484,
      "权利和": 7485,
      "人民共和国": 7486,
      "计算机": 7487,
      "一条": 7488,
      "利比": 7489,
      "合并": 7490,
      "容忍": 7491,
      "教师": 7492,
      "肯尼亚": 7493,
      "艺术": 7494,
      "迪瓦": 7495,
      "逮捕": 7496,
      "额外": 7497,
      "安全和": 7498,
      "月23日": 7499,
      "500": 7500,
      "CC": 7501,
      "ion": 7502,
      "事规则": 7503,
      "反恐": 7504,
      "取消": 7505,
      "平台": 7506,
      "拉圭": 7507,
      "法规": 7508,
      "生殖": 7509,
      "的可能": 7510,
      "的具体": 7511,
      "食品": 7512,
      "权利的": 7513,
      "使用的": 7514,
      "难民署": 7515,
      "工发组织": 7516,
      "波斯尼亚": 7517,
      "科特迪瓦": 7518,
      "信任": 7519,
      "吁请": 7520,
      "吸引": 7521,
      "当时": 7522,
      "教学": 7523,
      "被告": 7524,
      "高兴": 7525,
      "，“": 7526,
      "采取了": 7527,
      "监测和": 7528,
      "有利于": 7529,
      "利比里亚": 7530,
      ")(": 7531,
      "与其他": 7532,
      "主流": 7533,
      "动物": 7534,
      "医院": 7535,
      "担保": 7536,
      "教训": 7537,
      "潜在": 7538,
      "营养": 7539,
      "逐步": 7540,
      "雇员": 7541,
      "发展和": 7542,
      "妇女地位": 7543,
      "和解": 7544,
      "显然": 7545,
      "经历": 7546,
      "群岛": 7547,
      "载有": 7548,
      "这里": 7549,
      "联合国宪章": 7550,
      "亚太": 7551,
      "克罗": 7552,
      "尽可能": 7553,
      "年的": 7554,
      "瑞典": 7555,
      "赞扬": 7556,
      "广泛的": 7557,
      "化学品": 7558,
      "一体": 7559,
      "中有": 7560,
      "中期": 7561,
      "人在": 7562,
      "并非": 7563,
      "有组织": 7564,
      "玻利": 7565,
      "的联合国": 7566,
      "示范": 7567,
      "订正": 7568,
      "青少年": 7569,
      "面前": 7570,
      "发展援助": 7571,
      "195": 7572,
      "技术和": 7573,
      "造成的": 7574,
      "透明度": 7575,
      "业绩": 7576,
      "严格": 7577,
      "危害": 7578,
      "应在": 7579,
      "成就": 7580,
      "肯定": 7581,
      "速度": 7582,
      "除非": 7583,
      "委员会主席": 7584,
      "----": 7585,
      "这样做": 7586,
      "公务员": 7587,
      "会上": 7588,
      "派遣": 7589,
      "特点": 7590,
      "第19": 7591,
      "第14": 7592,
      "遭到": 7593,
      "一般事务": 7594,
      "次级方案": 7595,
      ")：": 7596,
      "ec": 7597,
      "利昂": 7598,
      "场所": 7599,
      "多少": 7600,
      "干预": 7601,
      "意思": 7602,
      "感觉": 7603,
      "操作": 7604,
      "灵活": 7605,
      "荒漠": 7606,
      "这么": 7607,
      "1992年": 7608,
      "13日": 7609,
      "消除对妇女": 7610,
      "附件一": 7611,
      "面临的": 7612,
      "us": 7613,
      "以期": 7614,
      "制作": 7615,
      "只能": 7616,
      "实地": 7617,
      "强制": 7618,
      "测试": 7619,
      "缅甸": 7620,
      "赋予": 7621,
      "道德": 7622,
      "面对": 7623,
      "联合会": 7624,
      "部长级": 7625,
      "塞拉利昂": 7626,
      "为止": 7627,
      "之下": 7628,
      "地理": 7629,
      "埃塞": 7630,
      "婚姻": 7631,
      "对该": 7632,
      "惩罚": 7633,
      "条第1款": 7634,
      "清洁": 7635,
      "筹措": 7636,
      "国家和": 7637,
      "执行主任": 7638,
      "1998": 7639,
      "计划的": 7640,
      "劳工组织": 7641,
      "ir": 7642,
      "任期": 7643,
      "号和": 7644,
      "哪些": 7645,
      "将于": 7646,
      "所在": 7647,
      "燃料": 7648,
      "的有关": 7649,
      "经社会": 7650,
      "组成部分": 7651,
      "www": 7652,
      "使得": 7653,
      "包容": 7654,
      "地利": 7655,
      "差距": 7656,
      "父亲": 7657,
      "第九": 7658,
      "自我": 7659,
      "月28日": 7660,
      "87": 7661,
      "一点": 7662,
      "与此": 7663,
      "也没有": 7664,
      "习惯": 7665,
      "促请": 7666,
      "俄比亚": 7667,
      "单独": 7668,
      "基地": 7669,
      "失去": 7670,
      "废物": 7671,
      "报表": 7672,
      "推进": 7673,
      "格鲁": 7674,
      "第16": 7675,
      "负担": 7676,
      "工程处": 7677,
      "候选人": 7678,
      "埃塞俄比亚": 7679,
      "争端": 7680,
      "制止": 7681,
      "可靠": 7682,
      "是不": 7683,
      "段中": 7684,
      "秘鲁": 7685,
      "阻碍": 7686,
      "）：": 7687,
      "：(": 7688,
      "委员会的报告": 7689,
      "月24日": 7690,
      "举行了": 7691,
      "and": 7692,
      "交换": 7693,
      "以往": 7694,
      "发了": 7695,
      "和非": 7696,
      "和黑": 7697,
      "在这一": 7698,
      "在一起": 7699,
      "失踪": 7700,
      "就此": 7701,
      "情报": 7702,
      "是由": 7703,
      "电影": 7704,
      "的政治": 7705,
      "的数据": 7706,
      "马来": 7707,
      "资源的": 7708,
      "全体会议": 7709,
      "至关重要": 7710,
      "ab": 7711,
      "em": 7712,
      "即将": 7713,
      "和加强": 7714,
      "奥地利": 7715,
      "或其他": 7716,
      "相对": 7717,
      "纪念": 7718,
      "细则": 7719,
      "遇到": 7720,
      "所有的": 7721,
      "讨论会": 7722,
      "第2款": 7723,
      "的基础上": 7724,
      "取得的进展": 7725,
      "上午10": 7726,
      "儿子": 7727,
      "哥维": 7728,
      "多种": 7729,
      "未经": 7730,
      "物品": 7731,
      "白俄罗斯": 7732,
      "的小": 7733,
      "环境署": 7734,
      "第二次": 7735,
      "》（": 7736,
      "塞哥维": 7737,
      "尼斯": 7738,
      "每天": 7739,
      "的一些": 7740,
      "议员": 7741,
      "委员会注意到": 7742,
      "这个问题": 7743,
      "与其": 7744,
      "储存": 7745,
      "共识": 7746,
      "后勤": 7747,
      "外层": 7748,
      "对这些": 7749,
      "正规": 7750,
      "每一": 7751,
      "法案": 7752,
      "深入": 7753,
      "用来": 7754,
      "的执行": 7755,
      "老年": 7756,
      "角度": 7757,
      "月2日": 7758,
      "取得了": 7759,
      "原因是": 7760,
      "决心": 7761,
      "吉亚": 7762,
      "回应": 7763,
      "地亚": 7764,
      "现行": 7765,
      "的做法": 7766,
      "装备": 7767,
      "调动": 7768,
      "增加了": 7769,
      "公共部门": 7770,
      "葡萄牙": 7771,
      "塞哥维那": 7772,
      "im": 7773,
      "一旦": 7774,
      "减贫": 7775,
      "国防": 7776,
      "定居": 7777,
      "审理": 7778,
      "得以": 7779,
      "所做": 7780,
      "的关键": 7781,
      "194": 7782,
      "技术合作": 7783,
      "月21日": 7784,
      "暴力侵害": 7785,
      "常驻联合国": 7786,
      "尼日利亚": 7787,
      "有组织犯罪": 7788,
      "格鲁吉亚": 7789,
      "外层空间": 7790,
      "ac": 7791,
      "事业": 7792,
      "位置": 7793,
      "准确": 7794,
      "受益": 7795,
      "回答": 7796,
      "外勤": 7797,
      "尼泊": 7798,
      "巴布": 7799,
      "常常": 7800,
      "彻底": 7801,
      "整体": 7802,
      "模型": 7803,
      "尼泊尔": 7804,
      "以英语": 7805,
      "体现": 7806,
      "分摊": 7807,
      "副主席": 7808,
      "加快": 7809,
      "因而": 7810,
      "巩固": 7811,
      "我在": 7812,
      "效益": 7813,
      "类别": 7814,
      "西非": 7815,
      "解除": 7816,
      "车辆": 7817,
      "高等": 7818,
      "的一切": 7819,
      "公司的": 7820,
      "侵犯人权": 7821,
      "\"(": 7822,
      "id": 7823,
      "产业": 7824,
      "减轻": 7825,
      "北部": 7826,
      "取决": 7827,
      "只要": 7828,
      "强烈": 7829,
      "的资源": 7830,
      "的资金": 7831,
      "确实": 7832,
      "自身": 7833,
      "政府和": 7834,
      "所有国家": 7835,
      "发生的": 7836,
      "ent": 7837,
      "75": 7838,
      "ot": 7839,
      "大楼": 7840,
      "寻找": 7841,
      "手册": 7842,
      "指挥": 7843,
      "斗争": 7844,
      "族裔": 7845,
      "智利": 7846,
      "混合": 7847,
      "职权": 7848,
      "职等": 7849,
      "芬兰": 7850,
      "观念": 7851,
      "通讯": 7852,
      "我们在": 7853,
      "进展情况": 7854,
      "人道主义法": 7855,
      "流离失所者": 7856,
      "ay": 7857,
      "中非": 7858,
      "主动": 7859,
      "共计": 7860,
      "思想": 7861,
      "政党": 7862,
      "无核武器": 7863,
      "死刑": 7864,
      "的方案": 7865,
      "真的": 7866,
      "第八": 7867,
      "蒙特": 7868,
      "议事规则": 7869,
      "）（": 7870,
      "，”": 7871,
      "工作方案": 7872,
      "区域和": 7873,
      "马来西亚": 7874,
      "取决于": 7875,
      "79": 7876,
      "Al": 7877,
      "一届会议": 7878,
      "中所": 7879,
      "妨碍": 7880,
      "学家": 7881,
      "律宾": 7882,
      "终止": 7883,
      "翻译": 7884,
      "菲律宾": 7885,
      "装置": 7886,
      "这两": 7887,
      "影响的": 7888,
      "的工作人员": 7889,
      "暴力行为": 7890,
      "卫生组织": 7891,
      "上升": 7892,
      "免费": 7893,
      "分钟": 7894,
      "去年": 7895,
      "和安全": 7896,
      "希腊": 7897,
      "担心": 7898,
      "教科": 7899,
      "注册": 7900,
      "津贴": 7901,
      "男孩": 7902,
      "的前": 7903,
      "覆盖": 7904,
      "这将": 7905,
      "妇女在": 7906,
      "讨论了": 7907,
      "一切形式": 7908,
      "估计数": 7909,
      "78": 7910,
      "东道": 7911,
      "四个": 7912,
      "国务": 7913,
      "塞拜": 7914,
      "女童": 7915,
      "巨大": 7916,
      "带来的": 7917,
      "庇护": 7918,
      "拟定": 7919,
      "效力": 7920,
      "永远": 7921,
      "涵盖": 7922,
      "男性": 7923,
      "的环境": 7924,
      "的生活": 7925,
      "监管": 7926,
      "董事": 7927,
      "诸如": 7928,
      "过境": 7929,
      "阿塞拜": 7930,
      "事务厅": 7931,
      "非洲联盟": 7932,
      "所作的": 7933,
      "阿塞拜疆": 7934,
      "cl": 7935,
      "产权": 7936,
      "受理": 7937,
      "塞浦": 7938,
      "对象": 7939,
      "摩洛": 7940,
      "显著": 7941,
      "路斯": 7942,
      "释放": 7943,
      "保护和": 7944,
      "发展中国家的": 7945,
      "出版物": 7946,
      "阿尔及": 7947,
      "高级专员办事处": 7948,
      "信息和通信技术": 7949,
      "毒品和犯罪问题办公室": 7950,
      "以英语发言": 7951,
      "塞浦路斯": 7952,
      "”。": 7953,
      "争议": 7954,
      "促使": 7955,
      "很难": 7956,
      "比赛": 7957,
      "流行": 7958,
      "的相关": 7959,
      "的程序": 7960,
      "解放": 7961,
      "该区域": 7962,
      "会议和": 7963,
      "大会第6": 7964,
      "权利国际公约": 7965,
      "作出的": 7966,
      "摩洛哥": 7967,
      "RC": 7968,
      "一系列": 7969,
      "不可能": 7970,
      "丹麦": 7971,
      "五年": 7972,
      "出生": 7973,
      "加上": 7974,
      "向委员会": 7975,
      "大幅": 7976,
      "层面": 7977,
      "战斗": 7978,
      "故事": 7979,
      "期望": 7980,
      "极端": 7981,
      "的关于": 7982,
      "监禁": 7983,
      "职务": 7984,
      "融资": 7985,
      "角色": 7986,
      "适合": 7987,
      "首次": 7988,
      "这一问题": 7989,
      "的一般": 7990,
      "月29日": 7991,
      "程度上": 7992,
      "克罗地亚": 7993,
      "89": 7994,
      "上帝": 7995,
      "和不": 7996,
      "孟加拉": 7997,
      "放弃": 7998,
      "泰国": 7999,
      "认可": 8000,
      "谴责": 8001,
      "贩卖": 8002,
      "还要": 8003,
      "连续": 8004,
      "建议的": 8005,
      "可以在": 8006,
      "月27日": 8007,
      "UN": 8008,
      "三年": 8009,
      "也会": 8010,
      "事故": 8011,
      "信仰": 8012,
      "共有": 8013,
      "加沙": 8014,
      "变成": 8015,
      "并不是": 8016,
      "怎样": 8017,
      "是一": 8018,
      "是因为": 8019,
      "毁灭": 8020,
      "比利": 8021,
      "联网": 8022,
      "让我": 8023,
      "设想": 8024,
      "转型": 8025,
      "1991年": 8026,
      "设立一个": 8027,
      "CE": 8028,
      "并为": 8029,
      "很快": 8030,
      "民国": 8031,
      "电脑": 8032,
      "的妇女": 8033,
      "确立": 8034,
      "突出": 8035,
      "薪金": 8036,
      "赞成": 8037,
      "迄今": 8038,
      "政策的": 8039,
      "的一种": 8040,
      "存在的": 8041,
      "了对": 8042,
      "利比亚": 8043,
      "南南": 8044,
      "可行": 8045,
      "和加勒比": 8046,
      "是对": 8047,
      "最好": 8048,
      "波兰": 8049,
      "澄清": 8050,
      "的责任": 8051,
      "移动": 8052,
      "衡量": 8053,
      "高专": 8054,
      "委员会和": 8055,
      "问题国际": 8056,
      "class": 8057,
      "互动": 8058,
      "军队": 8059,
      "危地": 8060,
      "和环境": 8061,
      "声称": 8062,
      "情形": 8063,
      "想要": 8064,
      "我会": 8065,
      "推迟": 8066,
      "收益": 8067,
      "消耗": 8068,
      "萨尔": 8069,
      "月25日": 8070,
      "先生阁下": 8071,
      "武器和": 8072,
      "解决办法": 8073,
      "严重的": 8074,
      "塞尔维亚": 8075,
      "高专办": 8076,
      "危地马拉": 8077,
      "发射": 8078,
      "发起": 8079,
      "在一个": 8080,
      "多个": 8081,
      "常规": 8082,
      "应付": 8083,
      "很少": 8084,
      "毫无": 8085,
      "滥用": 8086,
      "直到": 8087,
      "第一个": 8088,
      "紧张": 8089,
      "附加": 8090,
      "高的": 8091,
      "联合国各": 8092,
      "大会第5": 8093,
      "月26日": 8094,
      "不得不": 8095,
      "养恤金": 8096,
      "le": 8097,
      "两国": 8098,
      "优势": 8099,
      "在一": 8100,
      "欧元": 8101,
      "法的": 8102,
      "注重": 8103,
      "的条件": 8104,
      "空气": 8105,
      "至于": 8106,
      "长的": 8107,
      "飞行": 8108,
      "制定了": 8109,
      "家庭暴力": 8110,
      "ing": 8111,
      "审计委员会": 8112,
      "的事情": 8113,
      "99": 8114,
      "re": 8115,
      "下文": 8116,
      "人格": 8117,
      "在内": 8118,
      "培养": 8119,
      "开幕": 8120,
      "或有": 8121,
      "文明": 8122,
      "有益": 8123,
      "毛里": 8124,
      "潜力": 8125,
      "的标准": 8126,
      "突尼斯": 8127,
      "所有人": 8128,
      "建立了": 8129,
      "阿拉伯叙利亚": 8130,
      "伊斯兰共和国": 8131,
      "荒漠化": 8132,
      "阿尔及利亚": 8133,
      "ak": 8134,
      "作业": 8135,
      "加工": 8136,
      "基准": 8137,
      "干达": 8138,
      "并对": 8139,
      "民众": 8140,
      "的各": 8141,
      "的关系": 8142,
      "约翰": 8143,
      "要素": 8144,
      "豁免": 8145,
      "遣队": 8146,
      "重返": 8147,
      "情况的": 8148,
      "特别会议": 8149,
      "措施的": 8150,
      "所述期间": 8151,
      "1号决议": 8152,
      "乌干达": 8153,
      "具备": 8154,
      "农民": 8155,
      "几年": 8156,
      "分布": 8157,
      "变革": 8158,
      "在本": 8159,
      "大韩": 8160,
      "宗旨": 8161,
      "最新": 8162,
      "称为": 8163,
      "而不": 8164,
      "被拘留": 8165,
      "设法": 8166,
      "邮件": 8167,
      "马尔": 8168,
      "国际人权": 8169,
      "这些问题": 8170,
      "人权高专办": 8171,
      "基础上": 8172,
      "安全理事会主席": 8173,
      "专门机构": 8174,
      "消费者": 8175,
      "申诉人": 8176,
      "孟加拉国": 8177,
      "丰富": 8178,
      "人人": 8179,
      "命令": 8180,
      "建造": 8181,
      "总理": 8182,
      "恶化": 8183,
      "房间": 8184,
      "敏感": 8185,
      "款项": 8186,
      "的需要": 8187,
      "的内容": 8188,
      "结婚": 8189,
      "绿色": 8190,
      "重复": 8191,
      "特别委员会": 8192,
      "设立了": 8193,
      "自然资源": 8194,
      "捐助者": 8195,
      "死亡率": 8196,
      "下午1": 8197,
      "与此同时": 8198,
      "2个": 8199,
      "不知道": 8200,
      "加坡": 8201,
      "咨委会": 8202,
      "国集团": 8203,
      "在过去": 8204,
      "康复": 8205,
      "我认为": 8206,
      "排除": 8207,
      "时代": 8208,
      "核裁军": 8209,
      "渔业": 8210,
      "的经验": 8211,
      "空缺": 8212,
      "细胞": 8213,
      "融入": 8214,
      "讲话": 8215,
      "这方面的": 8216,
      "：\"": 8217,
      "需要的": 8218,
      "秘书长的报告": 8219,
      "目前正在": 8220,
      "武装部队": 8221,
      "玻利维亚": 8222,
      "阿拉伯叙利亚共和国": 8223,
      "大韩民国": 8224,
      "Ch": 8225,
      "会的": 8226,
      "位于": 8227,
      "其在": 8228,
      "协同": 8229,
      "可在": 8230,
      "名的": 8231,
      "后来": 8232,
      "哈拉": 8233,
      "图书": 8234,
      "奥运": 8235,
      "导言": 8236,
      "有了": 8237,
      "检测": 8238,
      "消息": 8239,
      "空中": 8240,
      "第20": 8241,
      "记者": 8242,
      "询问": 8243,
      "路线": 8244,
      "附近": 8245,
      "音乐": 8246,
      "驱逐": 8247,
      "国际贸易": 8248,
      "没有任何": 8249,
      "得到了": 8250,
      "人道主义援助": 8251,
      "》、《": 8252,
      "行政和预算": 8253,
      "教科文": 8254,
      "85": 8255,
      "ul": 8256,
      "加尔": 8257,
      "卡塔": 8258,
      "口头": 8259,
      "在这些": 8260,
      "安装": 8261,
      "怀疑": 8262,
      "性能": 8263,
      "新加坡": 8264,
      "电信": 8265,
      "的人权": 8266,
      "的风险": 8267,
      "补贴": 8268,
      "言论": 8269,
      "认真": 8270,
      "问题上": 8271,
      "以及其他": 8272,
      "全球化": 8273,
      "程序的": 8274,
      "2号决议": 8275,
      "74": 8276,
      "三届会议": 8277,
      "为其": 8278,
      "传染": 8279,
      "储备": 8280,
      "克服": 8281,
      "厄立": 8282,
      "周期": 8283,
      "和服务": 8284,
      "和政策": 8285,
      "始终": 8286,
      "广播": 8287,
      "征聘": 8288,
      "护理": 8289,
      "掌握": 8290,
      "早期": 8291,
      "正是": 8292,
      "特里亚": 8293,
      "特遣队": 8294,
      "生育": 8295,
      "行预": 8296,
      "赞同": 8297,
      "连接": 8298,
      "金属": 8299,
      "除其他": 8300,
      "问题世界": 8301,
      "人员和": 8302,
      "劳动力": 8303,
      "许可证": 8304,
      "300": 8305,
      "仅仅": 8306,
      "仍在": 8307,
      "完善": 8308,
      "并向": 8309,
      "很好": 8310,
      "拉斯": 8311,
      "教授": 8312,
      "方的": 8313,
      "曾经": 8314,
      "核可": 8315,
      "的义务": 8316,
      "短期": 8317,
      "给我": 8318,
      "英文": 8319,
      "被认为": 8320,
      "见A": 8321,
      "谅解": 8322,
      "雇主": 8323,
      "代表的": 8324,
      "世界上": 8325,
      "开展的": 8326,
      "违反了": 8327,
      "波斯尼亚和黑": 8328,
      "厄立特里亚": 8329,
      "ia": 8330,
      "一天": 8331,
      "与合作": 8332,
      "但在": 8333,
      "员工": 8334,
      "多尔": 8335,
      "好处": 8336,
      "定于": 8337,
      "尽快": 8338,
      "已在": 8339,
      "总数": 8340,
      "斯特": 8341,
      "罗毕": 8342,
      "该项": 8343,
      "都会": 8344,
      "问题特别报告员": 8345,
      "社会和文化": 8346,
      "经济增长": 8347,
      "管理的": 8348,
      "重要作用": 8349,
      "部门的": 8350,
      "它们的": 8351,
      "现有的": 8352,
      "修正案": 8353,
      "儿童权利公约": 8354,
      "会计准则": 8355,
      "拉丁美洲和加勒比": 8356,
      "76": 8357,
      "88": 8358,
      "九届会议": 8359,
      "任意": 8360,
      "名字": 8361,
      "否则": 8362,
      "和相关": 8363,
      "大大": 8364,
      "对待": 8365,
      "就像": 8366,
      "成绩": 8367,
      "斯达": 8368,
      "有机": 8369,
      "植物": 8370,
      "的费用": 8371,
      "绩效": 8372,
      "委员会成员": 8373,
      "规定了": 8374,
      "科学和技术": 8375,
      "7月1日至": 8376,
      "定期报告": 8377,
      "少数民族": 8378,
      "行预咨委会": 8379,
      "波斯尼亚和黑塞哥维那": 8380,
      "DP": 8381,
      "他是": 8382,
      "例子": 8383,
      "前南斯拉夫": 8384,
      "听取": 8385,
      "周年": 8386,
      "和方案": 8387,
      "在纽约": 8388,
      "应急": 8389,
      "拨款": 8390,
      "日常": 8391,
      "有害": 8392,
      "有着": 8393,
      "条和": 8394,
      "某种": 8395,
      "的认识": 8396,
      "看来": 8397,
      "证实": 8398,
      "说的": 8399,
      "的人数": 8400,
      "作出了": 8401,
      "了一份": 8402,
      "伊朗伊斯兰共和国": 8403,
      "行政和预算问题": 8404,
      "Cor": 8405,
      "de": 8406,
      "亚美": 8407,
      "保存": 8408,
      "前往": 8409,
      "名额": 8410,
      "学术": 8411,
      "小岛屿": 8412,
      "工会": 8413,
      "民事": 8414,
      "游戏": 8415,
      "特征": 8416,
      "的战略": 8417,
      "的需求": 8418,
      "约旦": 8419,
      "被视为": 8420,
      "运行": 8421,
      "这两个": 8422,
      "销毁": 8423,
      "我们认为": 8424,
      "阿拉伯国家": 8425,
      "百分比": 8426,
      "预防犯罪和": 8427,
      "东道国": 8428,
      "亚美尼亚": 8429,
      "丈夫": 8430,
      "副秘书长": 8431,
      "厄瓜": 8432,
      "员和": 8433,
      "哥拉": 8434,
      "哥斯达": 8435,
      "囚犯": 8436,
      "处境": 8437,
      "广告": 8438,
      "意愿": 8439,
      "我是": 8440,
      "提醒": 8441,
      "极为": 8442,
      "气体": 8443,
      "海关": 8444,
      "爱的": 8445,
      "的有效": 8446,
      "药品": 8447,
      "还在": 8448,
      "还将": 8449,
      "部的": 8450,
      "限于": 8451,
      "随时": 8452,
      "黎加": 8453,
      "关于在": 8454,
      "和平进程": 8455,
      "生物多样性": 8456,
      "的可能性": 8457,
      "一体化": 8458,
      "比利时": 8459,
      "厄瓜多尔": 8460,
      "哥斯达黎加": 8461,
      "72": 8462,
      "一道": 8463,
      "之日": 8464,
      "各区域": 8465,
      "和多": 8466,
      "和实施": 8467,
      "安哥拉": 8468,
      "引渡": 8469,
      "指数": 8470,
      "摊款": 8471,
      "更好的": 8472,
      "核定": 8473,
      "汇编": 8474,
      "瑞拉": 8475,
      "用品": 8476,
      "遣返": 8477,
      "量的": 8478,
      "阻止": 8479,
      "非洲国家": 8480,
      "知识产权": 8481,
      "采取的措施": 8482,
      "供应商": 8483,
      "和保护人权": 8484,
      "萨尔瓦": 8485,
      "教科文组织": 8486,
      "3个": 8487,
      "主张": 8488,
      "内瑞拉": 8489,
      "军备": 8490,
      "发基金": 8491,
      "多年": 8492,
      "大陆": 8493,
      "委内瑞拉": 8494,
      "并确保": 8495,
      "想法": 8496,
      "条的": 8497,
      "眼睛": 8498,
      "设置": 8499,
      "调解": 8500,
      "一个人": 8501,
      "我们必须": 8502,
      "1996": 8503,
      "咨询意见": 8504,
      "不扩散条约": 8505,
      "82": 8506,
      "Sh": 8507,
      "两名": 8508,
      "人居": 8509,
      "低于": 8510,
      "发放": 8511,
      "地震": 8512,
      "妻子": 8513,
      "并未": 8514,
      "弱势": 8515,
      "所谓": 8516,
      "撒冷": 8517,
      "权和": 8518,
      "沙特": 8519,
      "病毒": 8520,
      "的审议": 8521,
      "的文件": 8522,
      "相反": 8523,
      "经理": 8524,
      "补偿": 8525,
      "规约": 8526,
      "证券": 8527,
      "陈述": 8528,
      "管理局": 8529,
      "的人口": 8530,
      "观察团": 8531,
      "经常预算": 8532,
      "下午3": 8533,
      "足够的": 8534,
      "83": 8535,
      "IN": 8536,
      "In": 8537,
      "ht": 8538,
      "”，": 8539,
      "交付": 8540,
      "人为": 8541,
      "六届会议": 8542,
      "兰卡": 8543,
      "削减": 8544,
      "动力": 8545,
      "受伤": 8546,
      "名称": 8547,
      "安置": 8548,
      "小型": 8549,
      "所得": 8550,
      "描述": 8551,
      "斯里": 8552,
      "是什么": 8553,
      "比如": 8554,
      "看见": 8555,
      "秩序": 8556,
      "耶路": 8557,
      "该报告": 8558,
      "逐渐": 8559,
      "表示关切": 8560,
      "在这里": 8561,
      "所需经费": 8562,
      "海洋法": 8563,
      "非正式协商": 8564,
      "阿尔巴": 8565,
      "耶路撒冷": 8566,
      "tr": 8567,
      "上海": 8568,
      "中华": 8569,
      "也在": 8570,
      "互联网": 8571,
      "内加尔": 8572,
      "周围": 8573,
      "四届会议": 8574,
      "塞内加尔": 8575,
      "或是": 8576,
      "方便": 8577,
      "机场": 8578,
      "杀伤": 8579,
      "条规定": 8580,
      "的理由": 8581,
      "目录": 8582,
      "经委会": 8583,
      "该项目": 8584,
      "面积": 8585,
      "国际人道主义法": 8586,
      "社会发展": 8587,
      "这些国家": 8588,
      "信息技术": 8589,
      "第三次": 8590,
      "星期五": 8591,
      "七届会议": 8592,
      "了一些": 8593,
      "出于": 8594,
      "十二": 8595,
      "和A": 8596,
      "商定的": 8597,
      "备选": 8598,
      "期待": 8599,
      "未来的": 8600,
      "的调查": 8601,
      "的办法": 8602,
      "的那样": 8603,
      "移交": 8604,
      "等待": 8605,
      "粮农": 8606,
      "继承": 8607,
      "转变": 8608,
      "运用": 8609,
      "隔离": 8610,
      "联合国的": 8611,
      "以及对": 8612,
      "重要的是": 8613,
      "号决议所": 8614,
      "人民的": 8615,
      "美国的": 8616,
      "发言者": 8617,
      "真正的": 8618,
      "萨尔瓦多": 8619,
      "斯里兰卡": 8620,
      "阿尔巴尼亚": 8621,
      "71": 8622,
      "86": 8623,
      "个别": 8624,
      "也可以": 8625,
      "内陆": 8626,
      "反腐败": 8627,
      "声音": 8628,
      "宏观": 8629,
      "并通过": 8630,
      "并鼓励": 8631,
      "惯例": 8632,
      "改为": 8633,
      "文本": 8634,
      "正义": 8635,
      "汇率": 8636,
      "海上": 8637,
      "灭绝": 8638,
      "生存": 8639,
      "的会议": 8640,
      "着手": 8641,
      "股票": 8642,
      "让你": 8643,
      "越南": 8644,
      "边境": 8645,
      "这就是": 8646,
      "阅读": 8647,
      "促进发展": 8648,
      "主要是": 8649,
      "预防和": 8650,
      "所需的": 8651,
      "罗马尼亚": 8652,
      "重返社会": 8653,
      "图书馆": 8654,
      "Rev": 8655,
      "av": 8656,
      "了关于": 8657,
      "你可以": 8658,
      "加纳": 8659,
      "加速": 8660,
      "各类": 8661,
      "听到": 8662,
      "和使用": 8663,
      "哈萨": 8664,
      "备忘": 8665,
      "女人": 8666,
      "性暴力": 8667,
      "捷克": 8668,
      "明白": 8669,
      "最大的": 8670,
      "某一": 8671,
      "痛苦": 8672,
      "的区域": 8673,
      "的计划": 8674,
      "的培训": 8675,
      "的原因": 8676,
      "种植": 8677,
      "突然": 8678,
      "结盟": 8679,
      "节目": 8680,
      "其他国家": 8681,
      "经济体": 8682,
      "大会第六十": 8683,
      "备忘录": 8684,
      "主办": 8685,
      "也有": 8686,
      "八届会议": 8687,
      "出去": 8688,
      "分之一": 8689,
      "区别": 8690,
      "可是": 8691,
      "合适": 8692,
      "和在": 8693,
      "商务": 8694,
      "固定": 8695,
      "埔寨": 8696,
      "工艺": 8697,
      "巴黎": 8698,
      "我就": 8699,
      "提升": 8700,
      "文章": 8701,
      "晚上": 8702,
      "柬埔寨": 8703,
      "照片": 8704,
      "的使用": 8705,
      "的个人": 8706,
      "简要": 8707,
      "纲要": 8708,
      "缺陷": 8709,
      "网上": 8710,
      "裁定": 8711,
      "证人": 8712,
      "这位": 8713,
      "退休": 8714,
      "驻地": 8715,
      "报告说": 8716,
      "可能是": 8717,
      "投资者": 8718,
      "积极参与": 8719,
      "财务报表": 8720,
      "委员会建议缔约国": 8721,
      "产出": 8722,
      "以此": 8723,
      "何种": 8724,
      "信贷": 8725,
      "公路": 8726,
      "初级": 8727,
      "尊严": 8728,
      "尼加拉": 8729,
      "撒哈拉": 8730,
      "条第2款": 8731,
      "来看": 8732,
      "照顾": 8733,
      "现状": 8734,
      "界定": 8735,
      "百万": 8736,
      "的管理": 8737,
      "破产": 8738,
      "绝对": 8739,
      "近东": 8740,
      "金额": 8741,
      "提供支助": 8742,
      "1997": 8743,
      "他们在": 8744,
      "区域和国际": 8745,
      "环境规划署": 8746,
      "一些国家": 8747,
      "取得进展": 8748,
      "民主主义": 8749,
      "art": 8750,
      "所需资源": 8751,
      "专门知识": 8752,
      "新闻部": 8753,
      "回顾其": 8754,
      "少数群体": 8755,
      "最佳做法": 8756,
      "尼加拉瓜": 8757,
      "),": 8758,
      "ob": 8759,
      "你是": 8760,
      "债权": 8761,
      "内罗毕": 8762,
      "出售": 8763,
      "力和": 8764,
      "动机": 8765,
      "卖淫": 8766,
      "和协调": 8767,
      "士兵": 8768,
      "审评": 8769,
      "得出": 8770,
      "怀孕": 8771,
      "总值": 8772,
      "拖延": 8773,
      "时的": 8774,
      "氧化": 8775,
      "理想": 8776,
      "考试": 8777,
      "补助": 8778,
      "边缘": 8779,
      "提供援助": 8780,
      "法律和": 8781,
      "信息系统": 8782,
      "目前的": 8783,
      "确定的": 8784,
      "生活在": 8785,
      "裁军谈判": 8786,
      "外交部长": 8787,
      "南南合作": 8788,
      "95": 8789,
      "ig": 8790,
      "不管": 8791,
      "不良": 8792,
      "五届会议": 8793,
      "作品": 8794,
      "你能": 8795,
      "先前": 8796,
      "国和": 8797,
      "在这个": 8798,
      "失败": 8799,
      "子的": 8800,
      "成效": 8801,
      "标志": 8802,
      "概算": 8803,
      "测量": 8804,
      "海外": 8805,
      "用水": 8806,
      "给你": 8807,
      "缺少": 8808,
      "被占": 8809,
      "问题和": 8810,
      "人权利": 8811,
      "开展工作": 8812,
      "专家小组": 8813,
      "了一种": 8814,
      "缔约方大会": 8815,
      "履行其": 8816,
      "受害人": 8817,
      "一直在": 8818,
      "81": 8819,
      "中间": 8820,
      "住区": 8821,
      "关心": 8822,
      "列的": 8823,
      "别人": 8824,
      "取代": 8825,
      "在本报告": 8826,
      "婴儿": 8827,
      "它还": 8828,
      "巨大的": 8829,
      "库存": 8830,
      "性武器": 8831,
      "暂停": 8832,
      "档案": 8833,
      "秘密": 8834,
      "纳米": 8835,
      "组合": 8836,
      "获悉": 8837,
      "辱人格": 8838,
      "都不": 8839,
      "区域的": 8840,
      "儿童和": 8841,
      "提高妇女地位": 8842,
      "工作人员的": 8843,
      "发生了": 8844,
      "了一次": 8845,
      "关切的是": 8846,
      "禁止酷刑": 8847,
      "年度报告": 8848,
      "反映了": 8849,
      "官方发展援助": 8850,
      "附属机构": 8851,
      "预防犯罪和刑事司法": 8852,
      "哈萨克斯坦": 8853,
      "212": 8854,
      "一部分": 8855,
      "事先": 8856,
      "二届会议": 8857,
      "以促进": 8858,
      "元首": 8859,
      "召集": 8860,
      "在全球": 8861,
      "大不": 8862,
      "展示": 8863,
      "工厂": 8864,
      "已有": 8865,
      "意外": 8866,
      "承包": 8867,
      "持有": 8868,
      "是指": 8869,
      "是为了": 8870,
      "最初": 8871,
      "物资": 8872,
      "的必要": 8873,
      "的核心": 8874,
      "被迫": 8875,
      "规章": 8876,
      "识别": 8877,
      "赞比亚": 8878,
      "这份": 8879,
      "配置": 8880,
      "间接": 8881,
      "％。": 8882,
      "期间的": 8883,
      "贸易和发展": 8884,
      "歧视公约": 8885,
      "设立的": 8886,
      "科学家": 8887,
      "ation": 8888,
      "成年人": 8889,
      "志愿人员": 8890,
      "除其他外": 8891,
      "84": 8892,
      "92": 8893,
      "ag": 8894,
      "两种": 8895,
      "伦敦": 8896,
      "做了": 8897,
      "做到": 8898,
      "充足": 8899,
      "共享": 8900,
      "和华": 8901,
      "和对": 8902,
      "和有关": 8903,
      "回到": 8904,
      "强奸": 8905,
      "愿望": 8906,
      "推行": 8907,
      "是根据": 8908,
      "更有": 8909,
      "沿海": 8910,
      "灾难": 8911,
      "独特": 8912,
      "的那": 8913,
      "的世界": 8914,
      "米尼": 8915,
      "良好的": 8916,
      "警告": 8917,
      "配合": 8918,
      "高于": 8919,
      "国际和平与安全": 8920,
      "105": 8921,
      "实现千年发展目标": 8922,
      "第3款": 8923,
      "专业人员": 8924,
      "联合国系统各": 8925,
      "在国家一级": 8926,
      "斯洛文": 8927,
      "国务院": 8928,
      "卡塔尔": 8929,
      "Corr": 8930,
      "粮农组织": 8931,
      "96": 8932,
      "ter": 8933,
      "下去": 8934,
      "仇外": 8935,
      "件事": 8936,
      "你会": 8937,
      "例外": 8938,
      "兄弟": 8939,
      "名义": 8940,
      "在不": 8941,
      "在对": 8942,
      "岁的": 8943,
      "干旱": 8944,
      "幸福": 8945,
      "每月": 8946,
      "法定": 8947,
      "的目的": 8948,
      "策略": 8949,
      "见的": 8950,
      "质疑": 8951,
      "方面发挥": 8952,
      "经济发展": 8953,
      "目标是": 8954,
      "任何人": 8955,
      "开展了": 8956,
      "基本自由": 8957,
      "孩子们": 8958,
      "密切合作": 8959,
      "药物管制": 8960,
      "意识到": 8961,
      "朝鲜民主主义": 8962,
      "问责制": 8963,
      "发了言": 8964,
      "斯洛文尼亚": 8965,
      "朝鲜民主主义人民共和国": 8966,
      "ub": 8967,
      "了其": 8968,
      "依靠": 8969,
      "共体": 8970,
      "印发": 8971,
      "参数": 8972,
      "发电": 8973,
      "和行政": 8974,
      "在同": 8975,
      "坦桑": 8976,
      "境内的": 8977,
      "大力": 8978,
      "如今": 8979,
      "导弹": 8980,
      "布尔": 8981,
      "探索": 8982,
      "提名": 8983,
      "支援": 8984,
      "是最": 8985,
      "是的": 8986,
      "有义务": 8987,
      "残忍": 8988,
      "永久": 8989,
      "汇报": 8990,
      "没收": 8991,
      "男人": 8992,
      "的案件": 8993,
      "蒙古": 8994,
      "衣服": 8995,
      "都能": 8996,
      "阐述": 8997,
      "委员会对": 8998,
      "委员会认为": 8999,
      "合作伙伴": 9000,
      "技术的": 9001,
      "决定草案": 9002,
      "研究和": 9003,
      "中国的": 9004,
      "第二个": 9005,
      "中心的": 9006,
      "制度的": 9007,
      "特派团的": 9008,
      "地位的": 9009,
      "提案国": 9010,
      "坦桑尼亚": 9011,
      "97": 9012,
      "th": 9013,
      "上了": 9014,
      "上去": 9015,
      "促成": 9016,
      "列颠": 9017,
      "加利亚": 9018,
      "匈牙": 9019,
      "博士": 9020,
      "和支持": 9021,
      "在世界": 9022,
      "委托": 9023,
      "席位": 9024,
      "德里": 9025,
      "必需": 9026,
      "或许": 9027,
      "扩展": 9028,
      "格式": 9029,
      "每个人": 9030,
      "比率": 9031,
      "繁荣": 9032,
      "罗姆": 9033,
      "自决": 9034,
      "该组织": 9035,
      "身上": 9036,
      "遵循": 9037,
      "首席": 9038,
      "必须在": 9039,
      "基金的": 9040,
      "作为一个": 9041,
      "强调了": 9042,
      "协商一致": 9043,
      "发达国家的": 9044,
      "重点是": 9045,
      "董事会": 9046,
      "匈牙利": 9047,
      "of": 9048,
      "ro": 9049,
      "之处": 9050,
      "京都": 9051,
      "单一": 9052,
      "告知": 9053,
      "坚定": 9054,
      "天气": 9055,
      "循环": 9056,
      "性剥削": 9057,
      "接近": 9058,
      "本地": 9059,
      "机械": 9060,
      "每一个": 9061,
      "法语": 9062,
      "的服务": 9063,
      "的共同": 9064,
      "的结论": 9065,
      "警方": 9066,
      "订立": 9067,
      "都在": 9068,
      "限成员": 9069,
      "麻醉": 9070,
      "社会保障": 9071,
      "1994": 9072,
      "重要性": 9073,
      "许多国家": 9074,
      "组成的": 9075,
      "殖民化": 9076,
      "遗憾的是": 9077,
      "一套": 9078,
      "不论": 9079,
      "不人道": 9080,
      "他还": 9081,
      "伐克": 9082,
      "分散": 9083,
      "删除": 9084,
      "前景": 9085,
      "北爱尔兰": 9086,
      "在与": 9087,
      "在执行": 9088,
      "地域": 9089,
      "基督": 9090,
      "多米尼": 9091,
      "夫人": 9092,
      "将是": 9093,
      "岁以下": 9094,
      "把它": 9095,
      "有机会": 9096,
      "概述": 9097,
      "次报告": 9098,
      "的可": 9099,
      "真相": 9100,
      "老师": 9101,
      "耶和华": 9102,
      "负债": 9103,
      "财富": 9104,
      "进度": 9105,
      "150": 9106,
      "这种情况": 9107,
      "市场的": 9108,
      "独立专家": 9109,
      "另一方面": 9110,
      "斯洛伐克": 9111,
      "小岛屿发展中国家": 9112,
      "120": 9113,
      "93": 9114,
      "一家": 9115,
      "于是": 9116,
      "保加利亚": 9117,
      "创建": 9118,
      "加剧": 9119,
      "及太平洋": 9120,
      "回来": 9121,
      "基因": 9122,
      "她说": 9123,
      "小学": 9124,
      "文职": 9125,
      "有什么": 9126,
      "法委员会": 9127,
      "牙买": 9128,
      "的水": 9129,
      "的成员": 9130,
      "的条款": 9131,
      "的待遇": 9132,
      "纪律": 9133,
      "绑架": 9134,
      "膨胀": 9135,
      "视察": 9136,
      "邻国": 9137,
      "冲突后": 9138,
      "提出的建议": 9139,
      "实验室": 9140,
      "捷克共和国": 9141,
      "限成员名额": 9142,
      "1名": 9143,
      "SR": 9144,
      "下一": 9145,
      "乌拉圭": 9146,
      "你要": 9147,
      "再生": 9148,
      "各代表团": 9149,
      "妈妈": 9150,
      "定为": 9151,
      "差别": 9152,
      "常会": 9153,
      "废除": 9154,
      "开办": 9155,
      "强化": 9156,
      "当中": 9157,
      "房屋": 9158,
      "某个": 9159,
      "格林": 9160,
      "此项": 9161,
      "电力": 9162,
      "的讨论": 9163,
      "的决议草案": 9164,
      "维修": 9165,
      "迫切": 9166,
      "道主义": 9167,
      "部和": 9168,
      "限度": 9169,
      "领空": 9170,
      "麦隆": 9171,
      "我们将": 9172,
      "决定将": 9173,
      "提出报告": 9174,
      "缔约国在": 9175,
      "发言人": 9176,
      "巴勒斯坦人民": 9177,
      "统计数据": 9178,
      "宣言和": 9179,
      "生殖健康": 9180,
      "亚太经社会": 9181,
      "上午10时": 9182,
      "牙买加": 9183,
      "98": 9184,
      "oh": 9185,
      "um": 9186,
      "企图": 9187,
      "判断": 9188,
      "十字": 9189,
      "各位": 9190,
      "喀麦隆": 9191,
      "国外": 9192,
      "在这种": 9193,
      "坐在": 9194,
      "宝贵": 9195,
      "尔多": 9196,
      "就可以": 9197,
      "层次": 9198,
      "您的": 9199,
      "据称": 9200,
      "放射": 9201,
      "有能力": 9202,
      "条的规定": 9203,
      "法索": 9204,
      "洗钱": 9205,
      "渠道": 9206,
      "生的": 9207,
      "签订": 9208,
      "色的": 9209,
      "设在": 9210,
      "轻武器": 9211,
      "辩护": 9212,
      "近年来": 9213,
      "实施的": 9214,
      "行政当局": 9215,
      "条约机构": 9216,
      "增长率": 9217,
      "监督厅": 9218,
      "自然灾害": 9219,
      "普遍定期": 9220,
      "亚洲及太平洋": 9221,
      "政府间组织": 9222,
      "筹备委员会": 9223,
      "示范法": 9224,
      "公共部门会计准则": 9225,
      "5个": 9226,
      "不妨": 9227,
      "与国际": 9228,
      "临床": 9229,
      "为期": 9230,
      "入学": 9231,
      "分歧": 9232,
      "和人权": 9233,
      "太阳": 9234,
      "学会": 9235,
      "尽量": 9236,
      "巴拉圭": 9237,
      "布基": 9238,
      "投诉": 9239,
      "案例": 9240,
      "沟通": 9241,
      "由此": 9242,
      "的全球": 9243,
      "的贡献": 9244,
      "的定义": 9245,
      "罪犯": 9246,
      "表面": 9247,
      "运送": 9248,
      "里斯": 9249,
      "联合国人权事务": 9250,
      "我们还": 9251,
      "我们可以": 9252,
      "提供资金": 9253,
      "经济和": 9254,
      "可能的": 9255,
      "影响到": 9256,
      "成员的": 9257,
      "教育的": 9258,
      "的人道主义": 9259,
      "这是一个": 9260,
      "出现的": 9261,
      "大规模毁灭": 9262,
      "沙特阿拉伯": 9263,
      "主导": 9264,
      "优化": 9265,
      "侧重": 9266,
      "信号": 9267,
      "分离": 9268,
      "制品": 9269,
      "南亚": 9270,
      "客观": 9271,
      "封锁": 9272,
      "就要": 9273,
      "当你": 9274,
      "彼此": 9275,
      "感兴趣": 9276,
      "物体": 9277,
      "的马": 9278,
      "的挑战": 9279,
      "的危险": 9280,
      "纳法索": 9281,
      "细节": 9282,
      "终了": 9283,
      "薪酬": 9284,
      "谢谢": 9285,
      "还没有": 9286,
      "马耳": 9287,
      "骚扰": 9288,
      "工作中": 9289,
      "方面所": 9290,
      "项目厅": 9291,
      "方面的作用": 9292,
      "进程的": 9293,
      "仍然是": 9294,
      "告诉我": 9295,
      "生态系统": 9296,
      "或有辱人格": 9297,
      "行政和预算问题咨询委员会": 9298,
      "ES": 9299,
      "乍得": 9300,
      "以为": 9301,
      "净额": 9302,
      "利润": 9303,
      "刺激": 9304,
      "另有": 9305,
      "后者": 9306,
      "和地方": 9307,
      "图像": 9308,
      "在所有": 9309,
      "地带": 9310,
      "大型": 9311,
      "家人": 9312,
      "就在": 9313,
      "并请": 9314,
      "性意见": 9315,
      "我知道": 9316,
      "接收": 9317,
      "政权": 9318,
      "更大": 9319,
      "的高": 9320,
      "示威": 9321,
      "税收": 9322,
      "维尔": 9323,
      "缔结": 9324,
      "能否": 9325,
      "自从": 9326,
      "自行": 9327,
      "融合": 9328,
      "被占领": 9329,
      "违背": 9330,
      "面向": 9331,
      "项下": 9332,
      "首要": 9333,
      "工作地点": 9334,
      "号决议中": 9335,
      "审议大会": 9336,
      "第23": 9337,
      "法院的": 9338,
      "产生了": 9339,
      "人类住区": 9340,
      "登记册": 9341,
      "布基纳法索": 9342,
      "400": 9343,
      "94": 9344,
      "Ab": 9345,
      "ut": 9346,
      "乌兹": 9347,
      "了在": 9348,
      "从来": 9349,
      "分庭": 9350,
      "吸收": 9351,
      "国会": 9352,
      "地的": 9353,
      "好了": 9354,
      "并使": 9355,
      "形势": 9356,
      "思考": 9357,
      "房子": 9358,
      "批评": 9359,
      "更大的": 9360,
      "模拟": 9361,
      "的确": 9362,
      "的成果": 9363,
      "简化": 9364,
      "级别": 9365,
      "至今": 9366,
      "西藏": 9367,
      "该方案": 9368,
      "该决议": 9369,
      "贝尔": 9370,
      "转交": 9371,
      "那时": 9372,
      "工作计划": 9373,
      "问题工作组": 9374,
      "咨询服务": 9375,
      "造成了": 9376,
      "金融机构": 9377,
      "稳定团": 9378,
      "就业机会": 9379,
      "采取的行动": 9380,
      "相当于": 9381,
      "大不列颠": 9382,
      "St": 9383,
      "……": 9384,
      "万人": 9385,
      "克斯": 9386,
      "全系统": 9387,
      "其实": 9388,
      "升级": 9389,
      "吉尔": 9390,
      "和法律": 9391,
      "四年": 9392,
      "回收": 9393,
      "多次": 9394,
      "将来": 9395,
      "尔德": 9396,
      "巡逻": 9397,
      "当选": 9398,
      "患者": 9399,
      "抗议": 9400,
      "指称": 9401,
      "排雷": 9402,
      "有责任": 9403,
      "权威": 9404,
      "条草案": 9405,
      "每次": 9406,
      "的缔约国": 9407,
      "的价值": 9408,
      "行星": 9409,
      "西方": 9410,
      "钻石": 9411,
      "铁路": 9412,
      "铭记": 9413,
      "顺利": 9414,
      "国家一级": 9415,
      "联合国在": 9416,
      "我们对": 9417,
      "109": 9418,
      "经济的": 9419,
      "世界贸易": 9420,
      "要求的": 9421,
      "0年代": 9422,
      "消除贫穷": 9423,
      "星期三": 9424,
      "的最新": 9425,
      "1988年": 9426,
      "收到的": 9427,
      "1月1日": 9428,
      "背景下": 9429,
      "人力资源管理": 9430,
      "京都议定书": 9431,
      "马耳他": 9432,
      "乌兹别": 9433,
      "从未": 9434,
      "会有": 9435,
      "余额": 9436,
      "信通": 9437,
      "假设": 9438,
      "关押": 9439,
      "关闭": 9440,
      "其顿": 9441,
      "加斯": 9442,
      "单方面": 9443,
      "变动": 9444,
      "和有": 9445,
      "和促进": 9446,
      "在中国": 9447,
      "地图": 9448,
      "女儿": 9449,
      "季度": 9450,
      "小武器和": 9451,
      "应由": 9452,
      "得不到": 9453,
      "忽视": 9454,
      "所提供的": 9455,
      "担忧": 9456,
      "无害": 9457,
      "普查": 9458,
      "暂时": 9459,
      "根源": 9460,
      "海盗": 9461,
      "申明": 9462,
      "的东西": 9463,
      "简报": 9464,
      "让我们": 9465,
      "该决议草案": 9466,
      "距离": 9467,
      "近期": 9468,
      "违法": 9469,
      "选民": 9470,
      "雇用": 9471,
      "领袖": 9472,
      "国家人权": 9473,
      "委员会的工作": 9474,
      "因为它": 9475,
      "战略计划": 9476,
      "获得通过": 9477,
      "培训和": 9478,
      "生产总值": 9479,
      "直接投资": 9480,
      "星期一": 9481,
      "公民权利和": 9482,
      "贩运人口": 9483,
      "有限公司": 9484,
      "货币基金": 9485,
      "男女平等": 9486,
      "中非共和国": 9487,
      "社会和文化权利": 9488,
      "号决议所设": 9489,
      "大规模毁灭性武器": 9490,
      "Mar": 9491,
      "ST": 9492,
      "WG": 9493,
      "ie": 9494,
      "不限成员名额": 9495,
      "两项": 9496,
      "产妇": 9497,
      "以加强": 9498,
      "使他们": 9499,
      "侵略": 9500,
      "保安": 9501,
      "停火": 9502,
      "偿还": 9503,
      "充满": 9504,
      "入境": 9505,
      "医学": 9506,
      "印刷": 9507,
      "参照": 9508,
      "口译": 9509,
      "四条": 9510,
      "在他": 9511,
      "均衡": 9512,
      "填补": 9513,
      "多哈": 9514,
      "小的": 9515,
      "情绪": 9516,
      "所属": 9517,
      "手术": 9518,
      "摆脱": 9519,
      "机器": 9520,
      "权限": 9521,
      "格兰": 9522,
      "津巴布": 9523,
      "照料": 9524,
      "的人员": 9525,
      "的范围": 9526,
      "的概念": 9527,
      "短缺": 9528,
      "禁毒": 9529,
      "穆斯": 9530,
      "而在": 9531,
      "记得": 9532,
      "较低": 9533,
      "追求": 9534,
      "追究": 9535,
      "高效": 9536,
      "工作者": 9537,
      "1995": 9538,
      "所有这些": 9539,
      "合作的": 9540,
      "审查和": 9541,
      "中国政府": 9542,
      "预算外": 9543,
      "第21": 9544,
      "第24": 9545,
      "确定了": 9546,
      "第57": 9547,
      "分析和": 9548,
      "第五委员会": 9549,
      "出现了": 9550,
      "构成部分": 9551,
      "ish": 9552,
      "年轻人": 9553,
      "一般事务人员": 9554,
      "裁军谈判会议": 9555,
      "普遍定期审议": 9556,
      "小武器和轻武器": 9557,
      "津巴布韦": 9558,
      "DA": 9559,
      "XV": 9560,
      "世贸": 9561,
      "丧失": 9562,
      "全权": 9563,
      "动态": 9564,
      "及文化": 9565,
      "在日内瓦": 9566,
      "帐户": 9567,
      "总结": 9568,
      "截止": 9569,
      "报酬": 9570,
      "收到了": 9571,
      "新伙伴关系": 9572,
      "时限": 9573,
      "普及": 9574,
      "来到": 9575,
      "查阅": 9576,
      "武力": 9577,
      "比克": 9578,
      "求斯": 9579,
      "的数额": 9580,
      "真实": 9581,
      "神经": 9582,
      "船舶": 9583,
      "被捕": 9584,
      "遗产": 9585,
      "阐明": 9586,
      "国家工作队": 9587,
      "非洲发展": 9588,
      "许多人": 9589,
      "生产和": 9590,
      "健康和": 9591,
      "业务活动": 9592,
      "星期四": 9593,
      "最近的": 9594,
      "农村地区": 9595,
      "消除对妇女一切形式": 9596,
      "毛里求斯": 9597,
      "中华人民共和国": 9598,
      "大不列颠及": 9599,
      "公民权利和政治": 9600,
      "》；": 9601,
      "上空": 9602,
      "不久": 9603,
      "不结盟": 9604,
      "习俗": 9605,
      "会谈": 9606,
      "先进": 9607,
      "内政": 9608,
      "加大": 9609,
      "区的": 9610,
      "南方": 9611,
      "反恐怖主义": 9612,
      "和谐": 9613,
      "和Add": 9614,
      "地址": 9615,
      "坚决": 9616,
      "尝试": 9617,
      "左右": 9618,
      "巴马": 9619,
      "开会": 9620,
      "打开": 9621,
      "披露": 9622,
      "杀害": 9623,
      "极其": 9624,
      "的谈判": 9625,
      "看看": 9626,
      "知情": 9627,
      "种种": 9628,
      "编列": 9629,
      "色情": 9630,
      "行事": 9631,
      "议院": 9632,
      "诊断": 9633,
      "起了": 9634,
      "轨道": 9635,
      "转递": 9636,
      "饥饿": 9637,
      "发展筹资": 9638,
      "人员地雷": 9639,
      "能力和": 9640,
      "缔约国应": 9641,
      "开展合作": 9642,
      "提高认识": 9643,
      "必要时": 9644,
      "成为一个": 9645,
      "第48": 9646,
      "第四次": 9647,
      "打击恐怖主义": 9648,
      "星期二": 9649,
      "捐助方": 9650,
      "我国代表团": 9651,
      "当事人": 9652,
      "主席团成员": 9653,
      "暴力侵害妇女": 9654,
      "常驻联合国代表": 9655,
      "之日起": 9656,
      "杀伤人员地雷": 9657,
      "仇外心理": 9658,
      "北爱尔兰联合王国": 9659,
      "乌兹别克斯坦": 9660,
      "穆斯林": 9661,
      "大不列颠及北爱尔兰联合王国": 9662,
      "110": 9663,
      "4个": 9664,
      "600": 9665,
      "IS": 9666,
      "ik": 9667,
      "oc": 9668,
      "op": 9669,
      "st": 9670,
      "不够": 9671,
      "也门": 9672,
      "他人": 9673,
      "任职": 9674,
      "倾向": 9675,
      "分区域": 9676,
      "制约": 9677,
      "可用": 9678,
      "同等": 9679,
      "和程序": 9680,
      "哈马": 9681,
      "家属": 9682,
      "巴林": 9683,
      "年底": 9684,
      "快乐": 9685,
      "总干事": 9686,
      "恰当": 9687,
      "我说": 9688,
      "房地": 9689,
      "承受": 9690,
      "效应": 9691,
      "有点": 9692,
      "本组织的": 9693,
      "段时间": 9694,
      "每日": 9695,
      "毕业": 9696,
      "流程": 9697,
      "现场": 9698,
      "疑问": 9699,
      "疟疾": 9700,
      "的实施": 9701,
      "的实际": 9702,
      "穷人": 9703,
      "童工": 9704,
      "签名": 9705,
      "经社": 9706,
      "缓解": 9707,
      "观测": 9708,
      "我们要": 9709,
      "我们希望": 9710,
      "这些人": 9711,
      "有关国家": 9712,
      "全球环境": 9713,
      "第26": 9714,
      "第58": 9715,
      "非政府组织的": 9716,
      "经费的": 9717,
      "案件的": 9718,
      "外交部": 9719,
      "民间社会组织": 9720,
      "越来越多": 9721,
      "解除武装": 9722,
      "人居署": 9723,
      "被占领土": 9724,
      "再生能源": 9725,
      "2条": 9726,
      "91": 9727,
      "963": 9728,
      "az": 9729,
      "man": 9730,
      "sp": 9731,
      "一只": 9732,
      "上涨": 9733,
      "专利": 9734,
      "个人的": 9735,
      "之二": 9736,
      "以上的": 9737,
      "你知道": 9738,
      "双重": 9739,
      "和信息": 9740,
      "和监测": 9741,
      "因特": 9742,
      "在我们": 9743,
      "天的": 9744,
      "好像": 9745,
      "定罪": 9746,
      "对付": 9747,
      "对外": 9748,
      "对联合国": 9749,
      "对妇女的": 9750,
      "已被": 9751,
      "巴拿": 9752,
      "当代": 9753,
      "或处罚": 9754,
      "敌对": 9755,
      "是以": 9756,
      "有罪": 9757,
      "核试验": 9758,
      "沙尼亚": 9759,
      "爱沙尼亚": 9760,
      "生长": 9761,
      "的组织": 9762,
      "的保护": 9763,
      "补编": 9764,
      "说法": 9765,
      "足球": 9766,
      "还需要": 9767,
      "通货": 9768,
      "酋长": 9769,
      "联合国开发计划署": 9770,
      "进行调查": 9771,
      "包括通过": 9772,
      "采取一切": 9773,
      "继续努力": 9774,
      "援助团": 9775,
      "标准和": 9776,
      "以便在": 9777,
      "发生在": 9778,
      "存在着": 9779,
      "委员会的建议": 9780,
      "刑事诉讼": 9781,
      "指导原则": 9782,
      "尤其是在": 9783,
      "电子邮件": 9784,
      "带来了": 9785,
      "合理的": 9786,
      "人权和基本自由": 9787,
      "监察员": 9788,
      "老年人": 9789,
      "纳米比亚": 9790,
      "不人道或有辱人格": 9791,
      "中学": 9792,
      "为执行": 9793,
      "以使": 9794,
      "份额": 9795,
      "养护": 9796,
      "列出": 9797,
      "利率": 9798,
      "友好": 9799,
      "和分析": 9800,
      "圆桌": 9801,
      "在美国": 9802,
      "堕胎": 9803,
      "塔吉": 9804,
      "增编": 9805,
      "天然": 9806,
      "强有": 9807,
      "很有": 9808,
      "得多": 9809,
      "我现在": 9810,
      "摩尔多": 9811,
      "日子": 9812,
      "本届会议": 9813,
      "正当": 9814,
      "海事": 9815,
      "温度": 9816,
      "的机构": 9817,
      "祝贺": 9818,
      "税务": 9819,
      "经合": 9820,
      "表格": 9821,
      "详情": 9822,
      "辐射": 9823,
      "过来": 9824,
      "遗传": 9825,
      "间的": 9826,
      "领取": 9827,
      "活动和": 9828,
      "妇女署": 9829,
      "项目标": 9830,
      "大会和": 9831,
      "提交了": 9832,
      "标准的": 9833,
      "全面的": 9834,
      "第47": 9835,
      "第十二": 9836,
      "关切地注意到": 9837,
      "经验教训": 9838,
      "信通技术": 9839,
      "其顿共和国": 9840,
      "巴拿马": 9841,
      "摩尔多瓦": 9842,
      "9号决议": 9843,
      "EP": 9844,
      "En": 9845,
      "od": 9846,
      "不需要": 9847,
      "之内": 9848,
      "于2012年": 9849,
      "五个": 9850,
      "五十": 9851,
      "人事": 9852,
      "他对": 9853,
      "公园": 9854,
      "其对": 9855,
      "列为": 9856,
      "到达": 9857,
      "去了": 9858,
      "号法令": 9859,
      "吉斯": 9860,
      "向联合国": 9861,
      "含有": 9862,
      "和与": 9863,
      "国别": 9864,
      "在同一": 9865,
      "守则": 9866,
      "并与": 9867,
      "并促进": 9868,
      "形象": 9869,
      "成了": 9870,
      "我很": 9871,
      "手机": 9872,
      "报纸": 9873,
      "施加": 9874,
      "有待": 9875,
      "机遇": 9876,
      "桑比克": 9877,
      "气象": 9878,
      "温室": 9879,
      "玻璃": 9880,
      "的非": 9881,
      "的全面": 9882,
      "的最后": 9883,
      "相似": 9884,
      "紧迫": 9885,
      "莫桑比克": 9886,
      "走了": 9887,
      "辅助": 9888,
      "这对": 9889,
      "革命": 9890,
      "驾驶": 9891,
      "20年": 9892,
      "国际法院": 9893,
      "社会的": 9894,
      "提出建议": 9895,
      "协调一致": 9896,
      "审查了": 9897,
      "作出贡献": 9898,
      "贸易法委员会": 9899,
      "机制的": 9900,
      "具体的": 9901,
      "1989年": 9902,
      "粮食安全": 9903,
      "III": 9904,
      "派遣国": 9905,
      "在本报告所述期间": 9906,
      "//": 9907,
      "8号决议": 9908,
      "CR": 9909,
      "ep": 9910,
      "不符合": 9911,
      "两次": 9912,
      "为1": 9913,
      "但他": 9914,
      "作物": 9915,
      "关联": 9916,
      "判处": 9917,
      "削弱": 9918,
      "前的": 9919,
      "区分": 9920,
      "卢森": 9921,
      "发行": 9922,
      "可再生能源": 9923,
      "否认": 9924,
      "回家": 9925,
      "在一些": 9926,
      "将对": 9927,
      "届会": 9928,
      "并就": 9929,
      "并应": 9930,
      "我也": 9931,
      "招募": 9932,
      "是我们": 9933,
      "最好的": 9934,
      "梦想": 9935,
      "比绍": 9936,
      "添加": 9937,
      "现已": 9938,
      "生计": 9939,
      "疫苗": 9940,
      "的犯罪": 9941,
      "直升": 9942,
      "离职": 9943,
      "购置": 9944,
      "跟踪": 9945,
      "跨界": 9946,
      "里约": 9947,
      "国家发展": 9948,
      "国际刑事": 9949,
      "101": 9950,
      "环境保护": 9951,
      "加强对": 9952,
      "表示欢迎": 9953,
      "程序和": 9954,
      "作用的": 9955,
      "培训班": 9956,
      "企业的": 9957,
      "250": 9958,
      "的最佳": 9959,
      "的最大": 9960,
      "该国政府": 9961,
      "主管部门": 9962,
      "最高法院": 9963,
      "出席了": 9964,
      "当事方": 9965,
      "跨国有组织犯罪": 9966,
      "消除对妇女一切形式歧视公约": 9967,
      "卢森堡": 9968,
      "6个": 9969,
      "la": 9970,
      "一词": 9971,
      "一贯": 9972,
      "不用": 9973,
      "不起": 9974,
      "不平等": 9975,
      "为实现": 9976,
      "九条": 9977,
      "仔细": 9978,
      "优惠": 9979,
      "信用": 9980,
      "健全": 9981,
      "免疫": 9982,
      "全力": 9983,
      "动员": 9984,
      "和政府": 9985,
      "和Corr": 9986,
      "并将其": 9987,
      "有一些": 9988,
      "权益": 9989,
      "权能": 9990,
      "架构": 9991,
      "毛额": 9992,
      "洪都": 9993,
      "煽动": 9994,
      "物理": 9995,
      "的事实": 9996,
      "看起来": 9997,
      "禁运": 9998,
      "节省": 9999,
      "该部": 10000,
      "说话": 10001,
      "赢得": 10002,
      "过度": 10003,
      "这场": 10004,
      "这就": 10005,
      "那儿": 10006,
      "马克": 10007,
      "提供关于": 10008,
      "提供资料": 10009,
      "需要在": 10010,
      "世界各地": 10011,
      "作出决定": 10012,
      "时间表": 10013,
      "说明了": 10014,
      "减少了": 10015,
      "分析了": 10016,
      "第35": 10017,
      "第61": 10018,
      "000人": 10019,
      "内部监督": 10020,
      "举办了": 10021,
      "外国直接投资": 10022,
      "1967年": 10023,
      "职权范围": 10024,
      "洪都拉斯": 10025,
      "CP": 10026,
      "GC": 10027,
      "下述": 10028,
      "下一个": 10029,
      "中等": 10030,
      "之以": 10031,
      "也就是": 10032,
      "代价": 10033,
      "代夫": 10034,
      "以支持": 10035,
      "众多": 10036,
      "会费": 10037,
      "你在": 10038,
      "信心": 10039,
      "倡导": 10040,
      "公里": 10041,
      "六条": 10042,
      "判例": 10043,
      "前提": 10044,
      "剩余": 10045,
      "处决": 10046,
      "我对": 10047,
      "最多": 10048,
      "检验": 10049,
      "特性": 10050,
      "的教育": 10051,
      "的地区": 10052,
      "的参与": 10053,
      "的家庭": 10054,
      "立陶": 10055,
      "给秘书长": 10056,
      "编辑": 10057,
      "联刚": 10058,
      "航天": 10059,
      "衰退": 10060,
      "要点": 10061,
      "认定": 10062,
      "输入": 10063,
      "阿卜": 10064,
      "雇佣": 10065,
      "预警": 10066,
      "首都": 10067,
      "高质量": 10068,
      "％，": 10069,
      "会议大楼": 10070,
      "提供支持": 10071,
      "决定在": 10072,
      "服务和": 10073,
      "提交给": 10074,
      "建立信任": 10075,
      "文件的": 10076,
      "关系的": 10077,
      "人口的": 10078,
      "了一系列": 10079,
      "接受的": 10080,
      "000名": 10081,
      "之间的关系": 10082,
      "阿拉伯联合": 10083,
      "附件二": 10084,
      "受害者的": 10085,
      "高等教育": 10086,
      "多米尼加": 10087,
      "立陶宛": 10088,
      "6号决议": 10089,
      "上一": 10090,
      "不幸": 10091,
      "主教": 10092,
      "乐观": 10093,
      "仇恨": 10094,
      "伯利": 10095,
      "但我": 10096,
      "但这": 10097,
      "你就": 10098,
      "依法": 10099,
      "公报": 10100,
      "关税": 10101,
      "其余": 10102,
      "台湾": 10103,
      "合格": 10104,
      "同事": 10105,
      "和无": 10106,
      "复苏": 10107,
      "它在": 10108,
      "寿命": 10109,
      "幼儿": 10110,
      "很大的": 10111,
      "指令": 10112,
      "时刻": 10113,
      "条文": 10114,
      "水和": 10115,
      "法和": 10116,
      "病人": 10117,
      "的多": 10118,
      "的同时": 10119,
      "红十字": 10120,
      "给安全理事会主席": 10121,
      "营地": 10122,
      "西岸": 10123,
      "认证": 10124,
      "让人": 10125,
      "负责任": 10126,
      "资讯": 10127,
      "还应": 10128,
      "还可以": 10129,
      "迹象": 10130,
      "都必须": 10131,
      "阿布": 10132,
      "陷入": 10133,
      "马达": 10134,
      "：《": 10135,
      "社会主义": 10136,
      "这些措施": 10137,
      "法律援助": 10138,
      "世界人权": 10139,
      "和平利用": 10140,
      "的人民": 10141,
      "中的作用": 10142,
      "武器的": 10143,
      "强调指出": 10144,
      "咨询机构": 10145,
      "可持续性": 10146,
      "难民营": 10147,
      "规划和": 10148,
      "的一个重要": 10149,
      "的最高": 10150,
      "产品的": 10151,
      "基于性别": 10152,
      "引起的": 10153,
      "几内亚比绍": 10154,
      "定居点": 10155,
      "指挥官": 10156,
      "马尔代夫": 10157,
      "谅解备忘录": 10158,
      "通货膨胀": 10159,
      "阿拉伯联合酋长": 10160,
      "1和": 10161,
      "An": 10162,
      "sh": 10163,
      "”“": 10164,
      "买卖": 10165,
      "任用": 10166,
      "公认": 10167,
      "办理": 10168,
      "受影响": 10169,
      "同上": 10170,
      "向其": 10171,
      "吸毒": 10172,
      "和工作": 10173,
      "响应": 10174,
      "地面": 10175,
      "多年来": 10176,
      "对这一": 10177,
      "开设": 10178,
      "意图": 10179,
      "所规定的": 10180,
      "撤销": 10181,
      "毫不": 10182,
      "海岸": 10183,
      "由联合国": 10184,
      "的暴力": 10185,
      "等等": 10186,
      "紧密": 10187,
      "统筹": 10188,
      "缓慢": 10189,
      "老挝": 10190,
      "草坪": 10191,
      "蛋白": 10192,
      "记忆": 10193,
      "试点": 10194,
      "负面": 10195,
      "选出": 10196,
      "重大的": 10197,
      "零零": 10198,
      "首长": 10199,
      "鱼类": 10200,
      "鼓舞": 10201,
      "201": 10202,
      "联合共和国": 10203,
      "提供服务": 10204,
      "107": 10205,
      "1993": 10206,
      "根据其": 10207,
      "世界卫生组织": 10208,
      "继续在": 10209,
      "加强联合国": 10210,
      "目标和": 10211,
      "任何其他": 10212,
      "建立的": 10213,
      "协调和": 10214,
      "战略和": 10215,
      "解决方案": 10216,
      "制定的": 10217,
      "必要措施": 10218,
      "ang": 10219,
      "第56": 10220,
      "性别问题": 10221,
      "卫生部": 10222,
      "安理会成员": 10223,
      "残疾人权利": 10224,
      "明确的": 10225,
      "首脑会议的": 10226,
      "做出了": 10227,
      "同样的": 10228,
      "最不发达国家的": 10229,
      "管辖权": 10230,
      "持久性": 10231,
      "奥运会": 10232,
      "前南斯拉夫的马": 10233,
      "坦桑尼亚联合共和国": 10234,
      "侧重于": 10235,
      "前南斯拉夫的马其顿共和国": 10236,
      "))": 10237,
      "112": 10238,
      "HRC": 10239,
      "ap": 10240,
      "if": 10241,
      "一半": 10242,
      "上面": 10243,
      "以提高": 10244,
      "俱乐": 10245,
      "利尔": 10246,
      "加紧": 10247,
      "各会员国": 10248,
      "咖啡": 10249,
      "咨商": 10250,
      "品牌": 10251,
      "土壤": 10252,
      "实例": 10253,
      "富有": 10254,
      "对策": 10255,
      "小心": 10256,
      "我希望": 10257,
      "提起": 10258,
      "援引": 10259,
      "无效": 10260,
      "无疑": 10261,
      "日在": 10262,
      "本法": 10263,
      "本决议": 10264,
      "段所述": 10265,
      "瓦尔": 10266,
      "留下": 10267,
      "的结构": 10268,
      "的财政": 10269,
      "的程度": 10270,
      "的证据": 10271,
      "的比例": 10272,
      "研所": 10273,
      "裁谈": 10274,
      "论文": 10275,
      "都要": 10276,
      "饮食": 10277,
      "有关的问题": 10278,
      "大会第五十": 10279,
      "秘书长的": 10280,
      "秘书长特别代表": 10281,
      "一些代表团": 10282,
      "信息的": 10283,
      "能力的": 10284,
      "缔约国的": 10285,
      "提交报告": 10286,
      "能够在": 10287,
      "文化和": 10288,
      "生活的": 10289,
      "冲突的": 10290,
      "第55": 10291,
      "接受了": 10292,
      "恐怖分子": 10293,
      "国内法": 10294,
      "ard": 10295,
      "涉及到": 10296,
      "人们对": 10297,
      "千年宣言": 10298,
      "编写的": 10299,
      "索赔人": 10300,
      "吉尔吉斯": 10301,
      "温室气体": 10302,
      "'>": 10303,
      "(《": 10304,
      "3号决议": 10305,
      "='": 10306,
      "ID": 10307,
      "tp": 10308,
      "不在": 10309,
      "不容忍": 10310,
      "中部": 10311,
      "为何": 10312,
      "事态": 10313,
      "五条": 10314,
      "会在": 10315,
      "传真": 10316,
      "全民": 10317,
      "冰岛": 10318,
      "出发": 10319,
      "北草坪": 10320,
      "受教育": 10321,
      "在报告": 10322,
      "多么": 10323,
      "学科": 10324,
      "尽早": 10325,
      "展览": 10326,
      "巴塞尔": 10327,
      "并强调": 10328,
      "庆祝": 10329,
      "招聘": 10330,
      "是有": 10331,
      "水资源": 10332,
      "消极": 10333,
      "清除": 10334,
      "特使": 10335,
      "积累": 10336,
      "纠正": 10337,
      "终于": 10338,
      "结核": 10339,
      "罚款": 10340,
      "而非": 10341,
      "联检": 10342,
      "自主": 10343,
      "过了": 10344,
      "运营": 10345,
      "配偶": 10346,
      "防范": 10347,
      "国家警察": 10348,
      "提供有关": 10349,
      "政府在": 10350,
      "104": 10351,
      "进行合作": 10352,
      "执行的": 10353,
      "执行委员会": 10354,
      "代表和": 10355,
      "安全的": 10356,
      "妇女参与": 10357,
      "130": 10358,
      "行为者": 10359,
      "的一致": 10360,
      "第二条": 10361,
      "第二部分": 10362,
      "行政部门": 10363,
      "建设性": 10364,
      "难民事务": 10365,
      "预防性": 10366,
      "武装团体": 10367,
      "21世纪": 10368,
      "成功的": 10369,
      "分配给": 10370,
      "竞争力": 10371,
      "移徙工人": 10372,
      "ill": 10373,
      "约束力的": 10374,
      "着重指出": 10375,
      "监测和评价": 10376,
      "无核武器区": 10377,
      "弱势群体": 10378,
      "加斯加": 10379,
      "公民权利和政治权利国际公约": 10380,
      "因特网": 10381,
      "119": 10382,
      "://": 10383,
      "SA": 10384,
      "af": 10385,
      "三条": 10386,
      "中小": 10387,
      "人均": 10388,
      "会晤": 10389,
      "假如": 10390,
      "列表": 10391,
      "南苏丹": 10392,
      "和性": 10393,
      "圣诞": 10394,
      "在非洲": 10395,
      "大气": 10396,
      "奥巴马": 10397,
      "妇发基金": 10398,
      "姓名": 10399,
      "将由": 10400,
      "并根据": 10401,
      "应以": 10402,
      "想象": 10403,
      "或其": 10404,
      "所示": 10405,
      "拉脱": 10406,
      "捍卫": 10407,
      "排斥": 10408,
      "新兴": 10409,
      "施工": 10410,
      "是一项": 10411,
      "有许多": 10412,
      "本书": 10413,
      "本人": 10414,
      "标题": 10415,
      "版本": 10416,
      "环保": 10417,
      "留在": 10418,
      "的有": 10419,
      "的分析": 10420,
      "的形式": 10421,
      "站在": 10422,
      "绝大多数": 10423,
      "老人": 10424,
      "较高": 10425,
      "追踪": 10426,
      "韩国": 10427,
      "工作和": 10428,
      "国际标准": 10429,
      "以及与": 10430,
      "社会经济": 10431,
      "人权问题": 10432,
      "采取适当": 10433,
      "保护平民": 10434,
      "缔约国会议": 10435,
      "人口贩运": 10436,
      "这样一个": 10437,
      "是否有": 10438,
      "第60": 10439,
      "负责人": 10440,
      "独立的": 10441,
      "面临着": 10442,
      "价值观": 10443,
      "检查组": 10444,
      "发表的": 10445,
      "污染物": 10446,
      "妇女和女童": 10447,
      "常驻代表团": 10448,
      "赞赏地注意到": 10449,
      "77国集团": 10450,
      "蒙特利尔": 10451,
      "http": 10452,
      "宏观经济": 10453,
      "的待遇或处罚": 10454,
      "塔吉克斯坦": 10455,
      "马达加斯加": 10456,
      "北草坪会议大楼": 10457,
      "Gen": 10458,
      "Mr": 10459,
      "与和平": 10460,
      "东欧": 10461,
      "之时": 10462,
      "之际": 10463,
      "也不能": 10464,
      "人体": 10465,
      "使之": 10466,
      "医务": 10467,
      "和各": 10468,
      "和中国": 10469,
      "团队": 10470,
      "在促进": 10471,
      "地下": 10472,
      "复员和": 10473,
      "外债": 10474,
      "外汇": 10475,
      "她在": 10476,
      "娱乐": 10477,
      "子里": 10478,
      "将为": 10479,
      "就能": 10480,
      "或不": 10481,
      "抓住": 10482,
      "支柱": 10483,
      "改造": 10484,
      "整合": 10485,
      "文字": 10486,
      "无线": 10487,
      "昨天": 10488,
      "是通过": 10489,
      "未决": 10490,
      "波动": 10491,
      "浪费": 10492,
      "港口": 10493,
      "的总": 10494,
      "的变化": 10495,
      "监护": 10496,
      "看着": 10497,
      "网页": 10498,
      "臭氧": 10499,
      "船只": 10500,
      "计量": 10501,
      "该委员会": 10502,
      "过的": 10503,
      "还指出": 10504,
      "迫使": 10505,
      "送交": 10506,
      "配备": 10507,
      "重组": 10508,
      "非正规": 10509,
      "问题是": 10510,
      "方面取得的进展": 10511,
      "10个": 10512,
      "这些活动": 10513,
      "人权的": 10514,
      "大会主席": 10515,
      "的一份": 10516,
      "如果没有": 10517,
      "30分": 10518,
      "进一步加强": 10519,
      "原则和": 10520,
      "会员国的": 10521,
      "第3条": 10522,
      "成果的": 10523,
      "之间的合作": 10524,
      "批准了": 10525,
      "更多地": 10526,
      "这项工作": 10527,
      "的最低": 10528,
      "达成的": 10529,
      "提到的": 10530,
      "修订的": 10531,
      "第1373": 10532,
      "至关重要的": 10533,
      "提请注意": 10534,
      "脆弱性": 10535,
      "救济工程处": 10536,
      "补救办法": 10537,
      "世贸组织": 10538,
      "全权证书": 10539,
      "拉脱维亚": 10540,
      "Kh": 10541,
      "ib": 10542,
      "不了": 10543,
      "不错": 10544,
      "主体": 10545,
      "于2009年": 10546,
      "代替": 10547,
      "你说": 10548,
      "公职": 10549,
      "冻结": 10550,
      "包装": 10551,
      "发送": 10552,
      "和儿童": 10553,
      "哪里": 10554,
      "回返": 10555,
      "围绕": 10556,
      "城镇": 10557,
      "完美": 10558,
      "对他": 10559,
      "对抗": 10560,
      "小行星": 10561,
      "局面": 10562,
      "布什": 10563,
      "布鲁": 10564,
      "带着": 10565,
      "并加强": 10566,
      "很重要": 10567,
      "徒刑": 10568,
      "德班": 10569,
      "恐吓": 10570,
      "成的": 10571,
      "所指": 10572,
      "挑选": 10573,
      "接着": 10574,
      "明天": 10575,
      "最为": 10576,
      "每周": 10577,
      "民众国": 10578,
      "火箭": 10579,
      "灵魂": 10580,
      "瓦纳": 10581,
      "电台": 10582,
      "的设计": 10583,
      "的提案": 10584,
      "真是": 10585,
      "离婚": 10586,
      "种类": 10587,
      "约有": 10588,
      "给了": 10589,
      "缴款": 10590,
      "老板": 10591,
      "范畴": 10592,
      "西部": 10593,
      "见到": 10594,
      "证件": 10595,
      "该地区": 10596,
      "超越": 10597,
      "转换": 10598,
      "这方面": 10599,
      "退化": 10600,
      "那种": 10601,
      "会议期间": 10602,
      "提供技术援助": 10603,
      "可以通过": 10604,
      "研究了": 10605,
      "研究报告": 10606,
      "秘书长的说明": 10607,
      "协调厅": 10608,
      "全球经济": 10609,
      "第二章": 10610,
      "贸易和": 10611,
      "开发银行": 10612,
      "第50": 10613,
      "和其他残忍": 10614,
      "国内生产总值": 10615,
      "ina": 10616,
      "金融危机": 10617,
      "履行机构": 10618,
      "保健服务": 10619,
      "签署了": 10620,
      "经济及社会理事会第": 10621,
      "妇女和儿童": 10622,
      "集中在": 10623,
      "马拉维": 10624,
      "排放量": 10625,
      "6月30日期间": 10626,
      "特设工作组": 10627,
      "达尔富尔混合": 10628,
      "可行性": 10629,
      "近东救济工程处": 10630,
      "经费的筹措": 10631,
      "i先生": 10632,
      "不当": 10633,
      "东耶路撒冷": 10634,
      "为确保": 10635,
      "二零零": 10636,
      "会期间": 10637,
      "作者": 10638,
      "你有": 10639,
      "保密": 10640,
      "元素": 10641,
      "免受": 10642,
      "入侵": 10643,
      "冲击": 10644,
      "分开": 10645,
      "利息": 10646,
      "十一": 10647,
      "半年": 10648,
      "单元": 10649,
      "可行的": 10650,
      "和公共": 10651,
      "团伙": 10652,
      "在审议": 10653,
      "地说": 10654,
      "塔尼亚": 10655,
      "增至": 10656,
      "处置": 10657,
      "复兴": 10658,
      "复制": 10659,
      "复原": 10660,
      "届特别会议": 10661,
      "忘记": 10662,
      "我觉得": 10663,
      "或在": 10664,
      "所能": 10665,
      "授予": 10666,
      "提倡": 10667,
      "旅费": 10668,
      "是我": 10669,
      "更改": 10670,
      "木材": 10671,
      "杂志": 10672,
      "林业": 10673,
      "查询": 10674,
      "样的": 10675,
      "消失": 10676,
      "清洗": 10677,
      "的进展": 10678,
      "的增长": 10679,
      "的业务": 10680,
      "直至": 10681,
      "编号": 10682,
      "联利": 10683,
      "艰难": 10684,
      "贝宁": 10685,
      "赠款": 10686,
      "通用": 10687,
      "遵照": 10688,
      "阐述了": 10689,
      "顺序": 10690,
      "国家和国际": 10691,
      "委员会请": 10692,
      "委员会第十": 10693,
      "国际文书": 10694,
      "行动方案": 10695,
      "决定的": 10696,
      "提高了": 10697,
      "同时也": 10698,
      "可持续的": 10699,
      "ers": 10700,
      "性别观点": 10701,
      "之间的联系": 10702,
      "巴勒斯坦人": 10703,
      "经费筹措": 10704,
      "结论性意见": 10705,
      "之一是": 10706,
      "核武器国家": 10707,
      "捐助国": 10708,
      "条例和": 10709,
      "粮食计划署": 10710,
      "成立了": 10711,
      "决策者": 10712,
      "怎么样": 10713,
      "各自的": 10714,
      "良好做法": 10715,
      "消除对妇女歧视": 10716,
      "包容性": 10717,
      "流行病": 10718,
      "路线图": 10719,
      "绩效指标": 10720,
      "债权人": 10721,
      "格林纳": 10722,
      "直升机": 10723,
      "给安全理事会主席的信": 10724,
      "阿拉伯联合酋长国": 10725,
      ")/": 10726,
      "300美元": 10727,
      "600美元": 10728,
      "七条": 10729,
      "下面": 10730,
      "两级": 10731,
      "于2006年": 10732,
      "互相": 10733,
      "亚那": 10734,
      "人工": 10735,
      "人身": 10736,
      "他不": 10737,
      "伤亡": 10738,
      "儿基": 10739,
      "免遭": 10740,
      "刚刚": 10741,
      "卡拉": 10742,
      "发的": 10743,
      "圭亚那": 10744,
      "增多": 10745,
      "存款": 10746,
      "它是": 10747,
      "实在": 10748,
      "对所有": 10749,
      "将有助于": 10750,
      "干涉": 10751,
      "度的": 10752,
      "开采": 10753,
      "征求": 10754,
      "惩处": 10755,
      "慈善": 10756,
      "打电话": 10757,
      "把他": 10758,
      "投标": 10759,
      "接纳": 10760,
      "提前": 10761,
      "本区域": 10762,
      "林匹": 10763,
      "民用": 10764,
      "熟悉": 10765,
      "爸爸": 10766,
      "用以": 10767,
      "的和": 10768,
      "的地位": 10769,
      "的军事": 10770,
      "的请求": 10771,
      "竞赛": 10772,
      "竞选": 10773,
      "章程": 10774,
      "等级": 10775,
      "算法": 10776,
      "结余": 10777,
      "统治": 10778,
      "置于": 10779,
      "老龄": 10780,
      "营业": 10781,
      "见附件": 10782,
      "远远": 10783,
      "都没有": 10784,
      "队伍": 10785,
      "非公开": 10786,
      "驱动": 10787,
      "提供一个": 10788,
      "有关决议": 10789,
      "经济委员会": 10790,
      "必须确保": 10791,
      "目标的": 10792,
      "表示赞赏": 10793,
      "美国和": 10794,
      "行政首长": 10795,
      "数据的": 10796,
      "歧视性": 10797,
      "咨询小组": 10798,
      "第51": 10799,
      "基本上": 10800,
      "自由和": 10801,
      "第62": 10802,
      "阿拉伯利比亚": 10803,
      "运动员": 10804,
      "反映出": 10805,
      "多样化": 10806,
      "维持和平行动部": 10807,
      "爆炸物": 10808,
      "rig": 10809,
      "荒漠化公约": 10810,
      "问题世界首脑会议": 10811,
      "货币基金组织": 10812,
      "联检组": 10813,
      "700": 10814,
      "7号决议": 10815,
      "a先生": 10816,
      "eb": 10817,
      "ow": 10818,
      "一国": 10819,
      "下放": 10820,
      "不对": 10821,
      "中亚": 10822,
      "中文": 10823,
      "为促进": 10824,
      "书记": 10825,
      "会儿": 10826,
      "会见": 10827,
      "债券": 10828,
      "军用": 10829,
      "农场": 10830,
      "分为": 10831,
      "动作": 10832,
      "化合": 10833,
      "博茨": 10834,
      "号法律": 10835,
      "含量": 10836,
      "商店": 10837,
      "在我": 10838,
      "在线": 10839,
      "在国内": 10840,
      "在某些": 10841,
      "大众": 10842,
      "并支持": 10843,
      "序言": 10844,
      "应收": 10845,
      "必然": 10846,
      "总务": 10847,
      "成熟": 10848,
      "我还": 10849,
      "我可以": 10850,
      "扣押": 10851,
      "按性别": 10852,
      "捐赠": 10853,
      "操守": 10854,
      "文学": 10855,
      "无人": 10856,
      "显得": 10857,
      "村庄": 10858,
      "次全体会议": 10859,
      "欺诈": 10860,
      "民兵": 10861,
      "海牙": 10862,
      "清理": 10863,
      "漂亮": 10864,
      "演讲": 10865,
      "犹太": 10866,
      "的第": 10867,
      "的部分": 10868,
      "的投资": 10869,
      "的存在": 10870,
      "的综合": 10871,
      "的数量": 10872,
      "福祉": 10873,
      "等方面": 10874,
      "联科": 10875,
      "西洋": 10876,
      "警卫": 10877,
      "让他": 10878,
      "负有": 10879,
      "费率": 10880,
      "较少": 10881,
      "过于": 10882,
      "还包括": 10883,
      "采矿": 10884,
      "国家办事处": 10885,
      "政府对": 10886,
      "通过议程": 10887,
      "行动纲要": 10888,
      "人权状况": 10889,
      "115": 10890,
      "法律框架": 10891,
      "已经在": 10892,
      "共和国总统": 10893,
      "非洲的": 10894,
      "第25": 10895,
      "条件下": 10896,
      "各项建议": 10897,
      "全面禁止": 10898,
      "第49": 10899,
      "土著人": 10900,
      "专员办事处": 10901,
      "工业发展": 10902,
      "传统的": 10903,
      "类似的": 10904,
      "旅游业": 10905,
      "下午3时": 10906,
      "宣言和行动纲领": 10907,
      "经合组织": 10908,
      "阿拉伯利比亚民众国": 10909,
      "博茨瓦纳": 10910,
      "**": 10911,
      "ich": 10912,
      "一件": 10913,
      "三项": 10914,
      "不太": 10915,
      "不包括": 10916,
      "了这一": 10917,
      "仍有": 10918,
      "以满足": 10919,
      "做好": 10920,
      "几个月": 10921,
      "前进": 10922,
      "器的": 10923,
      "地中": 10924,
      "外联": 10925,
      "大西洋": 10926,
      "太太": 10927,
      "女子": 10928,
      "家长": 10929,
      "将近": 10930,
      "就必须": 10931,
      "届常会": 10932,
      "干扰": 10933,
      "很容易": 10934,
      "心的": 10935,
      "抑制": 10936,
      "是由于": 10937,
      "是不是": 10938,
      "更广泛": 10939,
      "本着": 10940,
      "比额": 10941,
      "消灭": 10942,
      "用作": 10943,
      "申报": 10944,
      "的领域": 10945,
      "的生产": 10946,
      "的威胁": 10947,
      "盛顿": 10948,
      "而被": 10949,
      "联黎": 10950,
      "致使": 10951,
      "草稿": 10952,
      "裂变": 10953,
      "视频": 10954,
      "警务": 10955,
      "这意味着": 10956,
      "选定": 10957,
      "遗留": 10958,
      "都应": 10959,
      "饮用水": 10960,
      "；（": 10961,
      "委员会关于": 10962,
      "报告和": 10963,
      "102": 10964,
      "103": 10965,
      "1992": 10966,
      "计划和": 10967,
      "世界的": 10968,
      "环境和": 10969,
      "行为体": 10970,
      "的一次": 10971,
      "举行会议": 10972,
      "表示关注": 10973,
      "条约的": 10974,
      "第27": 10975,
      "框架公约": 10976,
      "家庭成员": 10977,
      "第5条": 10978,
      "第36": 10979,
      "消除种族歧视": 10980,
      "人道主义事务": 10981,
      "防止和": 10982,
      "结束时": 10983,
      "应用程序": 10984,
      "为此目的": 10985,
      "满意地注意到": 10986,
      "UNEP": 10987,
      "常规武器": 10988,
      "被拘留者": 10989,
      "INF": 10990,
      "国际刑事法院": 10991,
      "世界人权宣言": 10992,
      "俱乐部": 10993,
      "裁谈会": 10994,
      "复员和重返社会": 10995,
      "儿基会": 10996,
      "01": 10997,
      "500美元": 10998,
      "io": 10999,
      "上周": 11000,
      "不罚": 11001,
      "于2008年": 11002,
      "休息": 11003,
      "传输": 11004,
      "住在": 11005,
      "使人": 11006,
      "使我们": 11007,
      "反馈": 11008,
      "各缔约方": 11009,
      "各成员国": 11010,
      "在处理": 11011,
      "在今后": 11012,
      "外空": 11013,
      "奴隶": 11014,
      "如同": 11015,
      "实务": 11016,
      "家里": 11017,
      "工商": 11018,
      "已成为": 11019,
      "巴巴": 11020,
      "引入": 11021,
      "想知道": 11022,
      "愉快": 11023,
      "技巧": 11024,
      "抵消": 11025,
      "指定的": 11026,
      "斯科": 11027,
      "既定": 11028,
      "核实": 11029,
      "欣见": 11030,
      "此事": 11031,
      "深刻": 11032,
      "炸弹": 11033,
      "热带": 11034,
      "的发": 11035,
      "的协调": 11036,
      "盟约": 11037,
      "等问题": 11038,
      "署长": 11039,
      "能在": 11040,
      "花费": 11041,
      "萨摩": 11042,
      "记住": 11043,
      "设有": 11044,
      "该法": 11045,
      "该公司": 11046,
      "谈到": 11047,
      "赤字": 11048,
      "这家": 11049,
      "都将": 11050,
      "阶层": 11051,
      "阿曼": 11052,
      "黑暗": 11053,
      "委员会将": 11054,
      "我们需要": 11055,
      "安全部队": 11056,
      "活动中": 11057,
      "所有权": 11058,
      "管理人员": 11059,
      "管理系统": 11060,
      "区域合作": 11061,
      "可能性": 11062,
      "采取步骤": 11063,
      "世界首脑会议": 11064,
      "研究的": 11065,
      "提交的报告": 11066,
      "有效执行": 11067,
      "开展的活动": 11068,
      "中心和": 11069,
      "获得了": 11070,
      "什么时候": 11071,
      "第52": 11072,
      "第59": 11073,
      "12月20日": 11074,
      "个人和": 11075,
      "成果文件": 11076,
      "知识和": 11077,
      "案件中": 11078,
      "核武器条约": 11079,
      "西亚经社会": 11080,
      "条款草案": 11081,
      "职业培训": 11082,
      "外国人": 11083,
      "成本效益": 11084,
      "化学武器": 11085,
      "所作的努力": 11086,
      "不仅仅": 11087,
      "自治领土": 11088,
      "不利影响": 11089,
      "COP": 11090,
      "正确的": 11091,
      "蒙特雷": 11092,
      "大幅度": 11093,
      "CEDA": 11094,
      "补助金": 11095,
      "在同次会议上": 11096,
      "经社理事会": 11097,
      "强有力的": 11098,
      "CEDAW": 11099,
      "4条": 11100,
      "CA": 11101,
      "aj": 11102,
      "一事": 11103,
      "不多": 11104,
      "不安": 11105,
      "不少": 11106,
      "与国家": 11107,
      "严厉": 11108,
      "中对": 11109,
      "人物": 11110,
      "仍未": 11111,
      "以帮助": 11112,
      "借此": 11113,
      "八条": 11114,
      "公斤": 11115,
      "准入": 11116,
      "减免": 11117,
      "出来的": 11118,
      "分列": 11119,
      "原籍": 11120,
[...]
