[UNK]
[SEP]
[CLS]
[PAD]
[MASK]
"
%
(
)
*
,
-
.
/
0
1
2
3
4
5
6
7
8
9
:
;
?
A
B
C
D
E
F
G
H
I
K
L
M
N
O
P
R
S
T
W
[
]
a
b
c
d
e
f
g
h
i
k
l
m
n
o
p
r
s
t
u
v
w
y
·
—
“
”
、
。
《
》
一
七
万
三
上
下
不
与
专
且
世
业
东
两
严
个
中
临
丹
为
主
举
久
么
义
之
乌
乎
乐
九
也
习
书
买
了
予
争
事
二
于
互
五
亚
些
亡
交
产
享
亲
人
亿
什
仅
今
介
仍
从
他
付
代
令
以
们
件
价
任
份
企
伊
众
优
伙
会
传
伤
伦
伯
估
伴
似
但
位
低
住
体
何
余
作
你
使
例
供
依
侵
便
促
俄
保
信
修
候
倡
债
值
假
做
停
健
偿
像
儿
元
充
先
光
克
免
党
入
全
八
公
六
兰
共
关
兴
其
具
典
养
内
再
写
军
农
冲
决
况
准
减
几
出
击
分
切
刑
划
列
则
刚
创
初
判
利
别
到
制
前
副
力
办
功
加
务
动
助
努
励
劳
势
勒
包
化
北
区
医
十
千
升
午
半
华
协
单
卖
南
占
卡
卢
卫
印
危
即
却
厅
历
压
原
去
参
又
及
友
双
反
发
取
受
变
口
古
另
只
可
台
史
号
司
吁
各
合
吉
同
名
后
向
吗
否
含
听
吸
告
员
周
呼
命
和
咨
品
哈
响
哥
商
善
器
四
回
因
团
困
围
国
图
土
圣
在
地
场
均
坏
坚
坛
坦
型
埃
城
域
培
基
塔
塞
境
增
士
声
处
备
复
外
多
够
大
天
太
夫
失
头
奥
女
她
好
如
妇
始
委
威
婚
子
字
存
学
孩
它
守
安
完
宗
官
定
实
审
客
宣
室
宪
害
家
容
密
富
察
对
寻
导
射
将
尊
小
少
尔
尤
就
尼
尽
局
层
居
届
展
属
履
山
岁
岛
州
工
差
己
已
巴
市
布
师
希
带
席
帮
常
干
平
年
并
广
序
库
应
底
府
度
庭
康
延
建
开
式
引
张
弱
弹
强
当
录
形
影
往
征
待
很
律
得
德
心
必
快
念
态
怖
思
急
性
总
恐
恢
息
您
情
想
意
感
愿
成
我
或
战
户
房
所
手
才
打
托
执
扩
批
找
承
技
把
投
护
报
担
拉
拘
拟
拥
择
括
拿
持
指
按
挑
挥
捐
损
换
据
授
排
探
接
控
推
措
提
援
摩
播
支
收
改
放
政
效
救
教
散
敦
数
整
文
料
断
斯
新
方
施
旅
族
无
日
旨
早
时
明
易
星
是
显
普
景
暴
更
曾
最
月
有
服
望
期
未
本
术
机
杀
权
材
村
束
条
来
极
构
析
林
果
架
某
染
查
标
校
样
核
根
格
框
案
检
森
概
模
次
欢
欧
款
止
正
此
步
武
歧
死
残
段
母
每
毒
比
民
气
水
求
汇
沙
没
油
治
法
泛
波
注
洋
洛
洲
活
派
流
测
济
海
消
涉
深
清
港
游
源
滋
满
火
灾
点
热
然
照
爱
片
牙
物
特
犯
状
独
献
率
王
环
现
班
球
理
瑞
瓦
生
用
由
申
电
男
界
留
略
疑
疗
疾
病
登
白
百
的
益
监
盟
目
直
相
省
看
真
着
督
知
石
研
破
础
确
碍
示
社
神
票
禁
福
离
私
种
科
秘
积
称
移
程
税
稳
究
穷
空
突
立
站
竞
章
童
符
第
等
答
策
筹
签
简
算
管
米
类
粮
精
系
素
索
紧
约
级
纪
纳
线
组
细
织
终
绍
经
结
给
络
绝
统
继
续
维
综
缔
编
缺
网
罗
罚
罪
置
署
美
群
老
考
者
而
职
联
股
育
胁
背
能
脑
自
至
致
航
般
良
色
艾
节
花
苏
若
英
范
草
药
获
营
萨
落
著
虑
虽
融
行
衡
补
表
被
裁
装
西
要
见
观
规
视
觉
角
解
言
警
计
订
认
讨
让
训
议
记
讲
许
论
设
访
证
评
识
诉
试
话
询
该
语
说
请
诺
课
调
谈
谢
象
负
贡
财
责
货
质
贩
贫
购
贸
费
资
赔
赞
走
起
超
越
足
路
身
车
转
轻
载
较
输
辩
边
达
过
迎
运
近
返
还
这
进
远
违
连
迪
迫
述
退
送
适
选
透
途
通
速
造
遇
遍
道
遗
遭
遵
避
那
邦
部
都
配
采
释
里
重
量
金
针
银
销
键
长
门
问
间
闻
队
防
阶
阿
附
际
降
限
院
除
险
随
障
难
集
雷
需
青
非
面
革
项
须
顾
预
领
题
额
风
飞
食
首
马
驻
验
高
鲁
黎
黑
鼓
（
）
，
．
：
；
？
##P
##o
##n
##t
##9
##3
##4
##u
##y
##5
##1
##0
##d
##i
##r
##k
##8
##e
##l
##f
##a
##g
##s
##h
##v
##7
##2
##S
##G
##A
##E
##O
##B
##m
##b
##6
##w
##p
##c
##H
##N
##C
##T
##D
##F
##I
##K
##L
##M
##R
##W
20
200
19
199
201
10
12
11
##00
15
13
21
18
14
16
30
17
##an
2006
##er
2010
2009
24
23
25
2005
2008
22
2000
2011
2004
31
26
2003
28
##ar
2007
2001
2002
000
2012
##in
29
1999
##on
2013
##al
##en
27
Ad
Add
1998
50
60
35
##or
198
40
33
32
##as
1997
1996
##at
##is
44
52
47
59
65
2014
42
##es
58
1994
64
55
34
48
197
36
1995
62
45
56
49
##el
##am
1993
51
66
61
54
100
##ic
39
57
53
37
41
69
46
43
38
00
63
68
##ou
196
CN
##ad
1990
##il
70
2015
80
##om
500
##it
67
75
##ah
195
1992
##ed
90
##ass
##ol
##ev
##ur
77
##ac
##ov
##ion
85
96
##os
##im
1991
CO
300
##ir
##ec
73
##et
##un
##id
##rg
org
76
194
71
87
##ig
82
##ia
##lass
un
83
class
##ab
79
92
##ot
##em
##ww
91
www
##ent
400
72
##ay
78
84
94
AC
##us
600
95
98
##ul
81
88
86
Al
89
##ing
Cor
##tr
74
700
##ak
##av
##II
##20
##ch
150
##and
##CC
CR
##ob
212
137
##art
93
Ab
105
97
Ch
Rev
##nd
Corr
1989
154
##ation
800
SR
##ub
##re
##le
##ha
120
99
##oh
##ro
1967
ht
103
132
##NF
##30
##ik
112
01
##ag
##he
130
1988
In
107
##ish
CE
Mar
##op
##ut
109
##ern
CP
##ib
##ers
250
##um
##ie
110
963
St
Sh
##ep
193
101
119
111
##ina
Kh
Tr
##oc
##iy
##ang
1970
05
HR
in
116
##ng
##tp
128
##000
180
140
##anc
##ill
1373
http
IC
WG
##10
##eb
##af
##70
##NA
192
102
122
182
162
170
##ert
Gen
ID
##12
104
129
126
118
##eral
##ine
##all
de
##io
##ES
##man
189
##ard
COP
##ect
Abd
09
As
Dis
WP
##PA
##ok
##st
##NE
151
##ong
1978
CRC
03
Ar
Gr
IS
of
##ow
##ud
##rig
##aw
##60
202
106
113
115
155
171
1980
##ell
General
900
##od
##ew
##ST
##DP
125
133
138
1985
##ist
##est
##ess
CRP
Am
DP
##ue
##ek
2017
1986
##our
Distr
##NEP
02
CC
Fr
INF
Mr
##if
##ry
##sk
##pan
##DA
135
173
HRC
IDB
An
CD
FCC
TD
al
##of
##og
##th
##ian
##eg
##lish
##ap
##AC
123
136
1987
##ich
CONF
FCCC
GC
GDP
and
##21
203
190
2016
124
121
117
153
143
##ant
230
1984
1981
1973
04
Br
ES
Moh
Orig
Sect
##te
##uk
##19
##ri
##85
##son
##EC
##ber
209
205
2020
114
156
139
187
146
166
241
260
##inal
##ord
1982
##ack
1540
##nglish
Original
06
Ag
Dec
English
RES
##oy
##ts
##ter
##up
##eh
##ai
##ain
##SP
##EF
##ce
213
160
##ari
1977
##ick
08
Sal
##11
##ey
##co
184
144
145
##ara
##eng
##ens
350
##oun
1951
##ach
1949
##ational
CEDA
Moham
CEDAW
07
Bl
CM
Car
El
Mat
Pr
PC
Pro
st
##ug
##iv
##ial
##ea
##AT
##mad
##IC
108
127
157
152
131
214
211
185
186
149
148
147
169
168
##ans
220
266
297
##onom
##end
##ast
1975
1972
1958
Com
SP
SA
com
span
##ef
##ear
##sh
##25
204
208
207
158
134
219
183
188
141
269
##ind
272
550
Ah
Ba
Bar
CT
Con
Ma
NP
PB
Rob
SB
Sub
for
##na
##uh
##yn
##57
##ip
##ra
##ka
##23
##OP
##OS
##BA
##ment
##pr
##pa
##IN
##RD
177
249
237
236
256
261
##iss
##oup
1960
##ovic
##III
##ohn
htm
ICEF
EC
II
MI
Part
SC
##tern
##96
##ui
##15
##ko
##ee
##la
##ba
##MA
191
159
210
217
216
164
161
167
178
245
246
233
251
221
228
310
291
##ort
##org
1983
750
##oll
##ung
Mohamed
De
Ev
Fl
IN
Ol
ST
Th
##34
##rah
##84
##80
##SG
##SC
##ER
##OC
##OL
##69
##pe
##cc
1000
215
179
172
176
##ani
253
252
227
226
283
280
288
##ary
295
##one
274
270
##ati
425
1979
1971
1976
560
1963
1966
##oss
1948
##ement
Khal
CMP
PBC
En
Er
Ec
Fa
Gu
Ha
Ham
La
Min
No
New
Pet
Res
Ta
ch
con
la
the
##ne
##95
##33
##14
##ien
##CA
218
174
175
##ann
##ana
##erg
243
247
235
232
259
222
289
293
294
292
##ork
338
332
326
##ash
##att
490
##ame
##amp
##ica
1968
##adi
##ador
1952
##oth
##CCD
Abu
1325
Ass
1718
NPT
##ternational
030
AP
Ban
CH
DC
Dav
DNA
E4
EM
For
Har
IT
ICCD
Ke
Le
MC
Mad
Na
NC
PR
Sim
ind
##PR
##och
##49
##43
##uc
##05
##ies
##ke
##ler
##for
##sp
##her
##22
##AR
##EM
##mit
##bo
##bert
##68
##DE
##DF
##DI
2030
163
165
1612
309
303
308
##ane
##erv
248
231
238
223
263
265
281
287
##ino
299
290
##ale
##enc
603
360
661
687
##ith
##old
852
##und
1945
##ention
##ult
CERD
Mark
Abdul
Group
Franc
1874
##onomy
Taonomy
Ay
Ac
And
Co
CL
CAC
Dar
Don
Fed
HS
It
IM
Kan
Mc
Mal
Mit
May
Mart
Ny
OL
PDF
Re
Ram
Rah
Se
SS
SG
Sar
Sam
TP
Tak
fr
pd
to
##ois
##ton
##99
##94
##ual
##18
##ii
##iam
##ru
##ron
##ss
##vention
##28
##AS
##AI
##AL
##EN
##63
##pl
##com
##NI
206
##ano
##err
##erry
258
257
224
285
298
##ena
279
271
351
358
336
322
##ate
##ata
420
348
1974
494
660
1961
##ado
##ild
804
1950
##ola
850
##ima
COSP
##ech
##une
1946
##igh
917
##aya
##ust
##obe
##ations
##ubl
##ley
##iyah
int
Abdel
CCPR
1353
2050
Prog
David
IMF
pdf
1A
Ak
Af
AI
AK
Bal
Cl
Coun
Dr
Dom
FPA
Ge
GS
Gar
He
Her
Hab
IP
III
Mic
NG
Op
POP
RA
RC
Rom
Su
Sc
Str
Sha
Sant
Sup
We
ad
en
es
sc
sec
##PC
##oo
##93
##35
##42
##uan
##yl
##ya
##13
##06
##iu
##res
##ly
##fer
##au
##77
##72
##76
##24
##27
##GE
##AD
##EA
##med
##wa
##NT
##CO
##TC
##FC
##LOS
##RA
##WG
142
305
302
##ere
242
234
254
225
315
318
316
268
262
282
286
##ars
##int
##ines
##ont
##ons
##eni
604
607
404
##ase
##isa
526
650
347
484
363
367
##amb
663
665
416
385
388
##ouv
1969
1965
1962
##ader
##oma
##ity
1959
1953
1954
1957
##ace
##ose
##osh
##ira
##ett
##igr
##ott
##akh
##hael
International
##ernand
##eph
##NA0
1267
ISO
SPLOS
Ahmad
Convention
Robert
PRST
Av
AR
BP
BI
CF
Da
Dev
Dia
ET
ER
Eur
FB
Fin
Ho
Ir
Ind
Kl
Kim
Land
Me
Mor
Mah
Mur
Mac
Mir
Mag
Muh
NA
Nass
National
OE
PP
Ro
RNA
Sk
Sp
Sil
Sak
Ty
Tal
The
du
del
doc
ga
sh
##ook
##ni
##ty
##tion
##91
##36
##uy
##uel
##52
##ier
##ros
##rist
##82
##ei
##ld
##li
##fi
##ford
##ail
##gen
##si
##73
##78
##29
##SB
##SD
##EE
##EL
##me
##mm
##mp
##mon
##mart
##bek
##we
##HO
##IP
##IS
181
301
307
306
##era
##erem
244
314
264
267
284
##are
##arov
##inu
##ony
##onovic
##ene
##ence
##enko
278
333
335
331
330
323
320
449
470
590
##esh
580
340
342
455
##elop
##ama
##ames
##ammad
668
544
##ice
##ical
412
439
433
380
386
686
##oud
##ous
##ille
708
806
5000
##ited
758
1956
##olf
##uri
##ure
770
CO2
736
##ida
760
1944
1947
1942
874
820
unep
##abil
790
##ote
9196
785
##ula
880
887
##try
##aka
8000
010
1937
1624
1701
Ash
1514
Amer
DPI
CCW
##ski
1907
ESCA
Carl
SBI
Econom
Laur
Peter
DC1
inde
Michael
##elopment
ESCAP
020
1B
At
AG
AB
Ap
AN
AD
BM
BR
Ber
Ben
Bas
Bel
Bir
Bus
C1
CST
Cru
Di
DA
Dim
Dmit
Ed
EG
EB
EL
FS
FA
Far
Fel
Fre
Fernand
Ger
Gal
Gre
GGE
HI
Hen
Hos
Hir
Hill
Id
IEC
Kr
Kat
Lo
L1
Li
LA
Les
Lind
Mi
Mw
Man
Mas
Med
Mot
Mus
Mess
Mich
Morg
MSC
Nt
NL
Nic
Nov
Nav
Nations
On
Ou
Pl
Pa
PH
Per
RS
Ros
Reg
Sa
Sun
Sand
She
Tw
Tar
Tim
WC
Win
Web
Work
ag
dis
des
ed
ec
fe
he
me
mg
pro
##PS
##ool
##oog
##ny
##nited
##ta
##tor
##90
##uv
##ye
##54
##55
##58
##03
##ram
##rim
##kov
##eo
##eB
##ean
##lan
##low
##fan
##ao
##air
##gin
##hy
##vir
##75
##200
##SL
##SAT
##EG
##OA
##OD
##ma
##mb
##min
##mun
##6A
##wang
##per
##ct
##ca
##cern
##cast
##H2
##N2
##CT
##ML
##RE
##RI
1930
##001
1500
1300
1820
304
##ank
##anam
##anov
##anley
##ero
##eri
239
255
##ark
##ink
296
##ond
##alp
##alib
275
276
Adobe
501
508
502
353
357
##orn
401
408
402
339
325
443
444
445
440
442
525
527
472
653
655
428
644
645
640
349
481
369
365
453
450
569
567
497
662
614
540
##ican
399
390
537
374
371
370
413
410
460
468
432
387
633
631
683
##oug
##add
##ada
##ila
702
706
##ita
##ites
##itter
676
751
##ahi
1955
##olor
##ost
##imal
##iro
##eting
##idg
class9
class4
class1
class8
##abr
795
797
796
926
##oto
##ember
846
942
6000
864
Ali
Albert
##che
##anda
973
Christ
##iko
Inc
Infor
##ishi
CER
Marco
##ope
Stew
Stanley
##oci
##ock
##iya
##iyan
##anga
HRI
1803
##ancial
ICT
##ardo
Ashe
##STA
Amador
Fred
##ific
##sky
##ska
Anth
##oft
1244
1176
Salim
Black
start
##eau
SAR
##earch
##orge
Thom
concern
Madh
Francois
Andre
SGB
##come
##ights
NGC
POPS
Roman
esa
##igroup
Development
Financial
Muhammad
OEWG
docs
Economic
Dmitry
FAO
Morgan
Ntab
Twitter
##oogle
Stewart
concerning
2A
2C
3G
3A
3B
9000
AS
AA
Aw
AT
AM
Aim
AMA
AOL
BW
Bin
Bam
Bah
Bak
Bag
Bern
Berg
CB
CI
Cat
Cel
Cit
Cur
CAT
D4
DO
DD
Dan
Dat
Dha
Dall
Ele
EPA
Est
Fo
FF
FI
Gi
Gl
Gg
GA
Gon
Gor
Gord
Gust
Gmb
Google
Hu
HC
Hor
His
Hel
Hass
Hid
Hall
HSP
HFC
Hous
Il
Ig
IB
Ib
IR
Kal
Kam
Kur
Kun
Kart
Kle
Kha
Kum
Kaf
Kof
Kila
Lu
LH
LL
Lis
Let
Lav
Leh
Luc
Linu
Mu
M1
MS
MT
Mer
Mon
Men
Mil
Mig
Mak
Mill
Map
MAC
Ng
Nat
Oct
Pu
Pe
Ph
PK
PL
Pin
Pat
Pot
Pav
Pap
RE
RM
Rel
Rad
Rem
Rus
Rut
Rep
Rod
Rif
Rich
Sl
SD
San
Sel
Sah
Sec
Set
Sid
Sing
Soc
Serv
Syl
TB
TC
TT
TR
Tor
Tel
Tom
Tur
Tul
Tre
WW
Wat
Wang
Will
Word
Wolf
at
ar
bin
ben
cep
dg
der
dir
dep
dpa
et
ep
go
gov
ho
if
mail
not
publ
sk
sp
sub
sect
th
web
##ner
##nal
##nol
##the
##98
##45
##yan
##yah
##53
##16
##da
##dan
##ias
##ren
##rom
##rov
##ret
##rav
##rob
##rich
##kh
##ker
##kin
##83
##87
##ein
##eader
##lor
##lou
##lav
##land
##lib
##line
##ff
##gah
##gie
##se
##sen
##str
##sub
##hu
##hia
##ves
##ved
##vest
##S1
##SS
##SN
##Sat
##Smart
##GN
##Al
##EB
##ET
##ON
##OR
##Berry
##ms
##mur
##mation
##moch
##mult
##by
##be
##bay
##back
##65
##wan
##port
##pace
##ci
##ced
##cia
##crim
##HA
##N1
##TA
##FA
##ID
##KB
##LE
##LO
##LI
##MB
##RBA
##Reader
##WL
2019
2018
1521
##anh
##ery
##eration
##erSmart
240
##arm
##aria
##arng
##inson
##onment
##alo
##alent
##alth
##albek
##ench
277
509
503
507
605
608
602
359
352
##orat
##orts
##orld
409
405
329
328
##ask
##asan
##ates
##ated
##isch
448
446
524
522
473
471
477
476
424
421
426
583
647
646
559
553
552
346
485
480
487
482
368
366
628
457
456
565
566
495
496
##eld
##ela
##elle
##eline
##eleni
##amber
513
515
510
517
512
516
666
613
548
##ico
##ici
##ictor
394
395
398
397
570
530
377
372
417
691
690
464
461
462
466
383
382
639
634
630
637
##out
##oul
1964
CNN
##ade
##ile
704
803
##omb
##omen
##omat
##ite
##ition
##itut
##ities
##itron
752
##aham
##eda
908
##ole
##eva
##ury
##ural
774
771
##acm
##acion
##aceb
853
856
960
##oseph
CORBA
3000
##iri
##eck
##ecent
731
730
##eta
##ets
##ette
##uno
##uni
##unis
##idea
768
712
716
873
870
##igu
##igl
830
832
class3
class2
class11
923
921
##otoc
913
4000
722
726
##ays
##ayer
789
845
840
848
##use
955
952
984
##ull
815
818
869
866
8960
Corp
743
748
##2010
##ober
China
Chung
Chines
##ube
##reement
##haar
##roit
##ika
##ikov
1127
017
##agh
##agement
Ing
Inst
Income
CEO
Mary
Maria
Marian
##umi
##umber
##iew
Steph
1934
1936
Khan
Trad
##iyamber
international
1284
##ance
1929
1928
1927
##erto
##allah
091
##oka
038
Art
Arm
Graham
ISBA
ISSN
##owers
##uda
2023
2025
2022
##ode
##STAT
CRPD
##ournal
CCD
##pany
1737
allow
##ega
##ichi
2036
20370
1539
044
Broth
##rip
##berg
1397
26060
##aint
Salv
##ensen
Carol
stag
##ive
2975
Company
commun
##shar
Ahmed
Baalbek
CTI
CTOC
Maud
Robinson
SBSTA
##ipl
html
Party
##baah
1591
3101
Evans
Envir
Eric
Erik
Faitron
Minist
Research
29212
Associ
CHW
Naur
NCD
##mitte
Martine
Nyeleni
Rahim
Rahman
TPP
##errill
Country
Herbert
Habiyamber
FBI
Murng
Nasser
Type
Ashbaah
AGP
Basrah
FreeB
Henry
Motor
MSCI
Paul
meeting
##ondo
##alibah
Information
BlackBerry
Citigroup
GmbH
Hassan
IBM
Ibrah
Karte
Klein
Kafr
Koffi
Lehman
October
PaperSmart
Richard
Selim
cepa
dgacm
skill
section
webcast
##crimin
##otocol
Chinese
Brothers
Environment
Habiyambere
FreeBSD
070
1G
1D
1H2
3SL
3H2
4A
4N
A1
AL
AW
AST
Ath
AIC
Apr
ASG
Acc
By
Bh
BC
Bol
Bov
Big
Bab
Bent
Bart
Bub
Bik
But
Bib
Bang
Ball
Bell
Bial
BDI
Born
C4
Cy
C2
CS
C6
Cal
Cam
Col
Cent
Cand
Cre
Coc
Canc
Cong
Cast
Cola
CAD
Camb
D3
Du
D1
DS
DG
DK
Dal
Den
Des
Dil
Dir
Dob
Doh
Dut
Dep
Deb
Dok
Dong
DEC
Dick
Dug
Ek
Eg
E2
Em
EEC
Eual
Ess
F3
Fu
FN
FD
FR
Fab
Ful
Fish
Fof
Fund
Font
Faceb
G8
GN
GR
Gil
Gac
Gro
Geral
Gold
GAD
GPS
Ghaar
H3
Hy
H5
Hg
HD
Hal
Hom
Hol
Hur
Hot
Hay
Hard
How
Hof
Hai
HAL
Hernand
If
Is
Ion
INA
Ice
Ish
IOC
KP
Ka
KO
KN
Kar
Ken
Kor
Kir
Kid
Kab
Kem
Kent
Kob
Kro
Kong
Kerem
Kare
Kwang
Lt
LD
Len
Las
Lil
Lac
Lab
Lot
Lub
Lag
Lib
Low
Law
Luk
Lai
Lara
Liv
Lans
Lyn
Loss
LTC
Lisa
Lallah
MP
My
M2
MA
ME
MH
MD
MK
MM
Mis
Mam
Mass
Mov
Mos
Met
Mun
Mul
Mav
M000
MPA
Mach
Mind
Moll
Mone
Midg
Merrill
Nd
NS
NT
NW
Nen
Nor
Nam
Nah
Not
Nem
Nob
Nanc
NBA
Ot
Od
Or
Ok
Org
Oul
OEC
Off
OWL
Po
Py
P5
Pf
PG
PF
PI
Par
Pal
Pen
Pel
Pic
Pass
Pur
Pab
Pers
PAC
Pens
Port
PER
Panam
RP
RD
Ren
Ric
Red
Rec
Rab
Rub
Rud
Rog
Rai
Rach
Rast
Rene
Ralp
Riya
Sn
SN
SF
Ser
Son
Sen
Sor
Sol
Sab
Sep
Saf
SEC
Sai
Sara
Spr
Sung
Sann
Serg
Satt
SEM
Saint
Te
Tin
Tes
Tet
Tay
Tav
Tina
Tall
Tour
Tian
Teng
Tica
Tata
Tech
Tunis
Towers
WS
WT
WF
Wan
Wal
Wil
West
Wach
Wien
WSD
WHO
Women
an
ab
acc
asp
bu
by
color
do
dd
dr
da
don
dans
data
droit
dipl
el
epa
ff
fac
gouv
hk
hav
iP
iii
lC
mm
mon
meta
net
oo
on
om
ob
out
oss
pr
pl
pal
pol
pot
part
pour
rep
sw
str
sith
ta
tv
tir
vi
was
word
##net
##nav
##niv
##tember
##905
##41
##40
##48
##uu
##uf
##uw
##uis
##uil
##uev
##uary
##ym
##yar
##ype
##ymp
##50
##56
##100
##1000
##du
##di
##dh
##duc
##iot
##ras
##rad
##rick
##riss
##rino
##ridg
##kil
##kart
##81
##815
##eer
##eig
##eand
##lo
##lu
##las
##lah
##ling
##fo
##fr
##fir
##fiyah
##ais
##aine
##gi
##ga
##git
##gang
##su
##sf
##sc
##ses
##sha
##sell
##sess
##hi
##hw
##hen
##hor
##hoc
##hang
##hone
##vt
##vet
##vist
##vey
##ville
##vsky
##7N
##2A
##26
##225
##St
##SA
##SW
##SPA
##Soft
##GO
##GB
##GH
##AK
##AM
##EAR
##OO
##BT
##Book
##mer
##mat
##mid
##moud
##bi
##br
##bit
##buh
##bly
##61
##war
##win
##web
##well
##wup
##wick
##py
##pp
##pin
##ple
##pson
##cu
##ck
##col
##cert
##HP
##H1
##HS
##HM
##NDP
##NIC
##NCT
##CE
##CH
##CR
##CW
##Ti
##Tube
##Type
##DO
##DN
##DL
##DMA
##FI
##In
##IK
##KA
##LA
##LR
##RP
##RC
##WA
##Whor
2060
1900
1920
1085
1200
1520
2100
1810
1811
1460
1419
1422
1700
1757
##any
##anB
##anna
##anuary
##erat
2300
2500
313
311
312
2625
28E
##aran
##aron
##arat
##araf
##inar
##inov
##inovic
29C
29D
##ono
##onal
##ones
##alov
##alab
##aling
##enb
273
Adam
Admin
505
506
601
606
354
355
##ory
##ore
##ora
##oral
##orca
337
324
321
327
##asi
##asa
##asp
##ason
##asov
##asing
##atin
##ating
##atch
##ative
##ism
##isc
##isov
##istr
447
529
523
528
475
599
594
598
5935
658
429
423
427
422
##esin
##estr
##espa
589
585
648
642
551
5585
344
341
3460
483
486
361
362
629
620
627
626
454
451
563
561
568
499
493
491
492
##elf
##elen
##eles
##elyn
##amy
##ami
##amal
##ament
##amag
519
514
511
518
615
61N
549
545
547
542
##ices
##icom
##icia
##ication
396
571
572
534
531
532
378
414
695
697
465
434
435
430
436
389
384
009
005
001
007
689
684
688
682
6819
##oui
##oub
##oung
##ouss
##ouTube
##adr
##adan
##adette
##iln
##iler
##ilip
705
809
808
807
802
##itt
670
677
6776
754
755
##ahiko
199219
##edia
##edback
903
902
906
##asse
##ols
##olas
##evan
##eville
##ura
##uris
##ures
##urop
##urton
773
##aco
##acci
##ove
##ovan
##ovia
##ione
##ions
855
8525
8534
8584
8595
8575
969
967
9684
##osoc
##osrav
##imedia
COSPA
300905
##ire
##irim
##irst
##ecial
739
733
737
##ety
##eti
##unt
##unc
##unes
##idi
##idal
##idou
##idia
##idler
761
762
7658
1940
19420
715
711
717
879
871
878
8753
##iga
829
8215
8269
8242
8252
##iavsky
unmult
835
831
class5
class6
class10
##aba
##abal
##abel
##abag
794
7923
7913
7976
920
##ota
##emi
##eme
##ema
##ems
##emical
##embly
918
9123
9135
727
##aye
##ayil
##ayyah
##aykh
781
847
9449
9406
9427
9452
##uss
##ush
##ustr
##usko
951
950
956
9812
9805
814
811
810
812
883
888
8885
8896
8815
8828
8836
865
868
Alm
Alek
Aleand
898
892
##ingue
746
7000
##ake
##akov
##avo
##ava
##avan
##201
##chen
##chell
##chmid
##ando
##andu
##andra
##andeville
CRIC
##obal
1375
934
937
9319
9395
9382
10557
10554
975
971
Che
Cher
Chen
Chem
Chow
1541
1542
1546
##rey
##leSoft
993
990
9930
##roc
1038
10327
10341
##iki
##ikh
##ikha
019
013
014
015
011
018
016
##heiro
1302
1306
13033
Insp
10770
10721
10743
10729
10703
##isham
Marif
Margin
##ops
##opleSoft
##uto
##utu
##uti
##utinovic
##erniavsky
##ibo
##ibs
##ibel
##ibrom
##iburton
##erst
##ersh
##erson
##ersity
25070
##umba
##ief
##ieh
Stigl
Shina
Shahi
Sharon
1939
1931
1192
11935
1115
11185
##inae
Khor
Kharaf
Khosrav
Trac
Trans
##angi
##ange
##angel
053
054
inter
info
128C
##anco
##illo
13737
ICE
ICF
##ebel
##aft
##aff
##affer
##afford
##NAL
##NA00
1923
12269
1822
1626
16270
##erty
IDE
1296
1265
1181
##ally
##alla
##ioidea
1890
Abdol
090
Discrimin
##oko
1515
037
Arman
Arth
Grun
ISDN
off
##ude
##awi
##awa
2024
2027
1138
11593
1559
1556
15560
##ello
##oda
##odg
##odel
##ewel
12520
##ista
##estic
##estad
##essi
##essa
Amb
Ammoch
##ours
0257
Frank
French
##rys
Any
Anna
Anton
##ogo
##ogy
##oga
GCSS
##216
1904
1906
1171
14326
##antyn
Bron
Bruno
##1994
##riv
##rier
##rianc
2094
209B
1566
066
Agreement
##oyan
##terk
##eher
##ariat
087
Sala
Salman
Salame
##eyer
1848
1442
##ense
Mohammad
Mohammed
073
Blu
CMW
Matar
Matri
Matthe
Prev
Prim
Protocol
PCNI
Prok
stub
##ugh
##ugur
##ivo
21100
1854
1850
18570
14840
16880
##ansen
Comm
SAP
SAN
comp
##earn
1343
1882
26910
Cons
Maa
Maid
NPO
Robl
##press
##prink
##INCO
17725
##ission
ECB
SC5
SCDMA
##laa
1918
1917
1593
1590
1674
2454
2455
23370
22110
2289
2288
Evelyn
Flor
INC
INT
IND
Olymp
##rahman
##SCE
Khalil
Khalid
Enka
Faith
Guid
Hamid
News
Peters
conf
##ienn
##ience
##ienne
##annan
2471
##ashi
Assembly
APEC
Bank
Forum
Madaffer
Simonovic
Simms
indones
##498
##herine
1639
2874
2875
##encer
Marks
Abdullah
France
Francis
CLEAR
HSE
Kanye
McL
Malcol
Mitte
Mitsub
Marta
Ramon
Seual
Sarah
##28D
##ildirim
8048
8502
##echo
##ight
##ustin
Abdelai
Program
Davidson
1A2
Akh
AIG
Drag
Domingue
George
GSM
Garcia
Hein
Open
RAA
RCS
Sci
Strabag
Shaw
Shaibel
Santa
Super
add
##240
3888
##etti
##NA028D
CFSP
ETEL
ERB
Euro
Hoou
Irfan
Industr
Landstr
Mahmoud
Magna
PPT
Spencer
gaab
shwup
##365
##monov
8066
8747
8807
American
Carlos
1B2
BMG
Bird
Birgit
Busayyah
Diop
Feli
Fernando
Fernande
Gerard
Galad
Hosni
Idlib
Manuel
Management
Medina
Musa
Michel
Nicole
Navad
PHP
Rosenb
Region
Saiga
Sandy
Sheka
Times
Workers
disarm
edu
ecosoc
feedback
feaco
health
proced
##901
##uve
AdobeReader
##addour
##ostos
##abrayil
Christop
Anthre
Anthony
SARSAT
Thomas
Thompson
Madhbuh
Andrew
Ntabo
Ntaberi
3A2
3B2
Awad
ATM
Aimee
Bernadette
Catherine
DOM
Dhafir
Global
Gonale
Gordon
HCFC
Hisense
Halliburton
Ign
IRG
Kamui
Kumalo
LHC
Lucia
MTN
Milan
Miguel
Maputo
MACT
Puerto
PeopleSoft
Philip
PKM
Pinheiro
Radio
Rusia
Republ
Rodrig
Slov
SDM
Secret
Seto
Singer
Social
Wolfgang
depts
epoch
##nology
##989
##robat
##vestment
##alenta
##ischke
##eldin
##omatie
##itute
8564
Mariana
Stephen
Trading
Artawi
Salvador
Minister
Associates
Naurah
##mittee
meetings
Ibrahim
skilled
April
Butler
Ballantyn
Bellamy
Colin
Coca
Cambridg
Dohuk
FDIC
Fofana
Facebook
Gerald
Golden
H3N2
H5N1
Hotel
Haier
Hernande
KOTC
KNPC
Kareem
Ltd
Labour
Lotus
Lansman
MKD
NS5
Nenet
Notes
Organi
Ould
OECD
Office
Point
PFM
Persons
Pensa
Panamca
Ralph
September
Sannikov
Taylor
Technology
WTO
Wachovia
WSDL
diplomatie
ffd
iPhone
lCER
ossg
tired
##niversity
##81500
##session
##certific
##NICEF
10855
##onald
Administr
##asinghe
##uropa
COSPAS
unmultimedia
##emicals
##chmidt
Inspira
Shinafiyah
Kharafi
Khosravi
Discrimination
Arthur
Ammochostos
Antonio
Matthew
PCNICC
Olympic
Madafferi
Malcolm
Mitsubishi
Programme
ETELSAT
Industrial
Landstrasse
Birgitte
disarmament
procedure
Ballantyne
Cambridge
