[UNK]
[SEP]
[CLS]
[PAD]
[MASK]
!
"
#
$
%
&
'
(
)
*
+
,
-
.
/
0
1
2
3
4
5
6
7
8
9
:
;
<
=
>
?
@
[
\
]
^
_
`
a
b
c
d
e
f
g
h
i
j
k
l
m
n
o
p
q
r
s
t
u
v
w
x
y
z
{
|
}
~
¡
§
°
·
º
ß
æ
ð
ø
ı
ł
œ
α
θ
μ
с
–
—
‘
’
“
”
†
‡
•
…
€
−
∙
④
▪
○
●
や
丄
乊
位
佲
名
噒
圢
堚
塈
塗
妔
孨
嶵
庘
搂
攅
攆
攈
机
构
查
楧
楪
楯
榯
橧
檒
檚
檛
欒
氨
浣
涓
淎
淏
淐
淒
淕
淚
淣
淥
淧
淭
淲
渁
渃
渋
渕
減
渞
渢
渧
滼
濓
熲
犱
犲
疪
矷
砏
站
竴
笉
級
纭
网
职
自
茅
该
轰
釜
鈥
銆
鍑
鍔
鍚
鏄
锛
閿
％
＇
（
）
，
．
：
；
？
￡
##o
##r
##n
##e
##t
##i
##s
##m
##y
##p
##h
##d
##f
##a
##c
##w
##g
##l
##v
##b
##u
##5
##2
##x
##8
##3
##j
##k
##z
##1
##4
##9
##q
##0
##7
##6
##鈥
##檚
##淲
##淭
##锛
##庘
##€
##楧
##銆
##檛
##矷
##淣
##渋
##嶵
##−
##塈
##淎
##妔
##塗
##淕
##堚
##渃
##淒
##楯
##ø
##渢
##位
##名
##查
##自
##该
##机
##构
##网
##站
##淧
##丄
##渕
##攈
##茅
##犱
##笉
##鍑
##轰
##竴
##涓
##纭
##減
##ß
##ł
##淚
##佲
##橧
##や
##釜
##閿
##欒
##°
##º
##ð
##乊
##ı
##楪
##淐
##渞
##檒
##渁
##渧
##砏
##熲
##œ
##噒
##孨
##濓
##級
##淥
##榯
##攅
##æ
##淏
##攆
##滼
##圢
##犲
##氨
##鏄
##疪
##鍚
##с
th
the
##on
##ti
##er
##en
##es
##nd
of
##in
##or
##tion
##ed
##al
in
and
##an
##at
##ar
to
##it
##ation
##ou
##is
##ent
##ing
##ec
##om
##ic
##re
##el
##ro
##as
##ment
re
##il
for
##le
con
##ts
##ce
on
pro
##ra
##ol
##st
##th
##ur
##ve
st
be
##ter
##id
as
com
##ion
##ig
that
##ir
##ly
##op
de
##ess
is
##ri
##tin
su
##ul
##ith
##ver
##se
with
##ations
##ac
##ate
un
##ad
ac
wh
##te
al
##ity
##mp
or
##ting
no
res
an
##ab
ex
##pp
by
##ge
cou
##ers
##tic
comm
par
me
20
ch
##ort
en
##vel
##oc
##igh
##ld
##mb
##ff
##ow
##ain
at
##ational
##ut
##ial
ad
##ay
sh
##uc
inter
are
##os
rep
it
##ud
##me
##ted
##ch
##end
##us
##rom
ne
le
##iz
coun
##un
sec
##od
imp
##iti
##and
##qu
##um
##ak
##ther
was
wor
##ist
se
##for
##ary
##ance
inc
its
##ill
ha
go
##tive
##velop
develop
##ited
ag
he
200
you
sp
##fic
##im
##ence
rec
##ution
##ated
##ure
from
##ie
ar
##ould
##ven
##ies
pr
reg
##gra
this
all
not
dis
united
##ect
intern
##ip
co
##ard
##ap
##ant
##ia
##eral
gen
##ere
##all
##ments
##ty
have
##lic
##rou
##ates
exp
comp
cons
per
commit
we
##sion
app
##ities
##iv
international
19
##ich
dec
##am
##form
nations
rel
##mber
righ
acc
work
##our
their
prov
##ust
und
has
##em
count
pe
which
##able
general
##ib
##duc
##ous
pl
cont
##ish
##tee
development
ind
##gh
##est
##vern
##ans
ab
##age
man
##ition
##lo
##lud
##ace
committee
eff
##ome
pol
##min
under
##tiv
##ry
will
str
##ord
ass
##ear
govern
##ore
##uman
tra
org
##anc
la
human
##fer
other
sa
##ub
##ission
sub
##ell
supp
##og
##ong
int
##erv
##et
##ual
includ
pre
##ms
##ision
##so
rights
states
##ild
##ue
##ons
organ
had
op
been
##ress
also
tr
##ign
##enc
##lement
##gram
were
organiz
am
##ech
##olution
program
state
##ries
##ide
inform
##eration
up
spec
report
sy
##ep
ec
requ
##ical
##ach
##ret
national
##ake
add
can
conc
199
mo
should
##ult
resp
##if
wom
##oll
201
countries
fin
##ag
partic
##esent
ob
would
there
inv
##ublic
proc
##tit
##ice
cent
##ive
po
##ree
##ase
offic
##ection
out
cl
resolution
##onom
##ast
##ose
##par
they
##ession
##vention
women
bo
ter
##ari
##cil
law
grou
implement
af
soc
secret
##out
government
##ues
##stem
us
but
pers
##ine
his
econom
such
new
##iew
more
##ures
##ties
council
secur
system
##ors
##rib
serv
##ative
##oun
support
##ke
##ens
##ory
##reat
##ric
year
##lish
security
do
information
##und
so
##orts
peop
##ility
group
one
##enti
bas
child
##ular
##ating
mee
mar
fac
##ru
region
including
##ph
min
meeting
trans
asse
mon
##rac
##ail
ins
prot
##ern
##rough
need
##ade
##tw
disc
##echn
techn
appro
##omm
iss
pos
##ight
leg
may
prop
artic
some
over
##les
##tions
consid
car
##tical
convention
activ
##ang
el
into
##ific
commun
est
contin
au
commission
ro
session
##ks
high
special
##ond
vi
##ces
implementation
10
people
pri
assemb
through
##ime
again
rev
economic
dra
level
programme
##eld
any
these
assembly
cri
fund
##ind
##graph
##ot
##ablish
who
establish
##ely
des
##ian
##ren
##air
##olog
##ten
if
prom
sc
tw
##tain
concern
peace
##ft
gu
##uring
para
##eng
made
well
recomm
coop
recommend
##ference
cap
article
polic
use
part
del
provid
activities
##ile
##ack
financ
social
world
time
##een
how
than
##ound
##ective
meas
di
those
##ally
repr
fir
ev
li
secretary
##ev
##ange
##ices
##ected
incre
##go
##ollow
follow
mat
represent
te
process
betw
between
##cc
country
against
##ural
my
##mit
##one
##ass
sta
##ied
assist
equ
adop
##ters
auth
##ents
##ects
es
##au
##ays
##ok
when
##00
##til
her
##ful
your
##mes
rem
##titution
import
resour
##de
##als
##agement
##led
about
plan
chin
cooperation
##ved
##old
##tives
main
viol
tak
adv
particular
ens
fe
##ire
##ving
##rit
decision
public
##ible
fur
author
children
ra
promo
##alth
conf
env
##ious
pres
form
##now
##hip
could
accord
exper
##ency
dem
parties
oper
ord
non
##ateg
emp
##fore
lo
first
aff
##ration
##ilit
##vers
##ized
conference
##mbers
our
two
management
educ
measures
##ount
sit
ann
ful
them
##uation
nu
##man
##urr
action
further
##onment
paragraph
##ism
she
##lear
regard
set
provision
##iod
##ath
##inc
review
jo
produc
cour
republic
regional
##int
##ings
shall
particip
health
ref
bu
consider
mr
##ruc
envir
organization
15
only
see
draft
red
members
efforts
organizations
resources
##arm
services
during
##ise
##ork
proj
##ards
period
contrib
person
financial
doc
12
dir
##very
environment
number
bec
office
working
pur
take
party
impro
11
##row
end
afric
##loy
##eg
##udge
member
propos
##ization
##ining
##bal
what
diff
##ough
glo
know
##rop
ite
##av
order
##ning
##ength
##ble
assistance
stud
provide
said
##ys
ma
present
si
##red
ca
years
civ
##pr
##ges
global
ph
right
strateg
##xt
relev
education
dep
admin
##rol
civil
sch
nor
##act
issues
most
inst
bel
##tice
##ral
address
##its
##ability
loc
##ute
protection
##pt
strength
within
poli
##tor
##erg
##ident
mill
##elf
##ordin
13
technolog
make
ext
docu
must
mission
stand
relevant
call
##land
##arge
staff
ensure
##ince
respons
eu
after
##dition
##ite
based
##wn
princ
##atives
agree
many
sign
##ater
initi
def
addition
developing
agend
##are
av
china
fi
prac
ser
##ium
administ
princip
##stain
where
##ene
act
##gress
##ases
good
coordin
ach
##king
agenda
legal
curr
prepar
##mm
##tim
sustain
achie
policy
ver
##ants
being
related
budge
##teg
##tis
political
programmes
treat
view
institution
##ood
cor
training
reques
trade
##ily
areas
inf
hel
##ender
##tern
med
##ulation
while
18
persons
strengthen
discus
direct
capac
access
id
like
important
14
##ued
##ct
following
##enn
##ently
##li
both
fam
eng
control
provided
fra
among
great
dece
aw
build
ur
##ences
##ower
mod
att
ii
##omes
sm
##ever
since
##part
lead
##mination
him
off
service
sou
second
applic
december
21
enc
ban
ear
##ilities
prev
long
before
##vely
proced
##ey
##itor
##ariat
adopted
held
##urn
express
item
##ean
##ines
obj
ques
integ
coll
secretariat
cre
now
decl
technical
increas
help
16
val
30
bod
qu
deleg
##ential
poss
effective
##ause
field
lif
##tter
specific
europ
dat
did
pop
##ize
##ister
uni
every
account
community
rece
budget
assess
land
fl
three
##reed
situation
men
occ
president
##ror
continue
br
head
##ibility
17
em
depart
##ged
##oura
capacity
nuc
##ked
progress
##ner
opp
ris
##lus
prior
don
indic
employ
million
nuclear
grow
ju
##ob
##echan
however
frame
six
mechan
##ament
##ined
sur
##day
##eric
##iness
##ality
##isl
own
gender
##ecess
chair
require
bus
thir
##ici
role
local
conduc
comple
taken
differ
##pri
sustainable
legisl
established
##res
without
consult
used
recommendations
##eign
monitor
accordance
##aking
obs
board
each
##up
##iety
cult
framew
##ool
communic
violence
proble
submit
##une
##ogn
requir
design
##ov
fact
##ex
recogn
terror
anal
##own
four
##erc
##tention
mul
nat
same
identi
vari
char
improve
jus
##ese
##ivid
2006
court
technology
##med
disp
americ
respect
conflic
##iation
stat
avail
life
resear
weap
research
##orting
condition
dist
necess
##ale
discri
##ners
##ised
prof
maj
##ost
resul
contain
official
appropri
crimin
document
##ales
invol
full
encoura
##tively
remain
operations
exec
##ience
##arian
policies
very
way
territ
reduc
##tal
major
cer
##ital
representative
africa
change
data
##ros
##roduc
sever
##ances
open
declar
groups
000
##unc
south
il
meth
enh
contribution
school
back
##ness
criminal
democ
force
saf
upon
##ages
invest
approach
increase
##rab
partners
##ban
2008
guid
sw
air
reports
2009
23
mand
individ
2010
society
project
individual
bene
cases
compan
place
area
col
june
concerned
even
lab
rul
24
bi
water
##tig
comb
institutions
basis
foc
##ink
##ortun
25
2005
indust
framework
case
##atory
##ture
appropriate
##lig
consideration
##ris
2000
method
gra
##itarian
ret
##nel
##tle
police
##encies
bl
current
##sp
department
##iven
meetings
22
include
univers
perform
##ensive
building
justice
##uch
inves
provisions
milit
##read
note
enter
proposed
hand
##isting
qual
humanitarian
because
bro
fr
war
deter
developed
necessary
just
##cept
2011
issue
business
lim
july
fif
get
wel
##ived
promote
##ather
##ame
governments
##eping
does
various
##ule
##ators
proper
care
##airs
agreement
third
discrimination
day
found
##erial
star
levels
military
const
facilit
discussion
welc
expl
##rative
2004
oblig
needs
##till
according
focus
then
foreign
subst
achieve
available
deb
aim
opportun
##ross
##ateral
##idence
joint
##aim
given
regul
post
small
vis
##ended
##rug
conditions
fut
jud
total
##thing
food
last
chall
2007
spe
mal
##iss
decid
eval
##ruction
2003
func
allow
future
advis
execu
##ai
cost
possible
sector
assoc
investig
ou
priv
purp
question
still
##amp
union
noted
##tics
coordination
arab
family
conflict
##fication
rules
tim
##ove
study
administrative
european
31
term
particularly
##iving
position
annex
status
declaration
aid
##anding
vic
##ket
##verty
2001
poverty
##lusion
weapons
##ves
real
material
affairs
pay
##ocol
26
integr
population
find
##rael
israel
##ennium
analys
28
clear
tow
introduc
minist
less
2002
##pec
conte
##epend
central
considered
several
##ouse
continued
representatives
benef
rest
exc
monitoring
lib
much
##ately
underst
month
lit
succ
tri
vol
##ator
elect
crime
african
whe
##imin
2012
##goti
executive
pales
enti
relations
##ually
personnel
palestin
ge
step
oct
sex
therefore
projects
risk
vo
##men
##ling
##ists
##ends
negoti
##ran
##uge
##ceed
protocol
##other
##ah
##ope
impact
##ergy
principles
independ
environmental
bodies
required
##ug
beg
subj
democra
##hold
claim
authorities
##atic
1999
##ati
common
##istan
cover
##ober
##yp
##reh
sep
systems
identif
safe
october
##ax
det
##ially
space
centre
read
cir
##ave
##tember
tre
look
purs
september
fed
beh
agencies
resolutions
participation
delegation
circ
##ock
different
down
power
energy
undert
free
give
struc
taking
signific
return
drug
sen
production
rule
##ying
##sequ
compreh
prevention
results
cos
result
above
additional
29
pan
reform
serious
requirements
legislation
success
##alf
2013
bank
reach
espec
##vember
november
terrorism
especially
##io
importance
standards
treaty
##uce
another
##osed
arr
democratic
refer
means
disarm
refuge
increased
ve
##ering
##ories
instru
making
better
contrac
march
whether
minister
##cep
record
requested
pap
##oss
reporting
play
refl
disarmament
attention
belie
##ron
might
ple
##enous
effec
application
##ison
##ick
included
concerning
requests
imm
##az
indig
peaceke
treatment
submitted
private
jan
examp
occup
growth
ministry
comprehensive
list
##itation
sug
maintain
class
labour
indigenous
domes
##izing
investment
context
27
key
##co
move
advisory
##ior
traff
received
sl
pros
quality
section
chinese
towards
sk
sim
##ned
show
statement
procedures
domestic
eth
cultural
dial
summ
entit
regular
request
market
statis
estim
costs
peacekeeping
mig
##eria
##ests
##ending
analysis
mor
##orte
strong
amount
governmental
observ
traffic
cred
due
##abor
existing
funds
significant
##equ
##ars
constitution
##ogue
strengthening
shar
armed
pot
five
ke
nam
wish
##onse
##tices
recent
##ives
terms
establishment
adoption
gir
##port
##aced
198
response
assessment
team
rapp
fully
##ash
chang
agreed
1998
mandate
bra
here
##tif
too
problems
certain
##orteur
rapporteur
60
pen
put
##olid
##igin
##uss
undp
america
best
##mar
##ward
reas
exch
perman
##uary
suff
least
agency
##ledge
decisions
promotion
challeng
girl
house
typ
##dic
responsibility
employment
sour
unit
peoples
expressed
targe
threat
asp
lear
strategy
profession
##sh
##aged
outc
emerg
substan
hold
netw
planning
regarding
contained
bar
##eness
forms
recall
transfer
director
evaluation
div
old
##ways
elimin
room
authority
enhance
january
dialogue
forum
##ections
diffic
permanent
bal
gre
tur
##isms
conn
origin
enfor
become
aud
experts
far
tas
let
reported
called
practices
##por
##ified
sci
financing
administration
50
apr
bur
##gether
income
##angu
subject
jap
##ump
equality
partnership
rate
##has
##enth
come
relating
final
##titute
annual
increasing
contributions
company
entitled
ira
##ek
##leg
early
##reg
forces
effici
previous
japan
cod
large
yet
##ograph
##less
never
next
providing
##eal
##ises
deli
knowledge
april
iraq
days
langu
though
##uted
##ipment
model
##tification
##tional
##abilities
##ours
conclusion
pursu
35
sing
say
##thers
##ried
sup
alread
goals
##imate
matters
mechanisms
performance
already
tel
##ng
##ced
##ising
agric
temp
arrange
east
line
together
aug
determin
property
decided
clo
tal
trib
##ics
sum
##itiz
subs
agricult
##hib
top
##ecting
deal
actions
40
##tims
##mental
sud
practice
procedure
reduction
victims
lack
think
proceed
ent
##unch
economy
feb
emphas
natural
territory
sugges
cop
self
##her
often
took
notes
strategies
outs
##aster
camp
eas
##use
met
organized
climate
job
strategic
challenges
date
freed
short
trust
laws
##ological
value
consultations
cy
##areness
awareness
example
##elines
always
##itive
word
##ruary
operational
documents
prevent
little
scienti
february
teach
safety
august
cust
##que
young
regulations
light
##mission
hear
equipment
discuss
panel
age
russ
##erate
##though
anti
obligations
prosec
freedom
bill
harm
living
adj
provides
violations
bre
fail
##ones
although
arg
initiatives
priority
home
tax
##over
accoun
workers
plans
operation
addressed
broad
##ured
press
commitment
mob
posts
palestinian
detail
effect
needed
caus
iii
communication
refugees
im
##onst
dev
exam
ess
agreements
leaders
ms
pun
past
##oy
##omp
abs
mechanism
integrated
aust
kind
acts
compar
point
enterpr
sent
death
mean
transport
principle
conduct
sel
today
##ief
arms
compe
bri
hiv
mid
##aw
interest
few
paper
exchange
low
##ease
##aid
##cent
thus
##ints
##cement
##ification
problem
volun
potential
rac
why
basic
equal
island
capital
independent
33
pass
##ung
having
using
associ
32
pat
##ians
relig
1997
responsible
infl
bring
distrib
please
##arters
##utes
matter
body
iv
sal
##aran
##aken
internal
poor
recommendation
promoting
multil
rural
table
##aff
##oses
chairman
involved
sexual
cal
asia
meet
infr
objec
trafficking
ger
##ilar
summit
port
##rial
##ither
##thern
around
stress
evidence
items
objective
fourth
cris
fri
king
exerc
ide
##ury
unf
##uty
experience
##ead
##ream
cann
clos
communications
guidelines
##rec
counter
##ipl
communities
nature
aids
steps
ele
kore
wid
##ef
going
compl
former
displ
dest
want
##crib
##ered
compli
able
money
approved
questions
instruments
similar
tribun
hard
adequ
travel
conclud
carry
recommended
collabor
begin
multilateral
loss
writ
effects
launch
1996
demand
limited
pursuant
gr
##lemen
##ops
happ
ground
higher
greater
headqu
multi
opportunities
network
##ding
tool
##oming
forward
##urs
##acy
##ably
letter
separ
offices
course
initiative
prepared
obser
combat
facilitate
division
code
vul
##way
##xic
##anced
funding
affected
famil
purpose
understanding
##gn
offer
unc
experi
standard
vulner
chap
near
committed
science
surve
officials
punish
headquarters
dam
##to
##omin
consequ
appo
statements
missions
delegations
professional
fa
apply
articles
ensuring
aspects
sudan
##lementing
52
ll
turn
##tary
##bit
##tioned
##isc
once
##ulated
expected
##vernmental
1994
calls
girls
##ana
medical
biennium
fifth
##ery
consist
2014
road
recommends
university
entities
arrangements
custom
objectives
cannot
59
aut
hist
others
##tors
##mal
##wa
##elves
reaff
coven
manag
##astruc
proposal
individuals
industry
reaffir
solution
##xim
##ada
##ador
expend
informal
expert
corr
europe
opportunity
share
ill
infrastruc
65
bord
run
tort
##iter
1995
respond
regions
continu
crimes
provisional
products
north
urban
aimed
outcome
58
##icial
deep
fundament
whole
industrial
##ging
##lied
##ina
intergo
prec
prison
facilities
prim
##eva
statistics
enforcement
close
intergovernmental
48
altern
web
currently
speak
scientific
complain
covenant
44
55
city
fish
york
##ees
##edi
prohib
apprec
197
informed
protect
carried
guaran
##going
months
competi
47
64
##ension
youth
##kets
##rought
conducted
materials
benefits
compliance
45
categ
citiz
rap
try
##app
##aries
implementing
implemented
desp
text
phys
german
dar
done
emb
hous
inn
##ased
until
compon
feel
##loyment
proposals
relationship
negotiations
62
##line
issued
overall
presented
crisis
34
core
hos
later
##dom
ang
week
charter
functions
effectively
42
sat
##ption
stated
##acter
chem
geneva
tradition
media
english
culture
debt
reason
torture
36
56
face
name
wide
##ne
##self
##val
##uations
##ania
##veness
commissioner
improving
undertaken
russian
essential
hours
rad
##atch
reference
enj
effort
processes
students
construction
skill
adjust
infrastructure
eg
lin
inj
alloc
contribute
millennium
companies
fifty
tribunal
host
##oid
##wing
##lies
##tiveness
rein
##ilateral
compens
supported
participants
schools
fil
##urement
1993
institutional
american
keep
task
expendit
fundamental
51
aver
##ions
unice
accept
interp
got
arbit
regist
##licit
obtain
reduce
methods
function
purposes
behalf
circum
adequate
families
unicef
49
big
har
rather
##ze
##akes
appear
paragraphs
indicators
federation
66
dri
##ipp
##ming
##anda
supply
times
cross
pac
##ya
seem
manner
##ology
judicial
54
minor
transition
participate
elimination
connection
den
sol
##action
parl
neg
percent
officer
afgh
preparation
universal
korea
##pa
stock
cho
itself
insp
critical
event
resource
technologies
integration
legislative
dr
jur
##amb
##ilization
price
commitments
##ify
##racy
institute
100
concerns
personal
##tisf
directly
association
afghan
cr
lar
##wh
##isted
leave
opin
##ically
officers
demonst
love
create
flow
benefit
substantive
language
61
hope
side
##den
susp
reserv
leban
##aps
amend
simp
identified
struct
primary
parlia
iran
##dle
stake
##ama
upd
mother
sett
exercise
enjoy
cand
##uel
##zer
##ites
##enty
worksh
governance
##feration
positive
specialized
below
circumst
39
mic
##nic
##hab
##ortion
##itable
conv
whose
discussions
citizens
69
kill
oh
says
##ij
thems
detention
acqu
##ody
##tenance
maintenance
fulf
avoid
encourage
structure
migr
recalling
chapter
themselves
57
fre
flo
sens
##ik
##cr
##omb
ongoing
units
interests
summary
distribution
du
fav
half
##iting
##orks
##omed
sea
centres
##ensus
minim
transpar
scale
restric
claims
changes
subsid
proceedings
chemical
average
pacific
san
##ins
##ination
unh
##ancing
audit
41
cub
doll
fig
##erous
##orary
alle
mexic
##izes
disabilities
satisf
scope
recognized
introduced
kingdom
stakehold
53
bir
dou
##inted
proli
##idents
##tees
##ibilities
india
activity
peaceful
mentioned
immedi
elements
mass
##na
##edic
##ature
##ica
##amic
events
sixth
estimated
difficult
despite
proliferation
led
mind
##most
illeg
innov
juris
##ha
##orn
away
successful
cn
ste
along
civilian
sixty
ethnic
larg
amb
live
west
forest
developments
came
earth
character
reached
movement
parliament
circumstances
46
wes
##of
##rary
things
##eless
register
compet
canada
points
educational
improved
encourages
start
38
hon
paid
##istic
##ides
across
throughout
lik
advance
receive
introduction
referred
source
single
border
37
ever
fem
##ier
##arch
commerc
enable
enough
governing
##ruit
priorities
##icient
guidance
credit
housing
skills
bure
##ler
##rian
soon
describ
achieved
complex
territories
vote
##ronic
deliver
outside
middle
voluntary
brought
ic
rom
ways
##ient
##uting
##ense
##ank
##oph
left
preven
procurement
esc
seek
goods
corpor
indicated
contract
religious
mexico
western
43
gl
ir
mus
oil
util
##af
congo
parts
##unic
arm
consolid
raised
periodic
investigation
68
era
either
log
mut
rates
##aign
##els
asked
goal
196
##ancy
amoun
1990
##versity
known
addressing
growing
israeli
brief
candid
commercial
63
dated
fire
hong
lower
round
##yl
##ume
concept
bear
comments
disse
##round
explo
applied
markets
election
formal
believe
penal
campaign
words
harmon
##emp
##tt
##tial
##entin
extern
##osition
disaster
##elling
##key
continues
revised
defin
emergency
##umption
dipl
tro
vir
##ring
##more
##by
##isters
active
export
subsequ
initial
urg
applications
complete
trea
effectiveness
efficiency
austral
influ
diplom
##ont
##ert
##ane
bey
compu
##ously
finance
highl
studies
designed
treaties
fall
mach
##oo
conven
unep
supplement
assets
establishing
takes
achieving
views
terrorist
welcomed
trial
green
associated
physical
cle
miss
went
##overy
##ps
##duce
##ats
reiter
##ired
##riage
repl
relation
abuse
assign
submission
invited
twenty
collaboration
fair
gain
##ua
##know
really
stop
stri
unct
recon
decre
intell
consultation
encouraged
debate
braz
##region
agricultural
germany
stakeholders
beyond
bul
pak
vac
##ored
##ental
##aces
sectors
elections
announ
signed
defence
visit
drugs
discussed
vulnerable
compensation
demonstr
external
er
farm
##ae
##ened
adap
seen
gener
##lications
includes
optional
approval
completed
sources
balance
traditional
cause
kong
night
slo
##lav
##view
##uf
##ested
isl
unid
##ades
spons
##enced
##urred
extre
involve
remains
billion
brazil
70
mine
range
##eth
##ii
##enary
##org
##oral
confer
exist
sev
consensus
supporting
woman
economies
##rench
responsibilities
welcomes
federal
migration
survey
afghanistan
jurisdic
pakistan
base
##uts
##aly
##oles
stage
net
consum
##ival
ability
adopt
accountability
##resp
understand
type
agriculture
argentin
punishment
unctad
cur
sanc
##bu
tour
##idential
##ush
##iet
prices
useful
practical
factors
difficul
thought
destruction
hab
mer
##pl
##hic
stability
accomp
contact
##ought
extent
corru
displaced
appoint
##ijing
illegal
som
##nes
##pro
##orial
charge
permit
2015
situations
furthermore
france
decides
vehic
observations
enterprises
unhcr
dang
god
hung
rene
test
wind
##oke
beijing
detain
alia
couns
seven
##ibb
ratif
courts
preparatory
analy
obligation
senior
target
delivery
appreciation
bureau
duty
ku
uk
##verse
almost
recovery
internet
plenary
poll
product
sched
northern
urges
weapon
majority
occupied
rapid
negative
late
wit
##ton
##we
##be
##erve
##vereign
##used
incor
heav
plat
sovereign
sessions
remed
extra
achievement
sharing
racial
ey
french
mom
nin
pic
pub
yes
##ix
##acks
nothing
appeal
finally
follows
violation
advice
site
setting
longer
temporary
clean
lives
ps
##tise
##tific
##raft
deg
##ude
expand
##itions
subregion
syrian
transmit
conventions
engine
leading
covered
crit
wr
degra
parents
relief
##ourn
content
##tically
presence
depend
modern
requires
dollars
likely
incorpor
fle
lot
sound
tell
##ique
##enge
decade
marriage
caribb
distric
electronic
independence
consequences
consistent
competition
lebanon
eradic
##ufact
500
cut
fight
judge
##eed
##bo
prosp
##ulations
resol
enab
##ished
manufact
settle
created
challenge
turkey
absence
compared
interpret
minimum
alleged
computer
jurisdiction
caribbean
67
bilateral
cash
link
ten
tun
##onia
##oslav
implications
moreover
guine
phil
phase
attack
opening
approaches
explain
positions
sense
prosecut
##build
platform
ben
fo
pi
yug
zeal
##bi
##atter
##urance
##ulate
##erson
trac
phot
collection
budgetary
risks
##lusive
improvement
geograph
reflected
friends
tools
birth
exploitation
conferences
renew
yugoslav
80
eigh
hop
sil
##ych
##ple
##pet
##hood
##gin
##ening
asian
ship
measure
mainly
series
creation
allowed
clearly
entry
leadership
enterprise
written
unido
somal
gran
hy
lic
pack
sti
##oks
##ee
##ta
##yn
##ighb
##atest
latin
1992
something
##fully
confir
lost
emission
colle
instrument
records
statistical
accounting
alternative
opinion
australia
argentina
75
makes
rw
##iary
rehab
forty
sure
##temp
mem
chec
neighb
spir
195
##augh
remo
serve
##lier
applicable
quick
donor
remained
enhancing
judges
entire
types
original
micro
highligh
publish
##building
zealand
rehabilit
hoc
mad
##tation
##alities
##aria
acknow
cha
attemp
haiti
recently
regime
book
cooper
planned
defined
heads
illicit
swit
limit
reasons
causes
beginning
registration
female
corruption
ed
solid
acting
haz
arch
coher
added
ministers
ministerial
learning
partnerships
cyc
friend
history
cuba
ninth
bol
hot
nig
vill
wal
##ony
##anch
alg
ago
art
expect
tru
respective
overs
draw
thank
break
caused
egy
settlement
islamic
kuwa
guinea
et
wall
##imb
##ma
comment
waste
perpet
generally
membership
##egu
##enna
fields
conflicts
identify
constitutional
conclusions
suggested
fulfil
mutual
egypt
canc
cell
##miss
##inking
told
##ece
##rew
##ria
chief
indones
rob
raising
depos
instead
standing
specifically
datab
didn
airc
reflect
slow
efficient
determine
continuing
witness
bang
ire
mag
sold
win
##nia
##ground
forced
dead
##adem
academ
noting
command
vienna
corresp
banks
involving
safegu
welcome
detailed
damage
expenditure
sanctions
ireland
correspond
son
ul
thing
##ero
##raw
stor
accep
semin
organs
closed
approxim
guide
confidence
buy
creating
accounts
closely
rehabilitation
77
85
dia
domin
fell
journ
lay
##sw
##cs
##ented
##acts
recruit
constit
consumption
##tivity
obst
firm
empower
civilians
capacities
recognition
outer
##ception
hosp
aircraft
mil
ng
wa
##esting
##ectively
##asting
##stream
actively
regulation
places
doing
advant
ended
actors
prepare
southern
quar
departments
reduced
democracy
grad
determination
superv
observers
component
wrong
oversight
90
bos
cat
gas
lu
##uff
##uay
##arity
search
peru
1991
expertise
affect
joh
deployment
recognizing
swed
payment
excell
pressure
guarantee
registered
involvement
criteria
district
settlements
96
cro
owing
sle
watch
##wise
town
##istics
forth
reproduc
committees
saw
transl
delay
operating
norway
focused
heart
separate
satell
transparency
reconcil
moment
gave
##ots
##ray
station
commod
intervention
##itig
release
indeed
intens
peacebuilding
mainstream
reviewed
contributing
everyone
reducing
started
began
household
languages
islands
pattern
autom
floor
honour
psych
bad
cru
element
fill
nar
nine
ri
##inary
congress
coming
##umed
decide
optim
organizational
factor
representation
raise
normal
urged
chairp
labor
timely
georg
stressed
unfpa
category
habit
approximately
00
gh
ky
mort
vice
##oring
italy
marine
direction
attend
keeping
pension
details
idea
stip
brit
dim
father
mac
num
pow
zone
##eme
##iop
##dem
uns
##ables
##chr
weak
internationally
sof
someti
draf
participated
actual
actually
medium
engage
offence
offences
owners
colomb
electoral
looking
selected
launched
indonesia
der
oce
pati
thous
conform
##ocks
##uck
arri
disapp
intended
##aging
users
usually
news
##enses
contributed
engaged
identification
documentation
sufficient
concluded
urgent
diplomatic
boliv
thousand
300
73
fost
##wide
##band
##jan
##erra
##stan
alleg
##aint
reli
accel
##ression
elabor
maxim
belong
principal
branch
background
construc
explos
learned
easy
prosecution
meaning
portug
radio
doub
difficulties
ukra
spirit
recruitment
fuel
gaz
iae
rich
sought
##eases
##gment
##orrow
##ape
prem
pregn
boy
lawy
advoc
purch
coordinated
combating
speed
palestine
##ugg
determined
losses
components
described
candidates
influence
seventh
subregional
iaea
gross
moun
ori
page
sales
##national
##body
##asc
rej
##ilt
produce
align
answ
##ows
##enders
##usal
##itim
194
subpro
syn
##ift
center
outp
elected
assistant
earlier
values
assessments
employees
recognize
ready
refugee
contracts
outcomes
turk
outst
failure
histor
solutions
amounts
definition
interpretation
rwanda
acknowled
sweden
sometimes
kos
lord
nic
##rators
##ses
##he
##iling
withd
##ights
repe
nep
##ques
works
subc
options
uses
remar
produced
sierra
##lands
serb
attach
attrac
quan
everything
thirty
territorial
foundation
integrity
findings
burund
talk
ohchr
frequ
dig
gold
mis
map
pil
##ds
##uate
##endum
##quid
##ames
finland
##tware
thematic
coordinator
##tegration
medic
ethiop
##zerland
ambass
switzerland
subprogram
outstanding
ah
cam
dyn
ib
mess
size
ww
##lined
##rete
##elt
stre
except
leone
secure
inclusive
spoke
expan
consent
true
insurance
highest
discrimin
resulting
certific
entered
occupation
teams
targets
emerging
embar
amendment
workshop
subsidiary
degree
eighth
kuwait
obstac
software
71
eight
rise
##aj
interim
conserv
appe
worked
train
##ife
transform
legitim
commissions
diversity
##ovo
remaining
hands
constra
behind
shows
threats
learn
super
teaching
freedoms
structures
accepted
ngos
colombia
expansion
ken
merc
wed
##atively
##uan
##rel
sun
##quir
invites
clust
prime
followed
mandates
biological
accordingly
visits
eastern
observer
flex
prosecutor
emissions
chairperson
dimension
76
hol
hur
##face
##gest
##esp
##ict
##ason
##actions
unm
heard
predic
disease
inten
transnational
##auti
instance
##tish
donors
starting
looked
played
emphasized
carrying
categories
adjustment
allocation
reintegration
replace
decrease
britain
87
blo
bind
cruc
kh
latest
pain
tan
tit
var
##iers
##fur
##fect
##umb
##eding
inp
tom
##ley
##theless
stay
paras
##unity
constitute
wee
prefer
trends
nationality
concrete
respectively
mines
inside
funded
liquid
scheme
norm
extended
fix
himself
possibility
requirement
availability
enhanced
behav
maintaining
moroc
##mark
austria
calc
trying
inspection
workshops
preventing
foot
hazard
georgia
powers
ukraine
kosovo
nation
ug
##eb
##ively
##pective
##haps
##active
unless
##teenth
inclusion
internally
expenses
supports
cooperate
equitable
participating
presentation
strengthened
resulted
combined
lessons
undertake
morning
topic
teachers
volunte
webs
percentage
immediate
heavy
truth
database
satellite
subcomm
hus
jer
mail
mitig
wan
##20
##asters
conting
##ola
chile
shown
asset
ratification
considering
extend
secondary
aims
namely
substantial
holding
emphasis
reaffirms
arbitration
migrants
sanitation
figure
immediately
tunis
reconciliation
burundi
www
weeks
ep
gather
sale
voc
vide
##tes
##eline
ask
##lying
##ula
##set
exceed
che
span
complement
perhaps
placed
invent
faced
courses
maur
##prus
deploy
attacks
expresses
collective
surv
frameworks
observed
shared
tasks
cyprus
british
expenditures
minorities
appointment
counsel
check
highlighted
croati
street
cold
hor
ilo
jord
munic
sam
##ham
##vina
theory
stra
unemp
nether
impris
spread
supplies
clin
perspective
##tension
install
occurred
malays
investigations
victim
racism
concluding
darfur
##zego
##where
convic
favour
dissemination
intellect
extrem
accomplish
somalia
bosnia
ownership
subprogramme
appeals
jordan
municip
bound
erit
hund
nav
od
rail
warm
wood
##oted
##bur
##anmar
##arily
##asing
reme
retain
anim
distin
myanmar
herzego
affir
globalization
dispute
benefic
colon
front
regulatory
speaking
liber
networks
eliminate
increasingly
ivo
experiences
prohibition
army
vehicles
sovereignty
nigeria
reproductive
habitat
allegations
kenya
crucial
netherlands
eritre
hundred
79
91
ict
vital
##eased
##coming
##greg
##oud
conver
##urd
##uses
spain
##iber
abol
saving
margin
highly
matern
processing
became
aware
expression
object
contains
telec
widely
linked
bearing
journal
disappear
gaza
herzegovina
83
bah
cities
dur
dail
fear
hom
saint
##tr
##aving
##vant
##erted
##enting
inh
##arus
forests
prob
defic
extension
diseases
coast
generation
contents
##ague
century
clar
guy
norms
valu
populations
investments
achievements
investigate
liter
strongly
names
dealing
mobilization
transportation
write
appointed
subsequently
tourism
schedul
eradication
published
daily
84
98
azer
giving
je
os
won
welf
unod
unif
##utri
worth
reconst
coal
otherwise
facing
facts
facility
considers
seeking
deputy
belarus
valid
opened
timor
barb
complaints
obtained
minority
eyes
engineering
john
bolivia
binding
morocco
croatia
intellectual
72
78
bed
ball
cd
cas
game
listed
sn
##lines
##bai
##erce
##eries
##esco
##art
##road
reve
condem
ones
online
##rable
##urate
##igence
##atemal
unable
alone
neither
cote
compris
province
##etary
##ept
guatemal
worldwide
technological
attended
designated
containing
severe
black
exclud
returned
recorded
estimates
examination
sentence
salv
nearly
managers
migrant
innovation
competent
existence
cycle
numerous
portugal
ambassador
discriminatory
husband
ivoire
welfare
82
bab
card
felt
kne
oly
##table
##po
##cri
##lades
##bon
##ka
thail
##ara
##asion
cong
##pped
chan
##akers
amended
symp
fine
door
##entially
minutes
afford
belg
responses
completion
liberia
coverage
reforms
examples
showed
wishes
failed
faith
prisoners
reinfor
choice
simple
subsequent
announced
enabling
geographical
coherence
banglades
remember
azerbai
reconstruction
thailand
bangladesh
azerbaijan
400
94
none
nomin
ren
ran
race
squ
sell
vision
##emb
##yan
##ded
##tieth
inher
##iles
##tered
notice
##ocked
impacts
specified
##ommunic
drawing
sites
endors
##aves
award
facilitating
explan
identifying
estimate
letters
previously
argu
demands
happy
functioning
crc
penalty
virt
philipp
college
neighbour
etc
perpetrators
empowerment
quarter
cruel
nepal
ethiopia
inhuman
unodc
olymp
81
cp
cz
dign
gap
master
vers
##gs
##ugh
##uador
##tition
##the
beauti
##advant
alban
restor
##ighting
##osis
##osure
county
##akh
arising
disasters
disadvant
decent
accomm
option
ecuador
concent
user
proportion
deser
remind
authorized
formulation
built
administer
engagement
attrib
identity
improvements
execution
frid
maintained
summer
changed
changing
satisfaction
dissemin
quickly
advantage
lux
ocean
conformity
lawyers
pilot
tunisia
malaysia
guatemala
accommod
95
dream
dedic
lia
path
rose
sr
##30
##atri
toler
##riting
unesco
commerce
interview
interested
armen
amm
##eph
ecos
##titude
issu
promoted
coordinating
sustainability
employed
recognizes
grand
getting
covering
##tify
##tified
jobs
breach
examine
destro
grounds
customs
amendments
simply
acquis
preventive
pollution
ultim
drafting
mountain
website
valuable
philippines
89
86
kept
pending
sides
tend
##rate
##zh
##rap
asyl
comes
##irect
unr
##osph
wash
arres
disability
willing
sah
box
discipl
else
primar
authors
##oking
doctor
location
popular
unique
owned
disputes
judici
ministries
belief
immig
regularly
significantly
temper
speakers
acceptance
seems
enjoyment
restrictions
chemicals
largest
advancement
delivered
detained
resolve
mainstreaming
##usalem
fixed
jerusalem
beautiful
asylum
primarily
74
700
92
hit
##ivers
##wan
##ertain
##oration
resident
reserve
shan
impar
imposed
##apore
##typ
##load
poland
trading
upgra
persist
mining
monetary
anything
##oto
advanced
formed
##egal
depth
depri
##ennial
quite
lands
doesn
entity
suffered
barri
singapore
russia
mobil
religion
offered
turned
flows
update
duties
figures
troops
yugoslavia
chamber
sleep
legitimate
subcommit
eritrea
endorsed
judiciary
88
dro
die
md
male
npt
sri
wond
##rid
##rated
##iate
##ield
##ao
##atically
##cing
##erated
##aled
##atures
##thes
white
sections
##itime
accused
index
termin
maritime
transactions
carbon
numbers
instruc
euro
verification
differences
facilitation
supre
telev
teleph
teacher
mobile
associations
ideas
multiple
fao
autonom
double
utilization
assigned
farmers
granted
hyd
deposit
safeguards
river
turkish
intention
czech
desertification
friday
bat
born
cul
fat
fast
gon
ld
length
rain
##ole
##iques
##cy
##gen
##jud
thurs
##time
##enom
unity
unilateral
##osing
incidents
pred
released
##usted
##ibly
plant
manage
##ifying
systematic
capabilities
match
equival
publication
presidential
demob
camb
assessed
indicate
##unction
industries
grave
blue
substances
realization
payments
papers
brand
transferred
burden
##ography
nevertheless
talks
selection
inflation
dark
##ambia
updated
killed
corporate
troop
reiterated
adaptation
sponsors
expanded
thousands
##quiry
cluster
vocational
spanish
unemployment
imprisonment
destroy
subcommittee
coc
dil
hal
hour
les
lad
##otyp
##ystem
##vak
##ber
##bek
##atar
##rain
stations
##ids
##tine
##ull
##ulating
unl
ali
resist
exemp
regret
compil
##emen
indirect
abroad
strict
subpar
##elled
organis
pointed
bott
socio
mark
##otes
equally
feed
healthy
mrs
currency
prevail
juven
surpr
statute
brok
constant
finding
protocols
senegal
believes
movements
1989
iraqi
widesp
vulnerability
manager
angola
choose
##uela
convinc
transparent
romania
picture
video
belgium
thursday
widespread
600
games
lines
pra
testing
vene
##rig
##eav
##ios
##iance
##dp
##with
theme
##rep
reven
stable
##sement
leaving
##unition
sports
spok
##ieties
pet
contra
assisting
trend
programming
nationals
##ago
invitation
techniques
105
anyone
thanks
represented
equity
envis
periods
endeav
helped
encouraging
performed
volume
negotiating
exchang
entr
grant
reasonable
fulfill
reiterates
hoped
soldiers
mortality
historical
withdraw
ibid
variety
behavi
hazardous
telecommunic
salvador
knew
supreme
subpara
biod
crop
kaz
lank
mix
roll
sor
send
wai
##iversity
##limin
##eded
##arc
story
oral
##get
repatri
##udi
aggress
##lication
explicit
comply
wealth
samp
prelimin
protected
protecting
legally
vii
revision
drawn
increases
yourself
violated
preserv
considerable
student
preparing
indicates
consultative
##ova
profit
declared
substance
mali
costa
balanced
greece
stresses
innovative
sloven
slovak
remedies
solidarity
algeria
hospital
patients
embargo
uganda
ecosystem
television
cambod
subparagraph
preliminary
ap
bit
fit
fisc
gives
ji
kn
lat
mental
pa
tib
tai
wife
writing
zh
##rd
##son
##fort
##via
##zuela
##inance
##aters
##arag
##eland
reality
sty
deem
chain
attain
sets
gene
undermin
saudi
books
someone
##ifications
destin
deliber
productive
phenom
controlled
212
integral
receiving
difference
##resh
swe
businesses
career
jointly
integrate
contemp
liberal
prostitution
summar
broader
experienced
managing
complainant
rape
links
reservations
structural
machine
degrading
##aught
remote
nicarag
certificate
obstacles
constraints
acquisition
biodiversity
phenomen
93
97
cease
drew
fun
mold
pal
pill
rang
render
tenth
urug
viet
##rat
##hol
##cp
##la
tob
##itral
stab
isol
unli
whom
antic
##pping
adoles
spent
spring
exped
exports
pled
manual
manif
managed
obv
transit
represents
remun
feas
publications
loans
annivers
becoming
extensive
helping
opposition
surface
investors
color
welcoming
electric
treas
treated
reaching
recalls
topics
sudden
suggestions
copies
distributed
similarly
uncitral
guarantees
allocated
arbitrary
opinions
reservation
consolidated
bulg
extreme
danger
analyz
corresponding
conservation
demobilization
venezuela
lanka
slovenia
fiscal
nicaragua
anniversary
dup
gun
ice
mong
maced
rica
tension
vess
##rant
##sts
##mond
##di
##bound
thinking
##ores
inade
##room
##robi
conj
##ster
notification
resumed
##abled
park
interior
disag
abd
trained
monday
insuff
overc
orders
procedural
methodology
explore
speech
voting
negotiation
reading
suffering
copy
bringing
correct
intelligence
ratified
degrad
ghana
kyoto
macro
foster
maximum
aligned
quanti
inventory
channel
ammunition
convinced
tibet
uruguay
macedonia
inadequ
dog
fer
fas
jam
jama
mu
nai
nutri
qatar
rou
rational
sin
yuan
zones
##ients
##ger
##zy
stream
##iring
residence
excep
##umn
disch
workpl
##estation
newsp
serving
soil
##entials
overview
prompt
evol
remov
formation
##rown
buildings
objects
flu
flight
rising
focusing
excess
library
trip
seriously
namib
burk
saying
imag
competence
convened
consumers
schedule
seminar
commodity
doubt
serbia
wanted
extremely
scheduled
telephone
newspap
bid
cc
cere
dry
file
ign
sad
trou
tests
via
##ware
##lim
tot
##omic
stere
unp
exhib
wastes
season
heat
spending
recip
##grams
perfect
weight
appar
##ghai
boys
##rup
looks
joined
150
directed
137
initiated
coordinate
sustained
controls
earn
expressing
brother
limits
properly
trees
arrest
professionals
forums
japanese
image
passed
reaffirming
relationships
denmark
lebanese
escap
music
##aneous
vehicle
bench
track
memor
cooperative
seminars
interventions
digital
savings
maternal
dignity
armenia
arrested
obvious
jamaica
800
99
cel
latter
mist
sick
##rist
##yal
##fe
##ba
##zania
##oned
##tially
stocks
##iri
suc
enrol
shop
reply
league
##izations
imper
disabled
weather
##ourg
strugg
partner
confron
##incial
154
studied
budgeting
conducting
conducive
block
malta
libyan
believed
targeted
##ographic
scientists
reaffirmed
sensitive
parliamentary
consolidation
1967
dangerous
cutting
confirmed
village
excellency
constructive
tanzania
comprising
##akhstan
dedicated
tolerance
shanghai
kazakhstan
cambodia
degradation
faso
nairobi
namibia
burkina
stereotyp
apart
ct
ced
dress
eat
fighting
fresh
gdp
pace
rock
stim
tv
##oa
##rc
##yc
##house
##laim
##ky
reti
##idem
##igor
##ults
chance
christ
enem
shape
agents
arts
alliance
decree
accurate
provincial
indian
##encing
organize
motion
conventional
guard
parame
affecting
refers
located
extrac
budgets
modalities
collect
mandated
franc
warning
properties
visited
malaria
enforced
devoted
absol
closer
illust
adjustments
film
##ipped
flood
auditors
larger
earthqu
characteristics
campaigns
supplementary
demonstrate
demonstrated
hungary
witnesses
academic
supervision
reliable
oriented
tomorrow
epidem
barriers
equivalent
envisaged
moldova
anticip
remuneration
bulgaria
mongol
inadequate
cath
daugh
misc
ts
uz
##ox
##oon
##ped
##hes
toxic
##itals
##econom
##ican
##roduce
##oler
beings
##terday
suit
suitable
##acted
unam
##tingu
paris
atm
impunity
composed
decades
governor
introduce
pret
mov
societies
##ota
divers
tex
format
operate
join
schem
greatly
leader
decline
uniform
flag
brid
distance
qualified
facilitated
evaluate
tried
occupational
suggest
suffer
recalled
older
arrangement
absor
kinds
applying
running
deeply
fisheries
prohibited
injured
stockp
logistics
accompan
ratify
cancer
answer
repeated
attached
wednes
blood
albania
conjunction
bomb
cab
divid
kil
ok
pu
roles
tree
zimb
##iated
##fl
##ction
##inery
##orters
##icing
##astic
##let
##ulg
anc
##abwe
exact
parag
segment
spect
##amin
accession
unders
prejud
technique
myself
confidential
reviews
redep
relevance
calling
accessible
occur
##ourable
requiring
charges
arabia
monthly
voice
undertaking
contracting
skin
sharp
1988
easily
custody
##overed
borders
##while
consumer
curric
hunger
remedy
yesterday
incorporated
manufacturing
explained
memory
attempt
##eroon
storage
households
explosive
output
cameroon
normally
colonial
liberty
##embourg
luxembourg
temperature
insufficient
uzbek
zimbabwe
paraguay
01
drop
fruit
gri
hat
hum
lith
lasting
omb
sir
wto
waters
xen
##tre
##mas
##ping
##lor
##ball
##ji
##zation
##inting
##orm
##rees
##ils
##iding
recurr
notably
##ips
expanding
relatively
contrary
moz
maybe
overse
elig
103
##rene
scen
liability
furn
rati
environmentally
phone
signing
defense
banking
deterior
carefully
clearance
pursue
reflects
emphasizes
examined
transitional
steel
machinery
detainees
renewable
purchase
acknowledged
baby
liaison
gonna
behaviour
slovakia
deemed
deliberations
cedaw
##economic
wednesday
ombud
band
gree
gaps
hu
homes
lond
lists
wro
##iaries
##ihood
##back
##tian
inequ
##ecd
##asts
forg
unac
exception
enl
##ocide
adverse
##osite
incident
incurred
diss
decol
aband
##tivation
save
moved
discl
capable
features
ordinary
considerations
##ruct
112
civilizations
staffing
engaging
landl
occurr
dispos
evening
biennial
##space
smaller
stronger
certainly
hearing
unfortun
consequently
roads
alternatives
speaker
fishing
injury
appeared
##ipping
seemed
##ophob
rapidly
eye
commodities
intensify
accelerate
belonging
premises
medicine
mercury
flexibility
mitigation
mauriti
marginal
##cription
neighbouring
unrwa
##osphere
washing
style
mongolia
xenophob
london
bes
cup
dj
drought
fu
fal
fash
gard
gone
hall
holid
mun
mich
murd
sb
wild
xx
ye
##ney
##ei
##df
##aur
##gy
thin
therap
##onization
##tile
intim
inquiry
##rets
##reach
forec
##uries
stages
stories
##irates
##atever
whatever
exists
exha
shut
##uct
##uction
repair
##ches
seed
seized
incomp
spl
##imes
distingu
genocide
consul
abst
laid
laund
humanity
intoler
organic
outreach
bots
continuation
promulg
died
##ccc
confisc
ours
ordered
defend
defenders
policym
infection
offers
encoun
assessing
profess
certification
combination
exploration
lastly
allowing
unions
toward
subjects
significance
panama
moral
observation
reportedly
mobility
patrol
elev
wider
displace
continuous
appears
drive
inspect
##ambique
gains
package
friendly
##missible
safeguard
elaboration
dynamic
title
contingent
oda
wonder
hydro
mozambique
wrote
decolonization
mauritius
bon
cast
pc
ru
rome
rub
sand
song
ton
tons
vary
##oth
##ny
##mon
##matic
##hr
##here
##wana
##lin
##bed
##ali
touch
##oma
##rating
stead
isn
##ateful
residents
chad
##met
##usion
goes
regimes
composition
wear
moon
moving
thereby
outlined
newly
served
estate
estonia
desire
dele
providers
adopting
plants
load
120
phr
mostly
locations
132
preparations
infant
accountable
mention
researchers
palestinians
listen
classification
aspect
determining
dealt
deaths
customers
largely
roma
glass
muslim
missile
confirm
diagn
dominican
meaningful
pregnancy
message
volunteers
deployed
guyana
version
repatriation
taiwan
removal
earthquake
botswana
ast
amp
cant
dp
da
dw
eld
fax
gren
hill
lt
oecd
roc
wage
zambia
##tory
##down
##0s
##erity
##ita
##isp
forget
store
##uls
##teen
parall
adver
sem
incen
dispar
relative
##omet
##ancies
laugh
clari
minute
insol
101
107
critic
##ologies
capability
firms
fees
depends
occasion
emo
millions
ruling
universities
functional
allowance
adviser
begun
claimed
slight
models
suggests
harmful
devices
comparison
korean
display
##cribed
grateful
surveys
interpre
harass
iceland
##ooth
counselling
##book
renewed
granting
walk
diamond
hospitals
filled
advocacy
remark
remarks
ahead
transformation
probably
unifem
congrat
explanation
decentral
ldcs
destroyed
bottom
juvenile
sorry
aggression
atmosphere
schemes
undersc
uzbekistan
disposal
fashion
ber
breat
ip
lose
mi
ox
oios
pip
push
rio
sar
tack
##mo
##water
##ui
##uous
##ko
##anim
##rey
##lements
##ulates
##aco
couple
atomic
shel
interc
interesting
sect
spend
accident
plays
assume
transf
transmission
viii
desk
##oked
##tility
mainland
annually
regardless
producing
130
define
administr
requesting
famous
collected
emirates
prioritiz
charged
guiding
entering
evaluations
subjected
ethics
credentials
shares
entrep
camps
broadc
meanwhile
salary
uncertain
customer
complaint
citizenship
replaced
transmitted
dependent
linkages
piece
coherent
wait
translation
patterns
narrow
narco
laboratory
derived
input
inputs
distinction
duration
coastal
clarify
olympic
disadvantaged
immigration
unlaw
resistance
waiting
vessels
enemy
intolerance
entreprene
05
dump
gol
ips
kit
luc
mou
tes
tor
tong
tables
van
vast
##rich
##rical
##hem
##cents
##uated
##uania
##kh
inhab
##antic
##isons
programs
##uras
stone
sund
##teed
commence
chur
inters
neut
imposs
##ums
hair
height
193
relates
accred
addendum
##agasc
##ario
monten
royal
delays
hero
remove
presid
formulated
productivity
instances
180
helps
heading
surround
designing
focal
realized
introducing
detection
reflecting
pleased
directorate
divor
connected
guaranteed
feeling
suspension
reserves
favor
candidate
generated
difficulty
prospects
madagasc
attempts
963
towns
clinical
convicted
##burg
animal
##gregated
casual
mdgs
endeavour
exchanges
latvia
macroeconomic
parameters
lithuania
eligible
parallel
madagascar
ba
burn
ce
crow
fes
hun
hond
lect
que
ty
tues
tang
taj
wound
xv
##iro
##hi
##fp
##fall
##fire
##gue
##lers
##zone
thr
thor
##ena
##esenting
##enture
fort
##rage
##standing
unanim
enorm
atl
##utable
admit
sho
interaction
##osen
##udes
##itious
haven
aged
recru
genu
generate
compr
compound
assisted
lao
##ette
organizing
clients
109
representing
ordinance
122
111
116
presents
presentations
politic
smooth
offset
possession
guided
airspace
lesson
liberation
##ahiri
circulated
simult
enhancement
breast
device
passeng
happened
separation
competitiveness
satur
filed
acceptable
registry
crp
suspected
acquired
cuban
dollar
virgin
stopped
vacc
generating
piracy
photo
excellent
forthcoming
stipulated
frequently
replacement
navig
disappearance
revealed
ultimately
persistent
telecommunications
phenomenon
stabilization
adolescents
overcome
jamahiri
discharge
memorand
celeb
anticipated
daughter
ratio
landlocked
xenophobia
laundering
professor
monteneg
honduras
tuesday
jamahiriya
aqu
bath
gab
tear
##iar
##imber
##hy
##vity
##za
##erly
##inations
##orge
##icide
##roc
stood
defer
deals
resc
##pper
coup
adults
seiz
##illing
cool
comprom
consc
pertain
appra
applies
abduc
abortion
species
##ultural
marked
married
##rupt
revolution
119
##udgetary
extrab
extending
whereas
employers
bush
250
methodologies
grade
focuses
allows
studying
realize
analyses
restruct
exclusion
##atial
commonwe
playing
grants
consequence
hosted
solve
drinking
acquire
restricted
satisfied
successfully
briefing
penalties
missing
window
incorporate
eradicate
allegedly
archives
constitutes
beneficial
autonomous
contemporary
electricity
disaggregated
struggle
bridge
clarification
unlawful
extrabudgetary
commonwealth
bud
bag
bond
cards
dad
eating
faster
jose
mc
mos
pas
ram
stic
tub
vit
wave
xi
yemen
zero
##tures
##ih
##sc
##fast
##ault
##ino
inte
##itage
reb
##ille
##iland
##urb
##acing
unops
acid
acute
resid
meant
shif
##uda
##endar
spot
prince
exposed
accum
proved
poly
underlying
suppression
symb
motor
thereof
invite
doha
basel
transbound
montre
carri
##anged
twice
financed
diverse
whenever
heritage
authorization
regards
155
##ergies
creative
landmin
indicating
grown
jump
##nesses
handling
understood
##atible
referring
occupying
potentially
named
wished
putting
aspir
balances
talking
proceeds
fewer
tribunals
angel
eventually
killing
favourable
steering
greenhouse
sponsored
transmitting
judgement
manufactur
attacked
geographic
limitations
fulfilment
magn
winter
commander
firmly
journalists
square
inherit
issuance
genetic
suddenly
imperative
greek
washington
insolven
transfers
ipsas
tajik
montenegro
transboundary
montreal
06
bor
cry
dav
gar
hind
huge
htt
imb
listing
mary
pick
sister
wire
wfp
##ote
##rants
##sman
##ael
##wards
##ki
ther
##orter
##alid
##iterate
##oms
reimb
concep
prove
comfort
unre
commended
##velihood
adher
interference
intermed
##unk
##aker
artis
##ami
relatives
##ishing
assumed
subt
##ett
##titudes
pool
councils
sole
baseline
marke
faces
instit
drag
promise
measurement
evolution
livelihood
enshr
envoy
operative
128
110
##loyed
##prec
182
urge
preval
progressive
submits
factory
terrorists
involves
airport
##iveness
performing
mald
finds
referendum
emphasize
suggestion
collaborative
happiness
customary
houses
driven
driving
simpl
satisfact
corporations
irre
gained
strip
vacancy
merits
permitted
heavily
extradition
hopes
archit
villages
expectations
advantages
psychological
attendance
stipulates
branches
municipalities
bahrain
literacy
restoration
disseminate
##zhou
compilation
organisation
manifest
nutrition
succeed
overseas
ourselves
integra
insolvency
02
900
boss
cu
caught
din
dom
dates
dimin
fdi
gate
ho
kid
lie
lake
mas
nice
ngo
nurs
pes
porn
tari
tender
wg
wants
##tely
##sis
##mad
##mony
##ja
thres
##orith
##aling
##ann
togo
##ente
##eck
##icop
##rah
##urity
unw
##ados
nobody
chris
chosen
##ocation
replies
##ched
leaves
imports
##aka
##istence
##illance
notwith
complic
192
worker
plus
mothers
moham
respected
secured
soft
mineral
minors
protest
continent
root
##otal
socialist
measured
diver
matri
stamp
plane
feet
preserve
formulate
126
becomes
115
118
defining
helicop
189
accessibility
140
england
controlling
frag
smoking
leads
soul
receip
indicator
completely
consultants
profits
foundations
investigated
electrical
readiness
pursued
powerful
immun
sky
targeting
enforce
cypri
accounted
imf
devast
##awi
calendar
hardware
separated
surveillance
damaged
responding
competitive
injuries
biggest
subsidies
escwa
consolidate
amounted
1990s
harmonized
convening
submissions
##organ
settings
removed
hotel
algorith
layer
constituted
arrived
fostering
pregnant
rejected
flexible
dimensions
gathering
cheap
survival
hundreds
jew
excluded
argument
administering
attributable
withdrawal
destination
sweet
treasury
quantity
exceptional
1373
enrolment
diversification
prejudice
ombudsman
unaccept
unfortunately
garden
murder
displacement
harassment
mouth
sunday
festiv
enormous
memorandum
http
maldives
threshold
notwithstanding
09
ale
bh
borrow
census
hence
hang
hyp
icc
kar
ling
las
lived
oman
pul
soph
tu
ut
wang
##oys
##right
##rgy
##ez
##iant
##side
##head
##der
##work
themes
##era
##alian
##ani
##ata
##outi
##isal
##iction
conce
##olic
##ste
##ulsion
commends
enrich
attor
attitudes
admission
shift
shipping
##ode
hague
recep
##antly
expir
exposure
accidents
##ourse
undcp
##essional
securities
##entieth
childhood
meets
monaco
description
twentieth
captain
violent
##hips
producers
projected
signal
initiate
aviation
attending
offenders
headed
chaired
monitored
distr
necessity
column
qualifications
careful
questionna
##ranean
players
immunity
classes
sla
credible
threatened
greatest
turning
##regular
thoughts
entail
sentences
cali
offering
consistently
responded
adjusted
updating
corporation
irregular
logis
briefings
announce
error
adapt
benin
niger
##missibility
gradually
kyrgy
radioactive
orient
outputs
sympos
impartial
revenue
entrusted
explicitly
isolation
newspaper
epidemic
munitions
entrepreneurs
neutral
impossible
restructuring
symbol
inheritance
concepts
architect
integrating
questionnaire
kyrgyz
2nd
aer
bell
biss
bacter
cf
cra
clic
dual
hid
lending
luck
makers
rent
rid
sac
sight
tail
trop
vigor
wp
##rar
##ias
##ius
##sen
##ym
##per
##fol
##gu
##lass
##kind
##kely
##kok
##11
##ede
inad
##ark
##eces
##icious
##roph
bea
asc
asean
##ulf
unequ
##adian
alb
##aba
courage
commem
##ffs
adult
##aya
sha
interactive
seas
sequ
incidence
agent
spare
coff
covers
##amas
relax
##minent
assure
suppli
supposed
preamb
ecological
club
systematically
transaction
102
desi
scre
cape
liabilities
advances
feature
demographic
regarded
participatory
151
ending
deple
depending
corner
fraud
162
possess
possibly
receiv
mechanical
chairs
busy
submitting
necessarily
swiss
swaz
mandatory
handle
paying
voted
circular
references
pleas
unitar
holds
clothes
salaries
crises
closure
conclude
happen
multip
observe
damages
corrections
preceding
escal
harmonization
generations
merely
birthday
ships
licence
bangkok
supervis
wrongful
momentum
automatic
frequency
obstacle
holy
hurt
accomplishments
distinct
affirm
beneficiaries
unifil
condemn
accommodation
deprived
instructions
feedback
prevailing
crops
ceasefire
unlikely
analyzed
promptly
recipient
ancient
recurrent
breath
divorce
tajikistan
marketing
suppliers
swaziland
04
ath
bin
brom
ga
hrc
kab
mere
muse
ped
pages
sort
sant
sinc
teen
wages
yield
##eff
##my
##gments
##long
##vation
##uit
throw
##inid
inner
##att
##inge
##ectivity
##iced
reass
conve
##sta
##idation
dear
##ules
##ado
resort
existed
metal
enacted
##oci
italian
impose
sport
recession
consisting
permission
wet
plain
##ght
abor
string
asser
##ogen
preference
trig
trinid
canadian
poison
client
economically
sov
specialists
viable
106
scene
twelf
equipped
couldn
affil
affects
refuse
seeks
endor
schol
stands
187
mode
smugg
profile
documented
severely
retail
broke
founded
judgment
malawi
sectoral
restaur
trials
##atories
negotiate
returns
showing
credibility
1986
brain
emerged
holders
grew
finalized
sentenced
calm
portfol
closing
grass
separately
1978
appearance
driver
##what
enjoyed
avoiding
freely
duly
allev
conceptual
highlight
##ooting
announcement
sponsoring
degrees
photograph
silver
somali
licens
license
cells
football
volunteer
mitigate
straight
installation
municipal
railway
woods
animals
coalition
barbados
ultimate
mobilize
indirectly
broken
petro
preservation
undermine
feasible
christmas
catholic
curricul
djib
encountered
dwell
incentives
slightly
inhabit
presidency
casualties
genuine
gabon
pertaining
aspirations
pornography
algorithm
unacceptable
logistical
trinidad
twelfth
aus
bought
jun
mol
nl
nap
ring
ray
rough
snow
votes
wine
yell
##iable
##iological
##ship
##mans
##do
##dam
##ca
##va
##vest
##bles
##enh
##itude
##rog
##ilty
prote
sul
##acting
alarm
alco
resil
ant
chronic
enact
##utory
admissibility
shot
repar
incite
spatial
printing
disbur
compuls
consists
rely
relate
abu
abuses
assurance
intensive
concerted
##agen
outline
boards
termination
usual
perspec
servicing
##ensity
##under
monter
insec
discre
discovered
propose
104
##aires
promin
guilty
capita
processed
fee
sheet
projections
113
pharm
politics
135
138
signature
whereby
mediter
encomp
helpful
quiet
occurs
sixtieth
communicate
profound
officially
reductions
swim
blow
brothers
fron
frank
investigative
arabic
gef
circulation
maintains
1985
1980
1987
typically
codes
suggesting
wording
ageing
essentially
select
associate
poorest
adequately
experimental
fault
sharehold
continuously
deeper
prohibit
harb
stockhol
drink
flowers
creditors
delivering
##after
harmony
##aneously
falling
decreased
analytical
pollut
militi
patient
reliance
certificates
maurit
conviction
abolition
bahamas
durban
defici
deficit
osce
condemned
issuing
ranging
tobago
workplace
texts
cabin
divided
hatred
disclosure
besides
false
sbsta
remarkable
administrator
church
thorough
navigation
imbal
enshrined
prevalence
slavery
califor
symposium
kyrgyzstan
bissau
tropical
coffee
soviet
djibouti
alcohol
perspectives
mediterranean
encompass
stockholm
07
bay
cs
crac
dance
ease
flying
gift
hers
hide
iron
jack
mir
merg
nan
pig
pair
rh
sbi
tall
wis
##rum
##tar
##des
##gage
##vals
thick
##oning
##inces
##anes
##ares
##oul
##isite
##asa
##asions
remit
##iled
##leum
##thus
##throp
ash
##acco
unex
##teor
orally
meteor
enthus
##aine
##utation
shap
interface
##umes
seat
incons
hamp
aggreg
prisons
disord
petition
contacts
underlines
##ellation
intends
##reto
obama
therein
marry
discon
posed
somewhat
cart
establishes
scar
measuring
evac
advancing
presidents
formula
loan
refused
doctr
129
117
endang
knows
initially
idb
awards
modified
declined
occasions
opposite
employee
cultures
facto
##ercul
blind
investing
regulating
visiting
advisers
privacy
annexes
democrati
returnees
suffici
challenging
audi
panels
taxes
comparable
passing
happens
preparedness
combatants
familiar
sudanese
appreciate
1970
citizen
iranian
settled
massive
contractual
australian
assignment
appointments
prosperity
resolved
enabled
prosecutors
pieces
tracking
truly
breakfast
commentary
databases
fellows
constitu
translated
synergies
liquidation
virtual
willingness
sahara
discipline
dropped
autonomy
cultivation
lady
organisations
surprised
spoken
tobacco
duplication
exhibition
obviously
stereotypes
marginalized
absten
eleventh
elderly
disparities
uncertainty
lucia
tangible
tubercul
satisfactory
domain
pestic
receipt
festival
##stein
beauty
bromide
portfolio
curriculum
compulsory
monterrey
discretion
inconsist
03
cmp
catch
dust
fab
fccc
lou
mount
ow
ozone
pray
pull
rice
tired
ven
venture
##rates
##noon
##ets
##iates
##field
##can
##care
##ga
##ll
##uk
##umber
##50
##zz
##10
##鈥檚
thereto
##eri
##erto
##esty
##eseen
##ortive
##anium
##arms
##isive
reiterate
proof
prolong
##uration
##urally
stem
##ida
##opol
##ulative
unn
uncc
unto
unoci
notion
resett
param
parental
attitude
##utors
advers
shell
seats
##forestation
incomes
aggra
coach
coerc
generous
##alling
perce
weigh
peas
peter
underlined
##tivated
strang
supportive
intend
##ressed
eca
ecl
concurr
thereafter
pose
boost
securing
serves
##ensively
cars
continental
rotation
revital
descent
promised
guess
liable
##000
advise
formulating
lob
lots
redress
124
12th
instability
##ordinary
afternoon
iden
valley
bright
171
designate
##ovic
dispatch
methyl
colour
handed
visible
ought
libya
##atorial
contractors
papua
substantially
rooms
pursuit
talib
discussing
failing
pressing
patent
standardized
consistency
innoc
feelings
arbitral
obtaining
denial
structured
killings
sensing
forestry
complexity
roman
definitions
virus
urgency
convene
##known
strike
permits
ratifying
johan
automatically
oceans
explosives
turkmen
gathered
awarded
olympics
administered
deprivation
strictly
constantly
fulfilled
rendered
feasibility
apparent
unamid
accompanied
okay
michael
therapy
distinguished
promulgated
simultaneously
saturday
rescue
appraisal
landmines
manifestations
matrix
fragile
cypriot
bhut
sophistic
utmost
attorney
reception
petroleum
ausp
mauritania
cabinet
california
tuberculosis
08
ax
ak
ble
bow
batter
ded
dan
dut
density
fro
frac
fiss
gent
hk
hes
ix
lakes
mel
nur
por
pup
row
rif
sized
td
tac
ties
tight
##oe
##otic
##rors
##sk
##aven
##gi
##vi
##bt
##bre
##uating
##zen
theore
##tite
##tible
##tiality
##erical
inev
##iture
##isation
##rov
##rovers
##asty
revers
retention
reaction
forens
##lets
##lete
##urning
##urances
stag
beat
aside
unt
unin
unknown
noise
##utely
interd
interl
##udence
secrets
hamm
heaven
reclass
arise
array
dismiss
##apse
##iam
##licate
committing
append
reluct
workload
plate
contr
controvers
##ishment
abund
governed
##echten
2017
finished
clarity
servants
approve
economics
scot
partly
liechten
violate
ensured
formally
##athers
reviewing
doctors
phases
deport
instruction
133
136
verbal
146
objection
secretariats
declining
valuation
delegates
departure
employer
surp
surg
differenti
americas
gratitude
limitation
foods
investigating
privile
restore
george
claimant
reflection
##icken
observance
credits
rapporteurs
sciences
pursuing
tempor
talked
copenh
summits
stressing
hardly
launching
reaffirm
solely
demonstration
stakeholder
innovations
glad
irrig
utility
mutually
urgently
##iii
extraordinary
incorporation
removing
cooperatives
walked
deadline
academy
journey
drafted
arrive
lawyer
acknowledges
repeat
medicines
wedding
calculated
samoa
retained
##point
renov
virtually
attributed
##thesis
battle
spokes
sample
paul
pledges
evolving
fluid
ceremony
absolute
redeployment
holiday
exhausted
confiscated
policymakers
ltd
emotional
narcotic
dumping
admitted
comprised
politicians
seizure
joseph
adherence
subtotal
dinner
click
supervisory
convey
inhabitants
yellow
incitement
pollutants
abstentions
resettlement
identical
forensic
liechtenstein
copenhagen
afor
auction
cass
ero
ece
fool
gc
gal
gang
hc
hub
hole
jean
kp
kg
kin
kids
lies
na
pb
selling
tent
tum
tap
taught
vib
##oh
##nt
##ni
##iy
##dy
##fa
##com
##word
##bally
##ker
##12
##onal
##eds
##edented
##itors
##itative
##asse
##ila
cond
convers
##raid
##urg
stuff
isu
##tinational
suicide
##acc
unprec
##tet
alter
orph
antig
meat
##owas
shelf
##osp
imposition
##andan
worst
worry
##ford
ham
ages
disrup
cohes
apportion
##amm
##amation
provinces
plas
contamin
indisp
assurances
amnes
uphold
ecowas
2016
invasion
invalid
proclaim
cla
afraid
persu
monuc
discount
##ondition
drama
desired
guang
##tilities
planet
sitting
joy
seeing
125
121
ends
caution
addresses
extr
fiji
practition
server
##tism
##tising
143
147
applicant
160
quota
possibilities
everybody
flower
opposed
multinational
justification
justify
stateless
certified
returning
introduces
restra
voters
negotiated
##atization
commonly
senate
##ashes
divide
eliminating
fails
examining
lowest
passage
religions
##apping
hostilities
radiation
files
registrar
durable
minimize
illegally
ambitious
describes
amounting
computers
farming
merch
resolving
friendship
neighbours
publishing
madrid
chambers
hazards
kuwaiti
cancellation
robust
robert
cataly
delayed
nineteenth
purchasing
historic
attract
dynam
superior
##related
unmik
surviv
conversion
maternity
barbuda
affordable
concentrated
disciplinary
impartiality
leste
lesoth
revenues
mixed
jiu
pillar
expedite
channels
tibetan
imagine
earnings
tsun
stockpiling
exactly
forgot
consulted
inspectors
phrase
atlantic
conscious
carrier
manufacturers
david
reimbur
orientation
architecture
inadmissible
ascertain
nlb
prominent
aggrav
taliban
bhutan
auspices
fissile
pupils
unprecedented
antigua
lesotho
bou
bret
bread
dies
earm
eleg
fm
fing
fru
hell
kw
mg
ment
mud
pv
pin
pit
pour
pump
ric
rank
tic
tank
upper
##oting
##nants
##east
##tured
##fri
##gan
##bs
##23
##kes
##zing
##tia
##erb
##orated
##arely
tough
toky
##asy
bet
##ider
asking
unified
unaid
unpro
notify
partial
##och
##osoph
replied
lee
##unt
##umin
##akar
seab
agro
sphere
##rous
expects
expensive
expense
expulsion
developmental
strange
prefect
trump
##igned
concession
wouldn
thereon
cloud
##arians
##uese
usd
martin
##ract
inserted
somewhere
prize
revise
deserv
sco
timetable
liked
tea
remnants
advised
publicly
raises
config
confident
empty
refrig
buff
153
globally
knowing
##ropri
##roportion
##prudence
additionally
practic
verde
viewed
186
directors
offender
offsh
collecting
flights
bruss
170
donations
owner
nato
dispers
disproportion
guideline
bless
warrant
thirds
obliged
succession
triang
electron
claimants
trem
recording
1981
1984
emergencies
##itization
substitute
lacking
proceeding
easier
prosecute
taxation
broadly
examinations
kindly
comparative
ideal
1973
1977
hosting
angry
denied
solar
choices
suspended
jurisprudence
burea
describe
seekers
irresp
musc
briefed
firearms
assignments
##nesburg
enables
manufacture
philosoph
acknowledge
walking
deposits
slowly
magaz
quartet
catal
accelerated
portuguese
withdra
unmil
preferential
normative
behavior
contingency
complementary
horse
horiz
clinics
boundary
literature
cdm
excluding
reinforce
reinforcing
ranking
inherent
concentration
reminded
accommodate
elsewhere
upgrading
predomin
cocaine
alien
compiled
##ementioned
contradic
telecommunication
ecosystems
summarized
tensions
quantities
excessive
newspapers
unpaid
blockade
retire
absorb
repeatedly
inequality
yeah
bonn
golan
testim
intersessional
fortune
unanimously
residual
magnitude
alex
smuggling
reparation
herself
meteorological
adversely
johannesburg
turkmenistan
sophisticated
dutch
surplus
temporarily
irrigation
aforementioned
indispens
reimbursement
tokyo
brussels
az
breed
cis
cope
cuts
gm
gib
gambia
gulf
hip
jes
jail
lod
loud
mile
nc
puts
rival
rush
ss
stig
tin
telling
timber
wil
##ook
##rs
##rations
##iff
##ss
##mer
##yei
##dh
##da
##dad
##gl
##lining
##bl
##21
thee
theat
##ori
##orate
##ala
inali
ineff
##atu
##arked
##itary
##isi
reverse
reorgan
fore
##opard
##tina
##ulous
##acent
unu
unch
acted
resume
resumption
residential
203
2020
chicken
adm
shr
shipment
##osting
##meas
##using
##usting
##ander
##andem
##akings
wasn
##illa
recyc
recourse
aren
arsen
genital
pertin
##sions
190
decisive
##aming
abyei
trag
tradem
lag
##ellaneous
finish
##agues
boat
marg
minur
protective
rotter
highway
##inder
promotes
socially
evil
evident
##assy
equatorial
raw
prescribed
accorded
periodically
personally
114
##print
##roll
signals
defe
mediation
likewise
213
211
expressly
crew
quarters
lifting
email
##lusively
backed
swift
individually
fiftieth
explored
debates
postp
realistic
gets
detect
classroom
simulation
originally
auditor
clothing
shortfall
prevented
breaking
images
exercises
collaborate
experiencing
turns
continuity
preced
##apped
hostile
weekly
allocate
filing
bird
characterized
corporal
logical
diplomacy
visitors
sevente
##tifications
dependence
##attered
colleagues
1951
entirely
microf
editor
draws
walls
storm
optimize
mortgage
elaborated
advocate
1949
quantit
frequent
holistic
predict
installed
comprises
sympt
nonetheless
seller
arguments
saharan
upgrade
landsc
mobilizing
predecess
surprise
fulfilling
jiang
liberalization
unlike
benchmar
1540
miscellaneous
movie
deteriorating
enlarge
intimidation
rubber
semi
decentralization
tackle
accreditation
bagh
recruited
compromise
stick
borne
complicated
mohamed
lingu
pleasure
resilience
deficiencies
remitt
discontin
fabric
##umbered
unccd
coercive
appendix
contrast
spokesman
amnesty
fruits
unaids
inalien
rotterdam
seventeenth
ari
aven
bub
brown
cad
diet
fly
gn
gear
gif
hr
hen
han
kir
ly
lunch
native
py
pond
rab
rod
rare
tet
tenn
vend
vinc
wu
wing
wip
waves
yu
##off
##oint
##nutri
##tm
##tan
##hman
##ders
##fs
##fcs
##ativity
##cop
##bel
##bility
##utical
##uracy
##15
##60
thou
##onments
##erion
##alam
inm
inception
andor
##ared
forever
stree
stating
##ione
##rific
unv
##ading
alive
orbit
notic
parent
209
shir
shooting
##osh
reputation
##umulative
sees
seal
segments
hav
spite
spouse
spher
##ima
recover
recovered
regrets
##grade
disk
cooking
##alled
exporting
weaken
##amination
relocation
acceded
accuracy
##ouses
indo
ababa
##look
##aceutical
sao
sav
intent
intra
syria
nationally
addis
clause
##parts
baselines
marital
marino
cargo
roster
108
promising
scri
mathem
yours
feeding
authorize
operator
##inton
refusal
buying
environments
contributes
personality
123
mah
mapping
##present
phones
locally
sustaining
infections
medal
uranium
smoke
smart
earned
declare
flash
flaw
brings
173
dont
surge
factual
charac
americans
statutory
gravity
wars
debris
aiming
regulate
evaluating
executives
victory
realizing
clearing
excuse
exclusively
circuit
undertakings
struck
successive
bankrupt
classified
morator
creditor
farms
efficiently
emphasizing
trustees
hearings
causing
essence
competing
patri
counterparts
concludes
experiment
urbanization
precis
embassy
##netic
linking
harry
harvest
deny
freight
sensiti
restrict
ethnicity
falls
reiterating
strive
habits
pictures
criterion
districts
##board
haitian
deposited
buyer
fellow
satellites
weaknesses
messages
predictable
exceeding
inventories
installations
accomplished
##crip
quarterly
mountains
terminated
isolated
guns
mutil
route
exceptions
trouble
apparently
stimulate
absolutely
pretty
holidays
defendant
safeguarding
tonnes
varying
diagnosis
shelter
surrounding
favorite
passengers
irrevers
christian
entrepreneurship
hidden
endorsement
pharmaceutical
democratization
sufficiently
inconsistent
unnecess
perceived
innocent
gentle
renovation
dramatically
survivors
bretton
##friend
indispensable
microfinance
predecessor
inalienable
##nutrition
streets
3rd
bis
brib
bail
cst
dip
dub
edition
fred
gall
hect
js
james
km
liv
lying
mes
mit
nt
pound
portion
rig
rental
smes
till
vel
wol
ware
xia
##nings
##ira
##pe
##pi
##dr
##comp
##wor
##wood
##gain
##vo
##br
##bid
##bul
##berg
##brid
##utive
##kel
##zo
##70
theories
##tious
##erge
##inity
infer
##ato
##itely
##omy
reun
##iliation
onto
stret
##iger
##acion
##acerb
##adi
##adors
exacerb
partially
chocol
enquiry
##ighter
##owed
##ching
impet
impair
worse
sew
incon
incap
arc
pron
pricing
dism
cook
compact
composite
##ams
plur
abide
##log
underp
assured
traged
saved
##ellor
intr
##epers
motivated
##ifies
##ager
cler
climb
##onomy
usage
groupings
marks
positi
overl
overcoming
dramatic
##ologists
fired
imported
operated
loved
situ
##athy
proposes
cairo
depression
instraw
##raltar
responsive
##aterrit
initiation
coordinators
correl
infected
188
184
144
urging
module
seconds
applicants
166
lift
pops
everyday
flor
indication
surin
chairmen
consultant
communicable
cerd
declarations
grain
220
universally
entertain
limiting
exploring
regulated
poster
visual
deciding
allowances
analysing
exclusive
electrom
sexually
classic
entitlements
observing
wishing
1982
connect
audits
audience
burning
determines
tribute
shortage
younger
argued
imis
devote
portal
exercised
unfccc
divisions
punished
##iscri
precise
precurs
appreciated
anger
skilled
compensate
crossing
negl
suspect
parliamentarians
likes
harmonize
influenced
fallen
machines
vacant
understands
tourist
tourists
##place
dangers
windows
analyse
cleaner
photos
hybrid
licences
rwandan
cycl
stores
milk
miles
guaranteeing
filling
numerical
arrival
spiritual
answers
nepad
attaches
attracted
golden
ethiopian
dynasty
trainers
preferred
affirms
jeopard
reveal
nominations
disseminating
unrest
fatal
halt
entrance
preserving
phenomena
correctly
bidding
ignored
totally
mistake
mistakes
shopping
puerto
curricula
humans
scenario
inequalities
thinks
incompatible
confiscation
policymaking
wearing
deleted
grenada
advertise
advertising
intercultural
tongue
accredited
shoes
passenger
thermal
artistic
institutes
devastating
announcements
lucky
vigorous
desirable
receivable
museum
trigg
restaurant
molec
##manship
insecurity
aggregate
doctrine
fellowship
eclac
deduc
reluctant
surgery
erosion
contaminated
extraterrit
tsunami
seabed
tremend
gibraltar
jesus
unchanged
pertinent
quantitative
symptoms
remittances
vincent
andorra
mathema
characters
moratorium
unnecessary
tragedy
bc
cited
cable
cake
cumulative
fled
fathers
gases
hi
hier
ig
kan
kam
lan
lub
nou
naz
neck
pec
ports
pier
pdf
rats
sons
tone
tied
tends
tested
vig
wise
##tra
##tail
##ports
##hen
##dt
##lu
##vin
##boo
##25
##xin
thesis
##ona
##onduc
##entic
ing
andre
##aring
##oub
##outs
##isure
##ectives
##icked
reward
foreseen
proven
##state
stan
##ird
une
unom
##adines
##tings
novel
##abil
##ersons
meal
meals
208
cher
chest
champ
##ighted
shame
reporters
leisure
impress
##aks
worried
develops
spin
recons
arre
prere
##ectoral
coex
cogn
cott
complications
191
accede
##ustah
pla
plastic
indeb
##estock
abstain
polar
assault
safer
optical
amis
amaz
amending
adds
adding
##ulture
clinton
##partite
lawful
systemic
##rible
bases
##ruption
minustah
insert
propag
communist
communique
rot
roots
establishments
thanked
diab
liu
violating
forming
participant
refrain
157
156
directions
princess
signs
wherever
budgeted
politically
141
builds
smell
smile
214
everywhere
flat
thirteenth
communicated
varied
justified
disturb
appropriately
230
241
bloc
frust
warned
starts
facilitator
visa
visibility
malnutrition
evaluated
costly
investigators
wheel
independently
##atibility
freeze
297
272
penins
threatening
bargain
##umptions
##lessly
shortly
imminent
##aida
racist
exercising
countermeas
multid
uncdf
standardization
vulnerabilities
punishable
expendable
corrid
illness
precious
alternate
fishery
prohibitions
1972
radical
linear
injus
allocations
films
harness
drivers
solved
parliaments
microw
subsidy
satisfy
birds
minds
femin
##archy
utilized
utilize
harmonious
fairly
gaining
decreasing
demonstrations
islam
seventy
corrupt
judgements
prospect
explaining
silence
hygi
colleges
highlights
highlighting
breaks
robb
magist
academics
correspondence
watching
intensified
elementary
optimal
pregnancies
reject
synthesis
acknowledging
ambassadors
conservative
legitimacy
clusters
exceeds
affirmed
abolished
homeless
nomination
explanations
tendency
terminal
diligence
##berry
juveniles
broker
samples
revisions
zhang
stabil
adolescent
dogs
fertility
benchmark
confront
stimul
extraction
floods
pretrial
movies
spectrum
furniture
deterioration
seeds
patrols
wonderful
steady
grenadines
rocket
diamonds
decentralized
underscored
pipe
broadcasting
commencement
ceiling
tears
abduction
comfortable
kidn
tariffs
helicopters
preambular
scholars
disbursement
shareholders
militias
prolonged
theoretical
cohesion
practitioners
elegant
offshore
withdrawn
horizon
theatre
baghdad
gifts
henry
script
precisely
mutilation
hectares
livestock
impetus
suriname
##iscrimin
extraterritorial
##books
prerequ
indebted
cure
cord
ceb
dag
dys
ech
fol
fet
gues
hate
hire
icr
jul
jenn
kiv
kimber
los
lap
mm
maps
ny
nerve
ol
oic
poc
pure
penn
pandem
qaida
rand
rarely
sisters
xin
##oying
##ew
##ttle
##sa
##san
##mn
##han
##fir
##fare
##cw
##car
##cel
##cow
##war
##light
##ura
##uum
##uatu
##kans
thy
thom
##erating
##inational
##oric
##oros
##edia
inau
inhib
##atal
toil
tome
##itably
##isa
##represent
##elle
react
##ratic
##olved
##olese
##ston
##thor
##urer
steal
bears
##term
##igendum
demin
unj
unus
##add
alto
altered
orth
commenced
parad
##orted
shit
##ucks
interven
interregion
intervals
##ostic
##tedly
##chen
##usive
lev
lever
counting
imposing
##uma
##aked
##force
incoming
##illion
proud
compatible
consor
consec
perf
perception
commits
##ivoc
relay
releases
undoub
plural
placing
contamination
induction
indiscrimin
abid
william
assumption
subordin
supplementing
intake
trick
##ignment
ups
specify
eco
requisite
motivation
respecting
invo
persec
discover
overarch
sessional
drain
anywhere
countryside
authentic
ensures
ramp
operators
sheets
contributors
127
mao
civilization
strengths
131
134
139
signatories
defines
coordinates
treatments
145
148
modest
applicability
collectively
collapse
169
valued
quad
quot
fluct
bron
brune
175
indications
##icians
designs
designation
naturally
variance
criminals
execute
executed
237
249
graph
handled
handbook
qualitative
fifteenth
stars
##issance
269
266
analysed
benefited
trips
tripartite
geological
##atile
reader
undertook
panell
reaches
vege
##ront
##aza
peacekeepers
slum
ethical
summaries
strongest
##ussalam
threaten
substanti
connections
connectivity
tribal
subscrib
campus
shortcom
antib
bills
adjourn
argue
argues
broaden
imo
ideological
countering
compliant
collaborating
begins
writer
uncondition
managerial
corrigendum
illiter
respondents
prohibiting
1975
##appropri
darussalam
embod
embrac
feels
weekend
traditions
traditionally
hostage
drilling
settlers
avoided
##ikh
characteristic
honest
##afe
briefly
convenient
striking
bulk
vacuum
errors
adapting
curb
cleaning
modernization
sounds
1958
edge
expectancy
academia
ultr
dominica
automob
psychos
factories
bolivarian
maximize
doubts
answered
synergy
attracting
attractive
ahmad
constraint
calculation
nationwide
subcommission
survive
unemployed
accomplishment
navy
abolish
literary
validity
##points
reinforced
nominated
neighbourhood
restoring
breaches
beliefs
immigrants
upgraded
persistence
ldc
cocoa
resistant
exemption
prag
endeavours
pledged
treasure
analyzing
dischar
ctbt
accompanying
bombs
confidentiality
redeployed
abandon
abandoned
occurring
occurrences
forecasting
consulting
steadily
phrases
confirmation
diagnostic
##ometres
congratulate
tackling
narcotics
vanuatu
heroin
thrust
abducted
shifting
nursing
helicopter
enrichment
sacrific
unequal
athle
kabul
santa
sincere
##ogenic
photographs
protein
fronti
harbour
merger
wisdom
enthusias
venue
verbale
apportionment
earmarked
fmct
retirement
testimony
breeding
tragic
tennis
spheres
irreversible
wolf
reunification
exacerbated
pronoun
plurinational
tremendous
arrears
peninsula
microwave
icrc
toilet
interregional
undoubtedly
brunei
shortcomings
illiteracy
1st
ai
bw
brac
bern
bare
boring
creat
crown
dc
dal
dpa
dancing
diction
fate
fard
fib
fung
gro
hed
hors
hone
hiding
htm
ie
jim
lend
lump
mp
ming
nerv
pf
pale
pione
rs
ride
rout
rating
seld
ta
tc
tie
tide
tian
vested
wen
wong
yang
##rh
##rin
##eu
##eer
##ifer
##mod
##pan
##dens
##gent
##gence
##len
##los
##lif
##liness
##lamation
##vis
##vent
##ville
##urable
##kj
##63
##tiary
##inks
inacc
##ano
##itate
##ingual
##ectious
##omon
##eliness
##ili
##stone
##urious
straw
comoros
##irth
##oper
deeds
##ulent
##vert
unenc
alm
alumin
##mps
notified
anx
anch
anthrop
##abis
exit
commens
parity
parks
parking
202
207
20th
chen
chip
charm
##ocial
adhere
shad
shorter
interf
interfer
interrelated
##osity
##chron
##rome
impeded
wore
worship
incumb
haw
spots
arises
artific
##iest
printed
disreg
consular
##amine
workforce
##oured
peer
assumptions
supplied
supplements
intense
moist
shoulder
##agon
invoked
poet
outlook
clock
bob
bottle
tertiary
##arios
secretaries
butter
##rick
##entiary
basin
basket
marking
##rued
##rutin
##racted
poses
propor
somebody
overwh
carriage
anyway
anybody
desert
promp
score
scrutin
guys
delib
delhi
esa
violates
annot
healthcare
152
158
directive
directives
max
cave
civic
instal
lock
locked
infectious
149
##cture
awg
awai
modes
smith
secondly
encl
creates
technically
165
168
161
164
lifted
lifesty
brig
178
177
176
17th
surf
conducts
differential
multim
chart
charles
schooling
criminalization
approached
placement
bio
bias
226
debtor
privatization
timing
annexed
victor
payable
tower
introductory
exciting
vola
volumes
voiced
readily
circled
comprehensively
291
reforming
veget
believing
sugar
herewith
typical
threatens
eliminated
bali
originating
burdens
finalize
templ
discusses
prosecuted
adjacent
austrian
salt
portray
ideals
cannabis
demanded
networking
experiments
##iscipl
webc
fisher
categor
##appy
egyp
filter
interpol
bigger
solving
inspections
eventual
suspend
suspects
suspicious
circumstance
encouragement
restriction
competencies
honor
females
describing
escape
harmonizing
convenience
vacation
consumed
argentine
extrajud
appealed
engineer
##box
tunnel
births
silk
silent
shipments
packing
packaging
surely
attempted
cooperated
hotline
breakdown
commented
deadlines
intensity
macao
weakness
maximizing
richard
boyfriend
advocated
alignment
serbs
##quiries
dimensional
imprisoned
municipality
boundaries
naval
warming
colonel
liberian
disappeared
deficits
johnson
congolese
##thetic
albanian
disadvantage
disseminated
depositary
alike
rolling
chains
attainment
pillars
icef
vessel
disagree
streamline
workplan
troubles
totalling
perfectly
ctc
retired
kilometres
ancest
scenarios
disclosed
exhaus
incomplete
split
delete
rockets
criticism
broadcast
golf
virginia
vaccine
vaccines
bathroom
couples
accumulation
jumped
livelihoods
immunities
jewish
laser
unequivoc
screening
escalation
condemnation
teenage
aborigin
poisoning
licensing
alarming
imbalance
mirror
evacuation
audiences
revitalization
interdepend
pbc
dynamics
ticket
unprofor
prefecture
deserves
bureauc
irrespective
philosophy
recycling
margins
minurso
benchmarks
linguistic
avenue
chocolate
unomig
coexistence
hygiene
pandemic
thomas
inaug
overarching
psychosocial
fardc
overwhel
awaiting
extrajudicial
ay
aro
ace
ara
bib
bone
bold
cig
cess
cac
cow
cric
eb
eminent
fant
fans
fold
giant
hired
ja
jet
ki
kiss
lc
lon
litig
losing
mt
mop
nom
nong
null
piv
riv
sg
tab
vet
varies
xiv
xii
yard
##run
##rarian
##nam
##naires
##top
##tably
##pay
##hu
##due
##aul
##aire
##case
##writ
##weg
##lad
##uates
##xts
##zi
##68
thread
##tium
##inqu
##inated
##orious
##orestation
ink
inability
inland
toy
toll
##isible
##ingly
##omer
##asi
##asive
##letin
##letter
##olly
##stat
##thy
stol
stup
deforestation
##riages
##teb
noble
nobel
resemb
commend
chi
chat
##oca
##ighters
##aye
shen
##osia
##cha
##chlor
leap
##una
##oded
imply
impression
##andes
##istrib
incur
hep
spr
print
##grad
allot
notable
co2
coinc
##apy
##iah
##roup
compress
consume
##ichuan
##formation
accus
undaf
##eman
contends
manip
mankind
polish
##soever
opens
upr
uph
upset
synd
##achel
conciliation
invari
inviting
poem
outlines
clay
soci
##inement
economists
yearly
doors
marsh
minus
insist
discoura
discovery
carries
activists
roof
specially
priest
desc
scan
capture
evid
assistants
confined
loose
loving
afforestation
annan
sheep
sheikh
produces
buen
##ructure
financially
proposing
phased
belize
belgrade
agreeing
agendas
principe
verif
verified
verba
viewing
corp
directory
idps
modifications
217
216
objections
collateral
quaran
specifications
flame
brill
brush
172
174
indict
chairmanship
completing
legislature
variables
appropriation
investor
##rability
238
233
columb
ruled
245
243
246
biot
methodological
grav
blocked
228
invested
warfare
careers
founding
foreigners
posted
postal
realities
261
260
volatile
wheat
negotiable
##ranted
claiming
readers
download
freezing
cosp
arranged
contracted
player
listening
entitlement
1983
##tifying
penet
barrel
auditing
taste
buried
350
supers
proceeded
easing
metres
pressures
absurd
selective
selecting
selectivity
compete
##awa
inflamm
multilingual
infringe
objectively
unfair
widen
traveling
travelled
travellers
multilateralism
chapters
turnover
correction
complainants
prohibits
appreciates
1979
1976
textbooks
angle
keeps
solomon
neglig
negatively
choosing
restricting
subsidized
##naissance
mindful
1966
missiles
strikes
reconnaissance
bulletin
vacancies
farmer
adapted
curtail
usefulness
analyze
remedial
engineers
prospective
explains
renewal
packages
confirms
checking
microc
switch
cancel
robot
witnessed
soldier
buyers
milan
milest
graduate
sleeping
optimism
chairpersons
laboratories
unsafe
newsletter
acceleration
doubled
fuels
premium
rejection
synchron
nicosia
camer
transformed
titles
liquidity
websites
contingents
strain
converted
disappearances
clarified
worthy
ballot
condemning
remembered
virtue
cpc
disadvantages
executions
dreams
interviews
interviewed
armenian
disciplines
barrier
##general
coca
aliens
exempt
exemptions
regrettably
praised
sampling
undermining
destined
contempl
summarize
duplicate
abdel
copyright
fertil
evolve
evolved
ceremon
apartment
illustrated
kilo
##flow
##jiang
occurrence
forecast
distinguish
interpreted
shelters
prioritize
prioritized
kitchen
lectures
wounded
unanimous
comprise
crpd
##hyd
moscow
passion
rebel
simplified
tariff
pulled
crazy
sequence
preamble
abortions
affiliated
alleviate
dwellers
enactment
thoroughly
rhet
unexp
unexpl
hampered
disorder
scarce
pesticides
paramount
dispatched
frozen
reclassification
deportation
privileges
cassation
forgotten
rico
refriger
trademark
defeat
landscape
vendors
noticed
indoor
bankruptcy
sensitivity
##criptions
underpin
positively
precursor
advertisement
vigil
cotton
countermeasures
robbery
echo
guests
random
unusual
altogether
consortium
consecutive
quotas
dictionary
horses
routes
seldom
unencumbered
commensurate
artificial
disregard
volatility
##isciplinary
aboriginal
cigar
stupid
verbatim
5th
6th
bent
bic
bak
bam
cit
cater
cres
cauti
dick
eag
fid
gs
gust
goss
goma
hay
hiring
hfcs
jin
kr
kim
lion
lind
lung
lights
mice
masc
nd
nag
pp
pel
ration
rum
sq
sid
sab
sake
sichuan
tune
utter
wake
wings
wicked
yan
yah
##ois
##rual
##etic
##eem
##try
##town
##iu
##iat
##iations
##md
##making
##ye
##yah
##ygen
##py
##pc
##dl
##days
##far
##atisf
##ci
##bn
##bag
##born
##uity
##upp
##uang
##uits
##85
##ject
##ken
##kin
##zens
##19
##43
thro
threw
##onic
##tist
##titions
##estim
##inter
##oro
##orative
##orian
inqu
inappropri
##arial
##arov
toxin
##ito
##itted
##ationary
##ouch
##isual
##icom
##icacy
##icago
##rob
rear
reforestation
forged
conqu
probe
##stal
##stairs
##uri
##urately
stro
stones
bever
##tery
##ires
withhold
##acity
unfic
##aded
alph
orb
orch
nod
notifications
resign
restitution
##abouts
205
204
chanc
chicago
enum
enacting
##ainable
shock
shops
interrog
repay
repub
repression
##mee
##chool
##usha
lehman
##izer
##untary
impul
implication
##itiously
##qual
##ako
##aki
##ills
agrarian
reck
pris
dish
coat
##aph
exporters
compiling
compatibility
##amed
relying
acceding
##ourge
##ustainable
##emn
##oused
plenty
indemn
abkh
##lose
efficacy
undergoing
underground
lav
submar
##ella
supporters
##ogues
##soft
opium
truck
trunk
upward
upcoming
syl
canal
concert
mot
mood
##agg
centred
pole
clandes
bother
terrible
button
##inees
childb
marriages
##phy
monopol
##racies
##ernand
discrep
##echnology
approving
carto
commissioners
10th
people鈥檚
assemblies
revol
cried
ifad
scrap
scores
scattered
guilt
captured
policing
delim
provider
##acked
##ounded
teeth
static
planting
adventure
feat
presenting
demanding
opera
firstly
furthering
joining
considerably
redistrib
purview
cauc
depic
defl
default
administrators
medi
185
##lika
engines
fragment
amongst
modification
modify
215
218
earlies
expressions
collaps
emig
emerge
oppon
##ovisual
##owners
distant
container
involuntary
declaring
southeast
236
label
252
251
259
gramm
blame
227
universality
posters
visas
questioned
questioning
questionnaires
288
cleared
litre
electro
voices
detri
detected
circle
circles
295
successor
##rones
occupy
classical
270
simon
credited
##dict
##shasa
emergence
audio
##umph
finalization
tele
subsection
subsistence
metals
billions
adjusting
failures
taxonomy
absent
competit
passive
passport
counterfe
width
##efin
grid
##ursed
uncons
auto
autumn
illnesses
responds
deepen
industrialized
industrialization
550
1971
physics
angu
425
chemist
reasonably
##valu
egg
drinks
sensitization
##ika
mexican
icsc
utilizing
armoured
1963
rounds
diplomats
supplemented
brazilian
jurisdictions
picked
##eeding
tenure
platforms
750
microsoft
cycles
cellular
didnt
slowdown
deadly
850
dominant
empowering
excellence
reproduction
intensifying
cruise
georgian
pensions
unsustainable
deriv
disappoint
reliability
accelerating
belongs
construct
explosion
prosecutions
premier
mounted
1948
misuse
mercen
holoca
hurry
hurric
unmis
blog
khal
painting
exceeded
deploying
checkpoints
spreading
extremism
retaining
eritrean
schedules
ballistic
ranks
restored
reminder
luxury
paths
##zhen
arrests
mdg
terminology
instructed
battal
matching
brands
dilig
ladies
exempl
regrettable
prevailed
contracep
wealthy
knock
summarizes
vietnam
expeditious
streamlining
##rupted
enrolled
freshwater
guardians
francis
illustrate
flooding
misconduc
stockpile
stockpiles
oversee
dissolution
unfortunate
splend
hydrogen
ruth
touched
incentive
##ometric
interpreter
interpreters
oxygen
pushed
administrations
kitts
burned
hunt
lecture
compounds
simultaneous
aquac
seizures
buddh
manufacturer
wireless
succeeded
diminished
unwilling
expiry
expiration
symbols
sacred
clubs
desirability
depletion
receivables
affirmative
scholar
alleviation
junior
crack
shaped
disorders
endangered
audiovisual
pesticide
louis
##zzle
generously
peasants
danish
inevitable
inevitably
stagn
interloc
dismissed
controversy
scotland
kinshasa
orphan
clauses
catalyst
configuration
disproportionate
triangular
magazine
ineffective
foregoing
swiftly
shortfalls
predictability
discontinued
inmates
arctic
dismant
situational
electromag
neglect
pierre
amisom
amazon
magistrates
kimberley
indiscriminate
abidjan
persecution
fluctuations
frontier
deliberate
instalment
vegetables
interdependence
overwhelming
cessation
litigation
stolen
quarantine
unexpected
inappropriate
unficyp
chancellor
abkhaz
earliest
holocaust
misconduct
aes
aerial
bore
boun
bits
ci
cers
cens
cav
cather
casting
ceased
dor
dak
drough
dying
dict
fon
fan
fence
fog
fond
fasc
fiber
fighters
gi
gou
gates
gord
grab
gamb
hou
hards
hars
iom
jury
kal
kings
kenn
kurd
lus
lacks
mw
mb
mog
mouse
oz
oas
oau
omission
pent
pad
pries
pcp
rc
rat
ros
rigor
sang
surr
sending
tb
tar
tec
tip
tens
tiss
tony
vs
wer
weld
wives
wrec
ya
##oil
##oir
##rass
##ns
##tles
##turing
##sin
##mis
##math
##mother
##hand
##him
##dd
##don
##fc
##fold
##feeding
##ais
##aution
##will
##gri
##lock
##vian
##bec
##uter
##je
##jing
##14
##96
##tians
##err
##esi
##esh
##esis
##inal
##inian
inso
inex
inches
inquiries
##anthrop
##aro
##arks
tol
##itz
##icate
##ician
##ela
##elihood
##roid
##roach
##asted
##mented
forem
foref
##leep
condom
ont
##oli
##sters
##urers
stom
stun
beir
beam
asleep
##ional
thats
##iral
deprec
##rif
##ulty
##acle
una
unco
unama
actor
wholes
wholly
noon
ana
ank
anten
##abo
##abad
##ticultural
chern
chances
chequ
##ochem
##ighty
##utu
##utor
shi
shin
shed
shal
shocks
shipped
##uced
interval
itc
##cher
##usts
##usco
nets
nevis
leather
leaf
##odes
##odium
##odox
imperial
impedi
implies
##andise
##uming
seam
inclus
hex
spont
recre
reclaim
recosting
artist
prud
disin
disgu
##iao
##allic
##licated
expedi
compare
compelling
decorated
rele
reloc
accrued
accurately
undue
peak
plates
plaza
induce
indefin
induced
abused
underline
##ordic
asserted
trace
trains
traders
laur
##elles
suppress
trillion
organizers
amid
programmatic
informing
concise
respects
fined
##agu
obl
invit
centers
socie
usa
butt
persisted
economist
servant
dozens
childcare
marx
transp
monusco
inscribed
protects
approves
legacy
propri
overtime
overdue
caring
carol
caricom
activated
##indered
##otrop
whoever
scr
scand
screw
scaling
peacemaking
guam
dire
diox
fires
secretarygeneral
##mitted
##author
##okes
##mester
advent
confession
confusion
preschool
formats
operates
nonp
emper
affaires
##ountry
joe
producer
republican
refuses
bug
##ructive
159
dirty
endos
##ysis
##redit
cafe
phasing
depended
norweg
responsiveness
aftermath
whereabouts
goodwill
currencies
sustainment
verify
verdict
coral
hello
183
importantly
deceased
moderate
modules
219
210
banning
prevents
creativity
167
309
quo
delegated
specification
universe
flour
progressively
risen
rises
employing
grows
consultancy
obsc
variant
charity
conflicting
statutes
profitable
reduces
democracies
aires
airlines
beneath
colony
biology
combine
258
253
256
retri
departmental
performances
qualify
warrants
deterr
lima
thirdly
facilitates
regulates
regulators
timeliness
310
positioning
annexation
analysts
281
289
287
excited
geo
sexes
##otherapy
identifies
reads
treating
downs
293
299
contractor
274
keyword
slums
morgan
observatory
##arskj
##ashed
brake
##shine
holder
transferring
efficiencies
codification
##lessness
temple
talent
copper
outset
shortages
scientist
broadband
punitive
332
password
ivorian
calib
unfold
destabil
happening
runs
##inaf
preclud
precision
precaution
speaks
physically
embed
radically
compensated
harves
supplying
crossings
demonstrating
updates
settling
micros
ohio
sensors
minimal
restrictive
santi
unhappy
unhindered
minded
likelihood
icao
exploit
cleans
##pska
bullet
demonstrates
demonstrators
sanction
hungry
degraded
flew
fleet
manufactured
interpretative
linkage
philanthrop
traction
eighty
hoping
measurements
checks
checked
neighbor
attempting
##onym
commentaries
wastewater
indonesian
slowing
winner
commanders
ultra
accepting
dominated
grades
gradual
searching
swedish
watched
translate
psychology
psychiat
rivers
congresses
optimistic
derog
elaborate
constructed
ukrainian
gazette
premature
purchases
mounting
misunder
subprogrammes
camera
sunshine
intentional
varieties
stayed
calculations
sami
wooden
affirming
convergence
fears
homeland
homicide
clarifying
belarusian
babies
sympath
sells
dedication
srpska
##ospheric
sahel
boxes
drove
eurozone
darkness
dilem
surprising
exchanged
apolog
funny
palace
palau
expeditiously
pledging
sinks
streamlined
removals
cereal
ignor
troub
totalled
sickness
confronting
confronted
confrontation
parameter
francs
daughters
toxicity
absorbed
putin
sharply
fruitful
griev
recurrence
furnace
forgive
therapeu
abstract
sandy
songs
##metry
1325
muslims
astr
dpi
disparity
##ometry
criticized
congratulated
congratulations
underscore
underscores
pipeline
crowd
queen
quebec
breastfeeding
coupled
bags
bonds
solemn
cheaper
jewel
borrowing
hanging
iccpr
tuvalu
entails
aerosp
bacterial
tailored
albert
screen
cornerstone
multiplier
stringent
assertion
restaurants
sultan
disburse
swimming
imbalances
enthusi
paramilit
peasant
stranger
1718
battery
rifle
hammarskj
abundant
differentiated
hcb
tentative
vibration
orphans
proclaimed
persuade
merchandise
aggravating
finger
muscle
hipc
lodged
tetra
wipo
##copic
rigid
inferior
correlation
entertainment
mathematical
hierarchy
lubric
champions
propaganda
multidisciplinary
stimulus
horizontal
kivu
demining
paradig
panellists
automobile
pragmatic
athletes
anthropogenic
incumbent
moisture
scrutiny
arose
nongo
veto
shenzhen
accusations
buenos
verifiable
columbia
microcredit
kilograms
rhetoric
crescent
cautious
gossip
throat
withholding
republika
impulse
pristina
clandestine
childbirth
cartoon
delimitation
mercenaries
aquaculture
electromagnetic
droughts
harsh
priests
surrender
insofar
foremost
beirut
wholesale
inclusiveness
norwegian
therapeutic
hammarskjold
030
bil
bun
bian
bars
binary
bachel
cm
cb
ces
dna
dakar
ddt
e4
eec
ff
font
gis
gau
gently
gym
hing
horn
ion
iff
ipr
jal
jones
kad
keen
kick
lun
mur
mcc
masters
ni
nh
nas
nich
naur
nordic
pg
pis
ppp
rations
rip
rug
rick
slic
serg
sorrow
ti
tag
torn
umb
vent
vague
vlad
wra
ward
wmo
xiii
ying
##oz
##ointed
##rance
##rine
##rator
##nance
##nish
##nian
##notes
##eh
##eti
##tage
##turn
##taking
##tarily
##iology
##iferation
##mid
##makers
##yt
##yard
##power
##ho
##har
##hel
##hua
##dc
##fly
##father
##aus
##aments
##cl
##cas
##cut
##cence
##west
##writing
##gm
##gar
##lc
##vial
##uties
##57
##27
##2nd
##200
##xi
##jean
##kland
##zzy
##zona
##17
##40
##9th
thrown
##onium
##erts
##erian
##inous
##edonia
##anted
##atus
##arb
##itt
##oum
##oug
##ouds
##icm
##icon
##icable
##elo
##elve
##elect
##asm
##asp
##assion
reh
reop
reapp
reactions
rebound
forc
forcing
conception
onset
onwards
prog
proactive
##rand
##race
##stery
ster
stole
beach
beast
behold
##idal
##iration
##irical
##opl
##essing
iso
##tinely
##sein
unfor
unman
unav
unta
unwan
unauthor
##adata
alumn
nose
resent
rests
exh
exert
paral
meter
meters
206
2030
2050
chop
chong
chung
chlor
enters
enzy
##occ
atroc
adh
adhes
admissible
interact
interactions
##osc
repos
reperc
repairs
##enda
##ussions
neu
lean
impl
importing
implied
wors
##istle
seism
seych
seoul
incred
developers
aging
hege
healing
spac
spear
spelling
spelled
spla
spark
##iev
arth
artill
arusha
##iph
##erald
genius
##licted
wei
apple
appell
19th
relics
proves
undof
undesi
pear
conten
contest
abilities
manages
effected
underrepresent
underestim
##tivate
assass
laz
humankind
saicm
##uba
subd
suburb
supplier
##ogene
intu
prete
##uez
opcw
trucks
nationalities
addic
concurred
motions
invisible
procuring
outdo
clip
clashes
clouds
##astroph
boosting
persists
##orship
##oune
##keep
##unda
soy
basically
maria
insul
insects
legs
articulated
overf
overload
overhead
carp
carc
elite
communal
robo
rooted
##onditions
##imeter
revive
##ott
deserve
promises
scor
scra
scul
scarc
scourge
twin
twit
twelve
guest
guards
deline
diar
firing
liver
incremental
math
maturity
myth
mystery
rema
planted
fever
publicity
authorizes
confed
confinement
presences
prescrib
accords
ordnance
empirical
educated
##mann
provisionally
redd
redund
##rows
whatsoever
globe
##ava
presently
deputies
##roliferation
instant
belt
13th
extensively
euros
signatory
defects
practis
serial
principally
actu
legality
vertical
accessing
idi
##enne
controller
smok
offensive
expressive
objected
collision
cream
creep
163
quest
flats
179
oppose
opposing
##obe
multif
multicultural
lifetime
conditional
profiles
containers
appropriations
appropriated
enhances
criminalize
guides
235
232
23rd
labelling
242
248
247
bih
combus
gray
blan
225
222
223
performs
fright
warnings
warranted
facilitators
explor
judgments
malign
malvin
executing
privately
payroll
262
clearer
contexts
triennial
triumph
stephen
risky
void
pursues
federated
circulate
downward
senator
successes
occupations
slaves
simulated
estimation
trafficked
##ported
##ashi
hereby
603
permanently
promotional
challenged
transferable
oldest
grey
origins
40th
lacked
coping
metric
metadata
trustee
harmed
adjud
homework
devil
comparing
midterm
voluntarily
races
equalization
338
326
inflows
caledonia
infring
objectivity
closest
widening
complied
formerly
destructive
adequacy
uncle
nearby
preconditions
1974
42nd
560
##neys
eggs
injection
injecting
reinstate
gotten
661
inspired
crash
crude
reserved
##ija
migratory
masses
steam
stepped
ambig
musical
utilities
armaments
consolidating
687
logic
1968
1960s
definitely
missed
replacing
assigning
sponsor
sanctioned
heavier
dependency
incorporating
tells
prosperous
computerized
eighteen
packed
memorial
spiral
1954
cooperating
perpetuate
perpetrated
cancelled
winning
852
diagram
graduation
graduates
supervising
cattle
translators
automation
automated
badly
narrative
ghg
stipulate
powder
colombian
arriving
##ascular
rejects
1945
embarrass
constrained
##rella
predicted
khart
painful
ugly
videos
complemented
complementarity
convictions
odd
railways
probable
probability
reveals
excludes
knee
squad
explanatory
inhumane
dignified
concentrations
liaoning
grandmother
popularity
immigrant
mobilized
wondered
lengthy
matched
sponsorship
halting
laden
bottlen
contraven
contravention
##arctic
repatriated
aggressive
attainable
ranges
ranged
analyzes
abdul
overcrow
routine
rationale
imagination
ccpr
sadc
exhibitions
stereotyping
extracting
francoph
cathed
governorates
uniformed
flagrant
absorption
##flows
grind
furnish
ombudsp
enlar
abandonment
marginalization
beside
fuzzy
forecasts
repaired
castle
loading
cantons
dawn
laughing
laughter
breathe
ipu
intercountry
heightened
typh
recruiting
deferred
revolutionary
mcd
vitamin
landmine
crystal
therm
intermediary
intermediate
intermediaries
artists
simplify
diminishing
tendering
mohammed
diversion
immunization
thresholds
iccd
conceived
vigorously
##ulfan
commemoration
depleting
multiplication
condemns
reassigned
trigger
endorse
1874
dwellings
antarctic
blowing
militia
encompassing
petitioner
constituency
prayer
##fields
stemming
concurrent
concurrently
rifles
tactical
##roviral
reversed
beaten
interlink
controversial
abundance
foolish
conversation
conversations
alteration
disrupted
guangzhou
statelessness
restraint
mentoring
buffer
triangle
catalogue
predominantly
alexander
cisg
postponed
precedence
arizona
bubble
geared
rodrig
yuen
shirt
havana
bribery
pounds
##atoes
stretch
impairment
incapable
overlapping
posterior
cyclone
triggered
molecular
ingred
impressive
bargaining
corridor
injustice
prerequisite
folk
pocket
orthodox
perfection
subordinate
antibio
adjournment
embraced
ultrason
enthusiasm
dalai
shadow
poetry
annotations
egyptian
upheld
brilliant
biotechnology
cigarette
bicyc
bamako
yahoo
fragmentation
stagnation
catherine
dakota
gordon
rigorous
weren
yaound
forefront
stomach
depreciation
nonproliferation
emperor
endosulfan
embedded
cleansing
psychiatric
astronom
aerospace
nongovernmental
umbrella
unwanted
alumni
repercussions
seychelles
artillery
undesirable
malvinas
khartoum
4th
8th
ate
apar
bish
bund
bru
bones
cge
cay
cerv
cep
cite
craft
ceme
dy
dg
dod
denti
deng
dpr
dare
duck
domic
eh
eve
fs
fel
fals
foo
fought
fusion
footing
fdl
gam
hg
hits
hither
istan
jp
jar
jab
jacks
kl
kat
kis
kow
kfor
kness
kamp
kaf
lid
lac
lined
lenders
lisa
mate
mari
males
moses
melt
mtr
maker
nit
nun
nest
nick
nik
naj
naked
ore
olig
pity
rm
rans
rog
rocks
rhy
sd
sie
senti
sack
scep
sna
sids
ted
til
tad
tries
tire
um
umo
vil
venti
ville
ws
wiz
wmd
yen
yun
##rest
##rally
##non
##nan
##ea
##eon
##tts
##tural
##tland
##iol
##iency
##su
##sil
##syl
##sky
##yo
##pg
##du
##dor
##dong
##drop
##fi
##fig
##from
##fied
##aults
##cill
##clusive
##win
##life
##van
##vic
##vania
##bar
##bas
##bow
##backs
##uing
##uously
##28
##84
##33
##kong
##kov
##zes
##1st
##4th
##69
thri
##oni
##onie
##erd
##ertion
##erting
##erie
##enuous
##iner
##ortioned
##orient
##edy
##alo
##ald
andean
##anied
##arized
toys
tokel
##itan
##itar
##itated
##iteness
##ouble
##isy
##isites
##ecks
##omfort
##relig
##eling
##roit
##rolo
##aser
##asia
##aspor
retal
##ilation
##ilib
ford
forge
forging
forfe
forbid
##lew
##lex
prost
##raining
##ols
##stop
stored
stuck
beard
beating
##tering
##irl
##iratory
##oping
depar
deaf
##rium
sus
unmit
unsp
unpl
unques
unisp
unmee
##adish
##adays
whistle
alf
residing
resurg
anton
anonym
##abe
exter
extin
cousin
commons
commending
partition
meg
chel
chrom
chron
chips
enteb
##ocity
##ocese
##uten
##ayoune
shake
shui
interfa
interrelig
##osts
repeal
itu
##metic
##che
nex
leak
lease
counties
##uni
##oding
impover
##andard
##quet
##umi
wasted
sept
seize
##illed
##illary
hamas
goog
hey
heights
spans
spell
spray
spouses
##imal
aris
arena
aroused
prst
pride
prorated
registers
dishes
disruption
##ector
coe
coke
coasts
##ardo
##apest
##anty
##iative
##iams
##allah
expired
expelled
compelled
consisted
perv
percep
wears
appreh
apportioned
1930
##amy
hassan
petitions
plun
plum
##estrian
abra
manches
##loon
##loqu
undergo
##rys
strat
##ords
##order
assim
assists
assuming
trap
traded
trades
trauma
laure
laayoune
suppose
##oga
intang
##etes
##uality
amman
sym
##epart
##ache
##achuse
##retroviral
motives
respiratory
##agers
##agasy
particle
therefrom
invented
centuries
outl
boiling
booth
secretly
uss
yearbook
##entious
marc
transpl
monkey
monitors
##rack
##raction
insights
protested
protracted
disclose
posting
legend
overrun
caret
careless
activation
specialist
##iana
scales
guerr
wells
caps
delight
delisting
finances
lively
##evo
matric
materi
myster
esp
particulars
confused
demarc
ordin
empire
lof
loves
loyal
educate
refine
refusing
redouble
purification
improv
endow
endless
differs
diffusion
maid
locate
##ptf
##pture
extends
defamation
serge
info
infants
accessories
idf
142
offs
soup
banned
banana
nowadays
declines
16th
1612
valle
valve
308
303
quit
quoted
queries
popul
receives
landed
landing
landowners
menu
bras
donald
indicative
sixteenth
differently
differentials
designers
recognised
analog
##owned
fourteenth
multitude
variations
variable
disputed
##ostationary
criminality
fullest
openly
backing
backward
backdrop
criminalized
swall
airports
231
cola
colors
combinations
257
grace
retros
bloss
blank
handful
fifteen
obligated
substandard
debts
malagasy
arabs
timelines
265
285
283
centralized
litem
litres
trivial
volcan
wheels
geosp
geostationary
voter
290
panic
referral
instrumental
##ickers
jane
listened
271
traffickers
ethn
morbid
observes
constitutions
potatoes
1980s
hereinaf
tooth
penit
professions
holdings
balkans
turtle
audited
50th
finalizing
##regulated
coding
singh
singing
singles
cyl
operationalization
antiqu
antiretroviral
hometown
puntland
comparisons
336
322
patern
salim
fourthly
unfav
counterpart
eleven
harder
travelling
grasp
forwarded
unclear
punishing
damaging
consequent
professionalism
corrective
corrected
infrastructures
northeast
deepening
fundamentally
fundamentals
1970s
hosts
chartered
360
enjoys
injurious
allocating
gotta
arbitrators
494
660
crossed
denoun
denying
denomin
solitary
critically
flowing
hopefully
suspic
reservoir
motherhood
settler
399
micrones
convince
convoy
kills
acquiring
avoidance
sensible
##inson
peacefully
massachuse
stepping
alongside
388
deliveries
icp
1961
1969
firef
exploited
definite
exported
influx
influential
fairness
stopping
reconven
reconfig
bull
generator
conferred
consuming
understandings
curious
##ushed
permitting
hungarian
bureaux
extrad
nino
flee
prospecting
interpretations
fox
tracing
804
eighteenth
stir
colleague
1952
microb
chaos
editing
editors
hotels
magnetic
corresponds
accepts
layers
constituting
empowered
waited
graduated
bosnian
catastroph
slept
reproduced
reconcile
intensification
psychotrop
optimization
pensionable
stipulations
engagements
##ucky
alleging
elaborates
elaborating
backgrounds
explosions
advocates
purchased
speedy
##ascus
answering
1946
withdrew
pilgri
embarked
transforming
handsome
hurst
unmovic
intentions
painted
titled
preferably
cheer
cheese
horm
##hammad
clinic
malaysian
favoured
jordanian
beneficiary
917
abolishment
##trical
oslo
validation
belgian
faithful
reinforcement
nominate
arguing
versions
##theid
concentrate
reminds
accommodated
ecosoc
acquisitions
temperatures
droit
##ridge
eurostat
blueprint
##ullah
regretted
spokesp
waiver
bitter
fitting
knife
undermines
summarizing
funeral
manuals
manifestation
speeches
routinely
ccw
unpred
recipients
reciproc
escaped
suck
##laimed
retirees
enemies
extract
extractive
epidemics
suitability
unamsil
pretend
texas
kilome
colonialism
furnished
ratios
bandw
unaccomp
xxv
promulgation
defendants
displacements
inspector
rubb
tonight
mentioning
canton
dpko
hills
ltas
emotion
emotions
displayed
berm
sarah
prioritizing
entrepreneur
torque
tonga
churches
royalties
divorced
hunting
xvi
aquatic
cooling
budapest
daddy
residency
shifted
accumulated
angeles
garage
listings
unreported
gateway
nurses
nursery
stamps
souls
censuses
hyper
irregularities
bacteriological
fraudulent
affirmation
museums
licensed
roughly
chronicle
abuja
1353
thickness
doctrines
discretionary
owed
lobb
lobby
axis
blew
bleeding
fraction
fracture
tactics
stagg
unintention
privileged
plastics
guangdong
merchant
consciousness
aggravated
fingers
refrigeration
practicing
dispersion
blessing
magazines
lodge
stigm
reorganization
arsenal
crews
mahm
flaws
velocity
warehouse
##worthy
##brush
inconclusive
clerk
florida
uneven
cherish
reconsid
diabetes
blocs
kidnapping
scholarships
pennsyl
xinjiang
invoices
graphic
vegetation
unconditional
embodied
sacrifice
pronounced
honey
nervous
pioneering
aluminium
anxiety
anchor
charming
proportional
lifestyle
brigade
surfaces
multimedia
webcast
ancestral
unequivocal
inauguration
rivals
##aulting
##graduate
syndrome
invariably
marshall
descended
barrels
inflammation
multilingualism
cameras
fertilizer
unexploded
catering
enumerated
indemnity
monopoly
competitors
unconsc
chemistry
diligently
exemplary
aesthetic
lusaka
mogadish
tissue
##ochemical
spontaneous
invitations
societal
scandal
dioxide
keywords
destabilizing
santiago
dilemma
apologize
troubled
paramilitary
paradigm
biann
lunar
nauru
wrapped
unforeseen
unauthorized
##occup
atrocities
seismic
contention
carcin
robots
remainder
confederation
malignant
grinding
ombudsperson
interlinkages
ultrasonic
bicycle
yaounde
apartheid
bishop
dprk
fdlr
hitherto
istanbul
kowloon
knesset
umoja
ventil
villefort
tokelau
##rology
##aspora
retaliation
##ilibrium
departed
unquestion
unispace
antonio
entebbe
interfaith
interreligious
manchester
materiel
mysterious
demarcation
geospatial
hereinafter
micronesia
massachusetts
psychotropic
unaccompanied
pennsylvania
mogadishu
820
ain
auc
akh
bn
bp
buc
bog
bric
backs
cw
centi
cute
cran
dk
dol
dos
diz
dong
dining
dried
dfs
eti
eur
eman
etern
fake
fric
fairs
foss
fpa
fancy
fiction
fernand
gb
gor
gig
gest
grac
gatt
hs
ia
iec
imit
jing
jol
jake
jung
jason
ko
kor
kent
kol
kod
ket
kern
kash
kof
lj
lra
lur
lam
lays
lateral
lane
lasts
mould
mild
mumb
mighty
nw
nond
nass
nights
oak
ocha
pm
pk
pere
pall
pens
pile
pav
pink
pamp
punch
paint
paving
poul
qi
qa
qin
rin
rays
rift
rhe
sas
sth
sorts
tn
tay
tam
tore
tast
tale
tended
tung
tense
tape
tips
tiger
uh
uf
uc
umm
vorte
wand
wah
yam
yards
yale
zar
zem
zinc
##oons
##rm
##ras
##no
##nas
##nst
##nut
##net
##nik
##eve
##eter
##tub
##tens
##iment
##iances
##sl
##mu
##mir
##mand
##yang
##pf
##hat
##hard
##hran
##dated
##die
##fat
##four
##fish
##col
##cess
##wed
##wom
##wind
##works
##wart
##gie
##gone
##ls
##lie
##lace
##vard
##bly
##bto
##baj
##uh
##uters
##5th
##xia
##35
##34
##jer
##jin
##jar
##jian
##kom
##kia
##13
##qing
##05
##7th
thai
thumb
thunder
##tie
##erm
##erately
##eni
##enz
##ener
##enin
##enko
##esy
##esa
##esity
##inely
##ora
##orum
##orily
inch
inward
andrew
##aty
##oulement
##isk
##ectic
##ecraft
##omog
##icides
##ele
##elet
##asis
rey
revel
reign
reorient
##ilia
##ilton
##lead
##olas
##olences
##urus
##urator
##urbed
stal
stain
bee
bees
##teries
##ided
##iga
##opa
##opes
##tinum
##ulator
##vered
##sey
##acch
unic
unse
unmin
unres
unused
unmiss
##adan
acup
acids
alk
alan
##mph
nos
notices
resin
ante
##abol
exerted
pardon
ching
energies
##ocratic
##mba
##utal
##ials
shakes
shoo
shaba
##uca
##ucose
##ucked
interag
interception
interoper
repert
replication
reproc
reporter
##udd
##meal
##meter
##izant
counted
##unting
impr
imposes
impede
impasse
##itis
##andra
##qurah
##ummy
worn
worries
segreg
inclined
##illo
##velopment
agility
heb
heated
heels
spa
spenc
sporting
spends
spaces
spider
spoil
recap
rectify
arkans
prone
prsp
priced
alliances
notorious
disast
diseng
disband
##ipel
##ardly
##aper
##apor
##antation
genes
expound
expiring
compassion
consens
perimeter
weights
appren
appli
##ichi
decomp
##amor
##aman
relied
acclamation
accrual
##ourt
provoc
##ustomed
##ema
##emia
plut
plight
plots
indiv
indices
indiff
abe
abbre
mano
mann
##ometer
poles
politeness
##mine
williams
assumes
##ears
traum
trainees
lamp
humane
sailing
##ildren
organised
openn
truce
programmed
speculation
specifies
ecb
eccas
ecomog
requis
##ached
##achlor
moh
shouldn
shoulders
##ollah
finishing
##agena
obesity
invoke
procure
procession
procurator
centrally
pointing
##reeze
outlet
outright
outdated
clim
boil
termed
##arious
butler
##ricted
dot
##unded
martial
factions
regionally
mini
transpor
monk
monte
monks
insight
insisted
insurg
discourse
technicians
##ommon
mayor
overlo
carl
carlos
##anging
elastic
commune
commissioned
specialization
specializing
anymore
cripp
##graphy
##ologic
##tened
##teness
twins
guo
guitar
wellbe
recommending
captive
capitals
delicious
##acking
diaspora
liang
mature
tee
teap
equation
equilibrium
adopts
##aux
##autical
raf
prescription
formulations
demol
demilit
demograph
nonlin
loos
lovely
educating
##isma
participates
refined
refoulement
periodical
docs
directing
11th
##avi
orderly
depress
depressed
protectionism
1300
responsibly
##aterial
defended
defending
servers
actress
##tisectoral
viewpoint
helen
accessed
idle
frames
awa
modality
21st
valentin
305
302
306
bodily
quin
delegate
lifel
pope
unimp
accountants
landmark
flop
flies
flip
flav
bride
brutal
capacitybuilding
nucle
donation
donated
##obby
sixteen
mechanics
completeness
culturally
communicating
fourteen
multisectoral
variability
charts
dispose
dispens
disposition
researches
conditioned
conditioning
distress
majesty
cert
declares
##unctional
illusion
backup
approaching
234
companion
244
biom
biased
combining
gram
grains
graham
retard
blat
blast
blair
blocks
221
noteworthy
handover
brook
warri
founder
obliging
debated
judged
advising
##aii
investigator
315
318
316
vicious
263
286
lesser
benefiting
restructure
voltage
electorate
voy
negotiators
commonplace
##axy
downstairs
costing
298
294
seriousness
immune
immense
immaterial
##azz
classifications
279
276
slide
slave
dialogues
miguel
morale
keys
certainty
604
##mart
suffers
sourcing
##shan
barely
turmo
tasked
burst
modeling
351
singular
temporal
determinants
cloth
talented
##itized
substit
404
entrench
metaph
metabol
shortcoming
trusted
cyber
youngest
prosecuting
taxi
broadened
broadening
deviations
essay
pastoral
comparability
##away
problematic
islanders
capitalize
330
passes
passports
32nd
sexuality
germ
portable
kingston
unfounded
complies
displays
compliments
traveler
uncts
damn
damascus
appointing
526
covenants
illiterate
infrastructural
runners
precip
preceded
precondition
prisoner
primacy
484
48th
competitions
644
youths
desperate
embody
embrace
housed
348
347
420
reasoning
365
radi
radar
enjoying
egtt
hostages
stocktaking
inspected
drunk
jurid
floors
sensor
416
cubic
massac
##hao
steve
steven
stewards
ambul
competency
380
honourable
sooner
icty
escort
43rd
glory
glaz
glucose
1962
1960
externally
definitive
intellig
erp
adaptive
generates
unidir
708
surveyor
surveyed
pakistani
understandable
curse
practically
##planes
detainee
seventieth
eradicating
677
tuna
photoc
geography
silicon
confirming
neighbors
1959
1950
1957
microbi
microorgan
madame
edward
archipel
walks
algiers
algerian
expectation
witnessing
correspondent
storms
dominance
laying
wavel
supervised
searches
peruvian
psychologists
ninety
riot
optimum
unsatisf
patience
arrivals
736
allegation
advocating
serbian
attraction
burundian
digest
digitization
medication
ibrah
717
supermar
sunlight
holly
prediction
bloody
paints
staying
fixing
moroccan
calcium
footprint
hussein
wanna
chilean
gatherings
checkpoint
straits
victimization
warmly
retains
797
journalist
homs
timorese
785
oneself
exclude
afforded
renowned
noticeable
tolerant
grandfather
mountainous
tendencies
impartially
indexes
instructor
hydrop
culmin
cultivated
fastest
gonz
rainy
unilaterally
equivalents
branded
dili
unlb
brokering
praise
petrol
envisages
exchanging
behaviours
subparagraphs
fitted
fitness
##viating
attained
expedition
insuffici
muhammad
sino
excessively
imagined
ignore
sadly
unpos
struggling
ctbto
dressed
eaten
rocky
guardian
flooded
earthquakes
unami
textile
bombing
dividend
prejudices
redeploy
drops
grief
humor
eligibility
huang
enlight
xenophobic
falkland
michelle
intimate
repairing
splos
encounter
encounters
ruin
##monial
chadian
infantry
amplif
daunting
##ulsive
berlin
ipf
mixt
broadcasts
inhabited
1937
surrounded
endeavouring
baal
crowded
queens
wounds
xvii
genuinely
saturated
celebration
celebrate
celebrating
aquifer
conscience
rebels
shifts
polyg
maryland
reimbursed
unreal
unreason
instituted
dragged
satisfactorily
curative
diminish
lieuten
minerals
1267
cypriots
hypo
lasted
enriched
expires
columns
nigerian
neutrality
belliger
bacteria
cfa
cfc
ridic
ridge
commemorative
relaxing
depleted
breathing
athens
throwing
asserts
assertions
retailers
juncture
proteins
fronts
deficiency
nanjing
shaping
marrying
cartagena
endanger
sufficiency
louise
coaching
strangers
boosted
revitalize
reversal
dismissal
galaxy
kpc
naqurah
condolences
restrained
catalytic
superiority
ascertained
betray
practicable
dispersed
disproportionately
blessed
electronics
bureaus
irrespons
catalog
predominant
absorbing
admiring
shrinking
arsenals
trademarks
postpone
precedent
enlargement
gnss
lymph
weakening
trusteeship
patriotic
gentleman
dubai
sewage
incapacity
overlap
cyclones
unrestricted
molecules
mathematics
cognizant
platinum
polarization
rotating
disturbing
frustration
corridors
injustices
stabilize
prerequisites
indebtedness
dysf
jenny
purely
inhibit
stealing
unjust
leverage
pluralism
drainage
maoist
bronze
substantiated
unconditionally
neighbourhoods
discharged
discharging
brackets
creatures
hedge
ratings
inaccess
almaty
interfere
enclosed
template
templates
portrayed
bibli
lcq
##chloride
compressor
manipulation
discouraged
indictment
milestones
synchronous
ceremonies
eagerly
mascul
ratione
orbital
resignation
repayment
motap
discrepancy
redistribution
mediator
collapsed
opponent
grammar
detriment
disappointment
battalion
contraceptive
buddhist
interlocutors
dormit
hardship
ontario
stunning
una0
antenna
cheques
impediments
releasing
transporting
retriev
harvesting
misunderst
ignorance
jewelry
disbursements
hcbd
bachelor
ppps
untaet
resentment
paralysis
adhering
incredible
hegemony
spacecraft
appellate
underrepresented
underestimated
intuitive
overflew
diarrh
practised
combustion
blanket
bottlenecks
overcrowding
francophonie
cathedral
rodriguez
ingredients
cayman
jackson
kampala
forbidden
resurgence
extinction
google
abraham
assimilation
intangible
matrices
lofty
loyalty
improvised
morbidity
penitentiary
antiquities
unpredict
staggering
unconscious
biannual
friction
kofi
mumbai
tastes
vortex
##acchar
unresolved
acupun
shabaab
interagency
interoperability
repertory
reprocessing
segregation
spencer
arkansas
disastrous
disengagement
consensual
apprentices
indiffer
openness
wellbeing
demographics
nonlinear
valentine
turmoil
1b
3a
7th
9th
aar
aunt
bac
bip
bred
batch
buck
biling
baker
cnd
cic
cted
cun
cock
cef
cites
craw
citig
cables
dm
dh
dv
dic
dop
dus
dun
dere
dating
dair
drow
dants
damp
dug
dash
dental
ez
epa
fn
fug
fried
fbi
fighter
gy
gg
gil
gly
gli
gpa
gps
gali
hig
hiz
hated
hare
hug
hatch
hides
humb
hinge
hobby
io
iw
ioc
ich
iod
ims
ices
iptf
jess
jac
jure
jog
jian
junction
jorge
jenin
kic
kel
kig
kay
kum
kits
lis
lent
lens
lok
lining
lately
loses
lips
lca
lighter
mf
mend
mam
mub
mits
m23
ns
ning
nour
nail
nah
nada
npo
nasa
nacion
om
og
ost
oven
ott
ods
omitted
pess
pian
pays
pork
pairs
paw
pnt
qing
qud
rb
rated
rash
sme
siz
sfor
sib
stit
sli
sends
sne
ssc
tid
tess
tch
tech
tind
tumb
von
vain
vagu
wo
wc
wow
wool
xu
yas
yong
yok
ze
zu
zen
zan
zur
鈥淭
##otion
##offs
##rill
##ride
##raries
##rarily
##rera
##nom
##nial
##nour
##nected
##nuts
##eas
##tto
##ien
##iing
##iac
##iors
##itical
##iya
##ski
##mi
##mel
##map
##mount
##mont
##maker
##yu
##yer
##ptive
##how
##het
##harge
##hole
##hui
##hima
##dan
##dds
##fan
##fra
##fting
##faction
##fix
##atism
##cu
##con
##cat
##cend
##wes
##wal
##wit
##was
##wich
##gro
##gers
##gens
##gences
##gging
##list
##lam
##lings
##vio
##vigor
##bc
##bin
##bie
##boy
##bring
##bert
##uah
##52
##ximate
##3rd
##jn
##jamin
##kit
##kir
##kins
##zed
##zan
##18
##42
##49
##95
##06
thief
theft
##onfer
##tiated
##tiles
##tiful
##erog
##erely
##enic
##enance
##esters
##inin
##inters
##information
##orf
##oroc
##orus
##orating
##ortions
##alc
##aluation
invention
##any
##anned
##atel
##atography
##arra
##arities
tours
token
##itational
##itone
##oup
##ouf
##ouk
##isse
##isers
##isibility
##ictions
##eleg
##asus
reed
reth
reind
rebuilding
fors
fortieth
##level
conges
ons
onub
proxim
##rae
##rak
##raul
##raged
##rained
##oline
##stuff
##structure
##thed
##that
##throw
##urge
stub
stops
stray
bean
beth
beef
##idable
##idav
asg
asks
asham
asym
##ionale
##igra
##irm
dew
deed
deformation
isaf
##rier
sue
suited
sung
##uli
##version
##acs
##acm
unst
unve
unso
unbal
unmar
unification
unload
unqual
unregulated
##ads
##adding
##adoug
acp
whip
whisp
whirl
alert
albe
altitude
##mpan
orange
node
nozzle
nokia
anth
anew
##abi
##aby
##abeth
exagg
##tick
paraly
chim
chag
chari
chef
ench
energe
##velles
##ighth
##mble
##mbled
##owa
##ained
ads
adb
adam
adobe
##ayo
##ayan
shu
shou
shore
shep
sharm
shower
shaw
shots
##uccess
interdic
interrel
interlin
interrupt
##osa
##osan
##osur
replicated
##uded
##udal
##mea
##chy
##chure
##chem
##chief
##children
##endium
neur
lei
leon
leases
##izh
counters
##unitions
secular
##odies
implicit
impeding
implements
impressed
##quette
##akal
##isto
seated
semester
##forest
incest
incarc
hao
haul
developer
agrees
hez
heinous
spared
sperm
##fics
##ficial
##ficiency
##ims
##imited
##imension
recharge
ark
arid
##venir
pren
regal
regression
allies
alloy
disb
disemb
disqual
interns
cob
cox
cobal
coeff
cogens
##iating
generic
##eree
##lical
expon
expose
expropri
computing
complying
compendium
consp
consented
consignment
perme
permissible
periph
weighting
weird
appla
##ivable
##amis
##americ
relent
relies
relapse
accustomed
hasn
generalized
##ibs
##ibati
contested
contacted
##ishi
indians
abiding
abrupt
##aceted
polys
underde
undergraduate
undergone
strenuous
governors
trail
tract
traject
##anco
##ancer
lamb
lame
lazy
lamps
sail
subm
subway
subnational
##ogical
##ogenous
##onged
##ettered
##solete
organisms
opec
opted
##ignific
##encia
amer
informa
informals
upbring
specifying
ecology
addiction
addenda
canv
canned
concessional
mole
motors
fines
finite
##agi
##agger
##agadoug
##agogical
obsolete
inviol
cents
centro
outward
outflows
claw
##osex
boom
boots
terrest
lawfully
usg
usable
useless
economical
newborn
##ountain
##keeping
##ensible
##entified
bash
marvel
marble
faction
faculty
##phem
##phone
miners
mont
monies
monica
insulation
insured
insurer
insertion
insignific
protests
prototyp
needless
discord
discont
approximate
propell
overt
overly
carbo
carpet
##anga
##angle
eli
electing
elbow
esteem
continually
roar
rost
rotary
highways
prix
revising
revival
critics
##rennial
##fta
capturing
policeman
delighted
socialization
evictions
liqu
lique
followup
tehran
myff
equip
equipping
##oki
##oka
ensuing
feudal
authorised
authoritarian
authoritative
raids
ratifications
rahman
promotions
confection
envision
presiding
formul
formidable
noncomp
lover
affidav
educators
annul
annum
annoying
actionable
setbacks
joins
republicans
##intend
refund
bump
redeem
contributor
directs
takeover
improper
endure
endured
africans
mai
maori
##prints
rightly
strategically
depl
deposition
administers
strengthens
polio
##tortion
milling
standby
standpoint
afterwards
signatures
defences
additions
wherein
verifying
infin
inflicted
median
medals
meditation
18th
directories
engender
awake
awaken
moderated
attested
souvenir
encroach
ears
earning
longest
collar
collections
helpless
valves
307
query
quasi
quorum
populated
unikom
accountant
menst
donkey
juan
juice
##obic
##obyl
thirtieth
##iciting
localized
##owns
identities
variation
charitable
disposed
researching
distances
disturbed
distortions
##alez
documentary
fuller
backstop
criminalizing
##bank
swamp
swaps
240
bike
bienn
waterc
##tigue
254
gravely
gratia
retro
retreat
blaz
blunt
224
handic
handwriting
qualities
qualification
qualifying
brochure
frente
warn
warhead
##amet
stark
obligatory
smallest
visitor
foodstuff
malian
malakal
##issa
advisor
ouagadoug
purple
arabian
timeline
31st
realizes
realignment
268
264
267
26th
israelis
282
280
excav
excite
libraries
succumb
geopol
##rane
##ranet
##ahar
deton
detecting
feder
circulating
downturn
powered
senators
cosm
resultant
292
296
bankers
veter
##ceptible
recorder
##aziz
class1
domestically
contextual
278
slip
slower
skies
showc
ethan
estimating
morph
morals
morris
sharon
herein
##tifiable
607
unita
learners
bald
balancing
turb
connecting
enforcing
letting
502
501
##ourses
358
singer
telomer
augment
talents
substitution
topical
topology
402
401
##herd
outsour
metro
shortcut
trustor
lawsuit
lawsuits
teaches
lightly
hearts
taxpay
pressed
devised
austerity
comparatively
sentencing
meantime
midw
##aware
333
33rd
associates
325
patrick
ivan
salty
salman
poorer
gerard
ideally
wanton
similarities
traveled
traveller
writers
grudge
grounded
toolkit
##gnosis
uncon
uncommon
surveying
fafics
fatigue
525
bienniums
590
autops
ills
tortured
alternates
alternatively
449
47th
645
455
450
despair
despicable
physiological
physician
embez
embroid
340
428
363
367
##nets
radiological
egal
reinvigor
compensable
institutionalization
keeper
arbitrarily
490
497
665
668
drift
drives
seemingly
544
solic
soliciting
inspire
drill
drastic
personalities
candle
candles
39th
acquaint
acquitted
freaking
sensory
sensitiz
##iko
restricts
alleges
alleviating
satisfying
cnn
steep
ambition
characterize
registering
competences
385
374
377
icts
romance
escorted
432
439
glow
gloss
glorious
musa
686
logo
logistic
1965
hongkong
lowered
bearer
exploiting
viruses
influences
influencing
fairy
strife
decreases
bullets
erw
erb
erus
generators
slogan
unidentified
706
baseball
curtain
thoughtful
merkel
##proof
winds
counsellor
weaponization
##weight
cleaned
transmittal
tenant
tenancy
philip
prosecutorial
benign
benjamin
foil
foam
##ersonal
tracts
806
silly
758
spirits
1955
1953
1950s
madam
cooperates
edm
archdi
villagers
oversupp
robinson
correspondents
stormed
approximation
dominate
obstruc
waist
supervise
wrongdo
honoured
congressional
optimized
habitats
ghost
unsc
unsuccess
derive
constructively
boyc
speeding
speedily
rejo
rejecting
1942
1944
1947
historically
##heim
repetition
attachment
digging
medications
ahmed
messeng
discriminate
discriminated
embark
appetite
trainer
superficial
mercy
mercosur
wedlock
sunny
765
760
predicting
predicament
874
bloom
khor
tanks
titanium
preferable
preferences
calculate
calculating
volunteering
mailing
mitigating
wanting
complementarities
croatian
favourite
extremists
railroad
animated
distinc
9196
ictr
convert
abolishing
feared
homogene
probation
extensions
scheduling
jeff
oss
oscar
worthwhile
validated
barbara
ballots
snap
snail
snapped
husbands
husbandry
##cript
congl
congen
chann
sympathy
nominal
renmin
renoun
squarely
inherited
arguably
versus
restorative
advantageous
luxurious
tolerated
washed
popularization
landsl
doesnt
887
diego
terminate
telephones
hydraul
depository
batt
cultivate
##gener
demobil
papersmart
halving
unlimited
bottles
socioeconomic
markers
prevails
convincing
entrust
behaviors
rolled
profitability
zheng
attaining
undermined
destiny
sweat
973
rendering
manifested
colorado
nutritional
rationalization
streams
workplans
fluores
tripled
imagery
sadness
saddam
exhibited
earnest
imperfect
stimulation
##ycl
francois
illustration
anticipation
miscar
##oxy
suitcase
unamir
governorate
movable
diversified
flags
bridges
absorptive
accompany
pupp
spectroph
dropout
fruitless
grim
grip
humid
watersh
scenic
greetings
exceptionally
dissip
eyewit
wildlife
xxi
xxii
promulgate
elevator
inspectorate
pca
ruined
steadfast
##metallic
loads
loaded
glasses
taiwanese
astron
amparo
elder
laughed
oxford
pushing
intercon
accidental
uncertainties
piecemeal
intersection
intersectoral
heroic
presidium
surroundings
cement
hunter
lecturers
queue
tyre
xviii
thorac
fortun
atlas
shoe
shook
politicization
deferring
compromising
consci
budd
baggage
ramadan
sticking
vitality
xiang
polymetallic
carrie
carriers
hinder
hindering
hindered
adhered
prevalent
simplest
manifestly
christians
divergences
matrimonial
stamped
planets
receipts
enforceable
devastation
devastated
jews
borrowed
borrowers
karen
pulling
tuition
conceal
concealed
attorneys
architectural
tailor
##rophy
album
commemorate
shaft
relaxed
supposedly
1514
1624
possessed
pleasant
escalating
pedestrian
pedagogical
santander
sincerity
sincerely
resorted
##ogenesis
affiliation
affiliates
napa
sulf
reparations
insecure
quietly
profoundly
franklin
shareholder
harbor
symposiums
csos
cracked
nano
ashore
shapes
hamper
petitioners
evacuated
familiarize
fellowships
domains
owes
pulls
shells
weighed
1244
receptionist
nurse
nurture
nurtured
porcel
tightly
tightening
##break
##breaking
interdepart
scott
deported
differentiation
reaffirmation
conveyed
tumor
tumult
tumors
vibrant
##iyah
##onald
condens
hamilton
plasma
upholding
invalidity
cautioned
practitioner
pitch
concessionaire
1701
muscular
testimon
mileage
ncd
rushed
ssr
stigma
inefficient
1907
lagged
classrooms
editorial
landscap
jiangsu
benchmarking
gnp
hrw
kiribati
noticing
editions
js1
mitch
wareh
##piece
stretched
sewer
dismay
##logical
intrins
intrusive
clerks
climbing
jeopardy
deducted
hierarch
igad
igos
nouvelles
noumea
nazi
stanley
novels
reconsider
diabetic
multidimension
brokerage
stabilizing
confrontational
kidnapped
dysent
intervene
upsurge
invoice
rampant
quadrennial
vegetable
subscribers
creature
dc1
fibers
mpf
inaccurate
strawberry
aluminum
anxious
hawaii
basketball
proportions
prompted
enclosure
lifestyles
fishermen
disagreement
troublesome
ancestors
exhaustion
unequivocally
bureaucracy
arafat
pivotal
threads
resembled
chatting
springs
allotted
coincidence
roofs
evidenced
indictments
gravitational
downloaded
infringement
negligible
milestone
contemplated
vigilant
sabot
wickedness
inquired
conquer
beverage
orchard
nodules
reckon
submarine
submarines
featuring
featured
caucasus
counterfeit
anguish
anguilla
hurricane
hurricanes
khalif
guardianship
splendid
scholarly
abkhazia
censorship
kennedy
kurdish
wrecked
chernobyl
shedding
shalt
leaflets
recreation
prudent
indefinite
carolina
scratch
confessions
flourish
deterrence
downsizing
calibration
preclude
precautions
enthusiastic
tetrachloride
surrendered
cescr
gauge
nhris
niche
ripe
slice
sergio
##electric
forcibly
unmanned
unavail
adhesion
worsening
spearhead
suburbs
pretext
sculpture
scarcity
idiom
multifaceted
adjudic
antibiotics
cervical
cemeteries
dgacm
dentist
domicile
kafr
marius
sentiment
wizard
unplanned
exterior
chromatography
perceptions
overruns
volcanic
ethnically
cylinder
suspicion
reconvened
microbial
pilgrims
hurstwood
spokesperson
bermuda
stigmatization
mahmoud
ventilation
unquestionably
etiquette
fossil
kodori
kernel
kashmir
poultry
revelation
shakesp
appliances
plutonium
overlooked
demilitarized
lifelong
unimpeded
biomass
blatant
warriors
entrenched
massacre
stewardship
photocop
microorganisms
archipelago
wavelength
ibrahim
gonzalez
amplifier
baalbek
lieutenant
hypothesis
belligerent
ridiculous
irresponsible
inaccessible
motapm
unpredictable
acupuncture
bilingual
citigroup
dairy
hizb
kigali
nadaf
nacional
ottawa
pntl
quds
tindouf
reindeer
proximity
ashamed
unsoa
unbalanced
unqualified
albeit
shepherd
interdiction
interrelations
interlinked
cobalt
peripheral
trajectory
upbringing
terrestrial
insignificant
discontent
noncompli
affidavit
backstopping
ouagadougou
geopolitical
embezz
embroidery
unsuccessful
hydraulic
spectrophot
porcelain
interdepartmental
multidimensional
020
1a
2c
aq
amber
aque
aung
ahab
aaus
bm
bing
bain
bry
btw
bau
bible
berg
bangu
bamb
bored
bunk
brick
breeze
cv
c1
cin
cec
citi
crou
curing
cush
casc
dow
dib
dose
dmit
denn
daw
doses
dao
dani
ef
eq
eric
emit
elicit
eats
eager
fles
fren
feng
fuck
fading
fountain
gw
gge
gers
gmb
gut
gum
gome
gast
gru
greed
gha
gats
garc
gorge
gaming
gerald
hp
hd
hil
hess
hri
hut
hch
hks
holes
hernand
hacked
iz
iuc
jon
jit
jazz
ker
kro
kle
kur
kac
kun
kual
kite
kung
kicked
lv
lig
lure
lans
lang
linc
lends
lama
lyn
lenses
lighting
mn
mh
mv
mak
mant
mack
mister
mash
mpa
munition
nn
ned
nil
nus
nons
nix
och
overn
omin
oily
omar
oew
pn
p5
pod
pist
pant
pest
penc
pact
pave
pix
rf
ron
rol
rmb
rus
rast
rally
rings
rude
ripped
riding
sv
sed
sip
sap
seng
stis
sars
sque
sins
sinking
sights
sds
sarc
sighted
sodium
tf
tl
tat
tis
tig
tpp
tut
tant
tup
tink
tah
tier
tandem
ub
ura
va
vc
ves
vin
vip
viv
veg
vouch
vector
wag
wail
wco
waged
wont
wsis
xp
xix
yin
yar
yus
yak
yummy
za
zah
zoo
zakh
zhao
鈥淲
##oop
##oqu
##oard
##oot
##oft
##rons
##rens
##rone
##rals
##rina
##n2
##nage
##night
##nament
##eing
##eur
##ealth
##tf
##tent
##tte
##take
##tables
##ike
##ienne
##sec
##sel
##sim
##ml
##mail
##mare
##mati
##master
##mih
##yad
##pm
##pol
##pow
##pend
##pine
##pass
##pool
##post
##pensive
##piter
##hl
##h2
##hor
##hid
##had
##hey
##dog
##dney
##fu
##feng
##found
##funded
##atical
##cer
##cal
##card
##clo
##cision
##cair
##cosity
##ws
##wg
##well
##wick
##gab
##giving
##gling
##lis
##lause
##lah
##leness
##lasting
##vy
##vag
##bour
##bage
##bach
##bean
##border
##ux
##ument
##uth
##uke
##urab
##uart
##22
##xit
##82
##jo
##just
##jaw
##kt
##km
##ku
##kle
##kward
##zk
##16
##99
##qi
##77
##65
##64
tha
thund
thorn
##ono
##onian
##onto
##onception
##tip
##tide
##erform
##erable
##errat
##eno
##enet
##enza
##ester
##ndisi
##orse
##orie
##oria
##eda
##alabad
inse
inaction
ingen
andrey
##anti
##anal
##anar
##anqu
##arf
##arse
##arte
##arted
##arak
##aret
##arization
##iton
##itol
##itory
##itating
##itaries
##iso
##isals
##istically
##isively
##isario
##enter
##entry
##ecology
##omor
##icos
##icidal
##reb
##reen
##reted
##reast
##eli
##elected
##rot
##roots
##asant
##asound
##asque
##aska
##asaki
reac
reuse
reef
rebu
rebuild
##ilful
##ilisi
forese
forested
##lean
##lett
contig
conae
##tserrat
proph
prognosis
##raf
##rade
##rays
##raying
##olo
##oln
##oly
##olin
##olar
##olent
##olco
##str
##sty
##stay
##stated
##strous
##thm
##thal
##them
##through
##urmount
##vey
stance
stern
stair
staged
sturd
stuart
bevel
beta
beka
beams
##teration
##terrupted
##idth
##idly
##idate
ashe
comet
##igan
##ople
deir
deten
isle
##rik
##rities
##rique
##rief
suu
sums
susan
##uld
##ulc
##ulu
##uled
##ulary
##ultim
##ulously
##vering
##sea
##sex
##aca
##acular
##acious
unle
unos
uneg
unave
unapp
unamb
unple
##ader
##adel
acab
acutely
whis
wharf
alt
alab
alma
altar
##mpl
ornament
nov
nova
noisy
reson
resell
resigned
anhy
##about
##abakh
##abulary
extingu
exotic
extortion
byte
##ticians
parti
memb
mega
chess
chore
cheng
chau
chasing
chih
chills
envelop
##ocking
##ocultural
##ocrine
##mbere
atten
##uto
##utational
adul
##ayas
shy
sher
shab
shear
shred
shaking
shrug
shamp
shaken
shocked
shattered
shuang
##uclear
interch
intermit
intercep
interruption
intermod
interrupted
intergener
##oscopic
reperto
replicate
##udo
##uding
##chin
##usa
neph
lets
leung
##izers
##izabeth
counts
councill
sects
secession
##odal
impart
impacted
importers
##ando
##aky
worris
##ista
seq
sealed
seams
##foration
hag
hail
haier
gov
hem
heed
heter
heath
hema
hemis
youll
spt
spit
spill
spati
spraying
##fications
##imir
##imenting
rect
recup
arn
ard
arte
arrow
arrog
printers
regiment
alloys
notation
dismal
##ipse
##ipot
coin
coating
cooked
##aporation
##antes
##alla
##licity
expel
expatri
exporter
compile
peril
perse
perforation
appr
applause
##ivo
deck
decor
decay
decoration
##amu
##formed
relie
relinqu
##ourning
provoking
##emin
peg
peach
peters
peking
pepper
peaks
##ibar
##ousing
plen
plac
plot
plague
contag
contentious
indec
indign
##gha
##estra
##establish
##estone
aber
abate
abus
abys
abomin
abode
abhor
abreast
##loo
##ometrical
polished
polych
polisario
##mined
underfunded
assert
##eare
trapped
##anca
lai
laura
sax
saami
##uber
##ubstan
subtle
subversion
##elli
supper
##ogo
intranet
preoccup
organism
organise
hadn
opt
opa
trash
tranqu
organizes
amor
amiss
amends
amador
programmer
statehood
informational
upload
upstairs
uptake
speculated
sydney
ecot
##aches
##aching
nationale
concord
conceded
moves
##ifeng
##aganda
particles
procured
proclamation
centennial
outwe
outlets
outlining
outbreak
clan
clues
clique
clerical
cliff
##parable
##arium
lawmakers
socks
usur
usher
usaid
newfound
##keted
##ensely
doomed
dozen
basing
basics
baskets
basrah
mars
marie
marco
martine
facie
mined
minnes
minsk
transcend
monro
monol
monaster
monarchy
monsters
montserrat
monstrous
##racle
insect
insult
instil
insistence
insurmount
protesters
##erness
needing
needle
discard
discomfort
issn
mayi
propelled
articulate
overe
overex
overha
overpay
override
##leste
##angan
##angani
elusive
elizabeth
communists
aux
commissioning
highs
highlevel
viability
assemble
assembling
revived
revamp
revoked
revaluation
anytime
fundra
##indling
desks
##ologist
ifrs
scal
scare
scaled
scroll
guar
delicate
howard
evaporation
matt
matthe
##assed
##assium
staunch
equities
equals
adoptions
##00s
##001
herbal
herbert
remand
remorse
importation
chinas
rah
raj
raz
raid
confuc
envoys
presump
prescriptions
presupp
experimenting
demise
affection
##mbersome
situated
anne
anna
nuts
##ismatic
setup
##athan
##athion
shallow
refresh
refurb
refraining
15th
seea
beck
improves
endocrine
##ropol
studio
maize
caf
caes
caicos
globalized
phosph
phoe
phyt
phnom
##roller
schilling
##actory
mostar
protections
mills
miller
calligra
agreeable
signalled
initiating
defect
defender
defensive
defiance
defaults
defaulting
practising
serf
serum
principality
goodby
prepares
achieves
verteb
##tislav
corn
corals
corros
corps
infilt
infantic
infirm
helm
181
1820
14th
##liable
##like
framed
greatness
deceive
awkward
smiling
smiled
offr
encod
encumbered
banner
banners
##itories
##urned
itemized
collec
crept
nowhere
valjean
301
304
30th
specifics
specificity
poppy
uniqu
flap
flush
flames
menace
mentions
brc
brun
brist
headache
emer
emily
progressed
progression
oppression
jupiter
chairing
buses
thirteen
localities
differed
legislations
legislators
boarding
designer
##oves
##ovia
variants
courtesy
disposing
availed
researched
conditionality
distort
distorted
distracted
necessitate
criminally
cerf
##roshima
##unciation
southwest
backb
safely
swd
swf
airline
airfields
239
2330
colours
colored
colloqu
labels
ruler
rulers
biof
255
blas
blending
blasted
##spf
##uchi
militants
frig
franch
wartime
detergent
businessman
limestone
welsh
founders
regulator
posture
postwar
viscosity
futures
judah
totaling
malcol
privy
314
vicinity
realm
realised
realisation
integrates
284
towers
introductions
restless
excuses
exclaimed
litter
literal
triple
geology
geometry
geometrical
##aho
##atie
##atitis
detroit
behaving
circuits
downgra
undertakes
returnee
senatorial
##iotic
##iography
referenced
contraction
recordings
plea
plead
pleading
pleaded
immoral
janei
275
slim
slope
slaugh
slips
skir
skiing
skilful
entitles
regularization
marketplace
migrating
morality
constitutionally
constitutionality
sharif
potassium
naming
##ashing
brad
brave
brains
brahim
hereof
602
60th
penh
##ussian
girlfriend
housew
housekeeping
##shot
barack
greet
turbul
turtles
508
burgl
##regious
##ographer
##ealous
pursuance
357
telem
tempted
temperate
temptation
tribe
tribes
subsumed
subscriptions
dealer
dealers
dealings
thinkers
entries
emphasises
metall
cyt
operationalize
antibody
broadway
presses
imaging
devise
deviation
devising
examines
punct
brindisi
midst
331
339
328
323
321
320
327
patch
distribute
distributing
salute
calam
germans
gerhard
unfettered
eleph
beginnings
writes
launcher
gratu
happily
groundwater
headquar
forwarding
separating
combatant
offerings
uncac
uncont
chapel
nearest
damned
faulty
522
##eryl
roadmap
autob
europeans
655
653
precarious
prima
primer
482
481
complained
443
446
44th
559
appreciating
472
470
477
640
453
456
raped
despise
physi
physic
daring
darling
342
344
349
angol
angles
weekends
chemotherapy
369
366
569
566
facebook
egregious
injure
injuring
compensations
filters
510
51st
averaging
circumcision
harare
harvard
662
663
548
transitions
denis
denies
denuclear
solvent
percentages
inspiring
drc
drum
drums
jurists
crf
crashes
crushed
cristo
hopeful
candy
398
397
convoys
##iki
duke
halfway
minimizing
transparently
subsidiaries
sanitary
unhealth
412
418
410
figured
##mostats
##haus
##orno
stewart
ambient
ambitions
466
386
370
##archs
commercially
complexities
romantic
##ophone
seeker
irish
mush
oils
logging
631
634
formalized
penalized
influenza
diplomat
fallout
replen
decrees
announcing
ernst
errone
nightmare
slot
702
existent
curve
curfe
merit
accomplic
##proc
analyst
analytic
seniority
polls
witch
witches
##bei
moments
psc
degen
wrath
dependents
incorporates
lottery
resolute
manufactures
computerization
tunb
attacking
foet
##attering
photography
hopeless
somalis
somaliland
licenses
751
microstructure
chaotic
switches
switched
arche
breakthrough
etat
commentators
perpetrator
slowed
storing
770
journals
layout
obstruction
obstruct
ngc
bosni
searched
forthwith
translating
reconciled
mainstreamed
honouring
psycho
cruz
riyad
normalization
ghs
mortg
mortar
attendant
stipulating
brittle
unsubstan
sometime
drafts
derives
disappointed
maximization
belongings
constructs
richer
richest
premise
speeds
speeded
aligning
##owski
outperform
remarked
quantifiable
digit
misde
misrepresent
misinformation
piloted
##quidated
embarking
##ajevo
trainings
mercenary
##quiring
clustering
hurts
predicate
873
khalid
khmer
painter
paintings
titan
##umba
##umbashi
footn
footnotes
ugc
mailbox
##2010
tunisian
epis
vocal
vocabulary
##sette
cheung
deployments
horrible
samar
strand
strait
strains
extremist
odds
warmth
##asinghe
liberties
795
796
converting
convertible
homicides
homosex
##trans
valuing
846
jets
osse
timorleste
intellectuals
bedroom
caselo
snack
sniff
revealing
salvation
affordability
faithfully
azerbaijanis
942
ranked
squatter
endorses
neighbourliness
cped
dignitaries
versa
albanians
proportionality
attributes
956
interviewer
grandpar
grandma
864
comesa
743
upgrades
deprive
883
880
dropping
dietary
maleic
wondering
##riding
instruct
intentionally
battles
fatty
fatah
rainwater
rainfall
##oleon
predeter
inflationary
halon
revenge
1055
grantor
fulfillment
rolls
cambodian
api
latent
zhu
zhuang
deems
genetically
deliberately
sweep
sweeping
liberalize
liberalisation
palm
palais
unliquidated
pledge
manifests
remunerated
colorful
bulgarian
dupont
nutrient
nutrients
routing
workplaces
fluent
doubtful
drying
ignition
seasonal
recipe
##rupulous
memorize
memoranda
mistress
impermissible
struggled
stereotype
stereotyped
stereotypical
dressing
collector
absolve
illustrative
illustrating
illustrates
epidemiology
misconception
tsing
diversifying
schema
uniformity
dividends
puzz
spectacle
humiliation
lithium
##treated
##lorinated
deteriorate
forgiveness
dissolved
dissatisf
landlord
murders
murdered
wilderness
xxx
##aurus
intimately
shuttle
incompet
incompatibility
distinguishing
professors
safeguarded
hydrocar
hydrological
##monary
##metres
deletion
astana
ampl
cantonal
grenade
hillary
ltte
clarifications
ipcc
oxid
oxidation
sarajevo
desktop
prioritization
narrowly
dumped
testify
testifying
torres
toronto
vastly
impossibility
1803
townships
burnt
burns
ceo
crowds
tyran
throne
havens
recruits
compounded
saturation
vaccination
navigational
memorandums
celebrities
compromised
compromises
appraise
mosqu
mosque
mosques
ramallah
tube
waveform
spotted
accumulate
aspiration
angela
angelina
boris
crying
thermostats
unreliable
intermediated
artisanal
pooling
instituting
dragon
dragons
irrele
succeeding
cumbersome
hook
kidney
masked
masisi
##annan
christine
complicity
protestant
immunode
mouths
festivals
hangzhou
karabakh
entailed
entailing
aeropl
inadvert
commemorating
shaan
seasons
relaxation
possesses
escalator
supervisor
breathed
teenager
wetland
plains
poisonous
grassroots
licensor
licensee
footballers
naples
napoleon
raymond
sulph
alarmed
resilient
pharmac
shareholding
alcoholic
encompasses
encompassed
cracking
hideous
mirrors
merged
wisely
1176
endangers
constituents
constituencies
inconsistency
owning
venus
stemmed
coaches
concurrence
bowl
batteries
deduction
gentlemen
hesitate
nurturing
##viations
theoretically
reversing
uninterrupted
reclassified
verbales
surgical
paulo
galvan
gangs
hcfcs
tentatively
##ohama
hamid
disruptive
cohesive
persuaded
restraining
tsunamis
consciously
ascertaining
diesel
kwd
kwai
mgt
mentally
pitcair
pumping
##akarta
concessions
deserved
practiced
acknowledgement
withdrawing
contradict
contradicted
aziz
jails
ncw
ncds
wilson
wilhel
##block
reorganized
shrine
tragically
finishes
discontinuation
avenues
bubbles
cadast
kirk
ponder
rabbit
wipe
##copy
shirts
shirley
havoc
weakened
indoors
savage
yourselves
pharmaceuticals
bribes
galleries
mesh
mitrov
tillage
xiao
##piracy
##dride
infertility
inconven
climbed
flora
precursors
jeopardized
advertisements
triggering
deductions
deductible
fledged
hiroshima
lantern
lubumbashi
nazionale
andrea
stanisl
champion
spinning
cognitive
abstained
abstaining
rotations
frustrated
harnessing
stimulants
cordial
julio
kivus
laptop
##first
##firmed
intervened
levy
authentication
panellist
subscriber
antibodies
automobiles
pronounce
bwc
bernard
fungal
html
iea
lumpur
nerves
pfos
rsd
tianjin
##operative
interfaces
##rometer
butterfly
prompting
multimodal
egyptians
filtering
disadvantageous
exhaustive
bureaucratic
fantas
lonely
nominees
sgb
##aulted
##writer
##written
hepatic
sprink
allotment
compressors
poems
sociocultural
minusma
scanning
evidentiary
corpse
superseded
absurdity
correctional
canceled
ceremonial
##hydro
##hydrate
refrigerant
underpinning
vigilance
echoed
eagle
lindane
##bags
strokes
beverages
alphab
orchestra
reckless
sylla
bothered
discrepancies
revolve
depicts
depicted
emigration
opponents
detrimental
counterfeiting
derivative
derivatives
unmiset
battalions
contraceptives
vietnamese
francisco
overseeing
buddhism
orphaned
dismantling
unexpectedly
caval
dictators
grabbed
houston
kurdistan
ozl
omissions
tbilisi
wreck
inexpensive
tolerate
condoms
anaemia
ankara
disguised
expediting
relocate
laurent
obliv
oblast
marxism
proprietary
obscure
deterrent
precautionary
microscopy
philanthropic
neighborhood
grievances
solemnly
sultanate
lubricants
jalalabad
mccain
rugged
rugby
ventures
vladimir
##midt
##arbons
rehears
reopened
sterilization
enzyme
##oscope
repository
repositories
neuro
sparkling
arthur
outdoor
outdoors
soybean
insulin
overloaded
twitter
delineation
prescribes
redundant
actuaries
actuarial
smokers
infringed
reinstatement
ambiguous
embarrassing
contravene
enlarging
typhoon
antarctica
felix
falsification
kisangani
meltdown
rmus
ransom
siege
tireless
viln
yunnan
forfeiture
susceptible
alfred
impoverished
aristide
pervasive
apprehension
ussr
transplantation
caretaker
guerrilla
endowment
brasilia
swallow
blossom
paternity
unfavourable
icpd
catastrophic
hormone
reciprocity
kilometre
bandwidth
rubbish
entrepreneurial
lobbying
unintentionally
reconsideration
carcinoma
centimetres
kentucky
nasser
pamph
qaeda
rinse
tncs
taylor
##nikov
##woman
##jeres
reorientation
stainless
imprint
hebron
recapture
compassionate
decomposition
indivisibility
abbreviations
traumatic
depressing
floppy
retarded
metaphor
juridical
ambulatory
intelligent
microbiology
unsatisfactory
hollywood
culminated
insufficiency
unreasonable
dysfunctional
misunderstood
##accharide
indifferent
aaron
cndp
glyc
kicking
mfn
mubarak
mitsub
piano
sneak
vaguely
yokohama
鈥淭hey
##frame
##western
##uahua
##onferencing
##orocarbons
##atelolco
asymmetry
unstable
unmarried
##chemical
hezb
prenatal
disqualify
relentless
informatics
propellant
rostrum
liquor
detonated
showcasing
autopsy
sensitize
edmund
archdiocese
oversupply
renminbi
landslides
miscarriage
watershed
interconnected
buddha
testimonies
sewerage
hierarchical
sabotage
khalifa
unavailable
shakespeare
hizbullah
interrelationship
embezzlement
aqueous
btwc
dmitry
flesh
gmbh
garcia
hksar
hernandez
iucn
kuala
nixon
overnight
oewg
tlatelolco
staircase
bekaa
detentions
unavem
unambig
unpleasant
acabq
alabama
anhydride
membrane
chihuahua
interchange
intermittent
intermodal
intergenerational
repertoire
worrisome
hemisph
polychlorinated
outweigh
martinez
minnesota
monastery
insurmountable
overpayments
matthew
phoebe
goodbye
corrosive
infanticide
colloquium
malcolm
janeiro
slaughter
gratuity
unhealthy
riyadh
unsubstantiated
predetermined
immunodeficiency
pitcairn
2a
3d
3b
3bn
aa
aic
ats
aol
aur
arom
aime
ailing
bt
bend
bust
bans
bout
beng
brow
barge
bite
benn
bison
baid
baf
brows
cg
cti
cation
cid
cly
cpp
cim
cem
cet
cso
cries
cys
cyp
calf
cured
cats
cpl
cows
cds
cinder
dn
dl
d4
dld
dell
dive
drac
dances
dread
dame
dah
dave
dana
dha
dude
dull
dza
ducks
diana
ek
eel
eut
euc
eib
ems
epr
emm
evely
eden
eta
emitted
eea
eloqu
erik
fou
fist
fest
fide
fare
fame
fah
faw
fof
faint
frown
fann
fdt
gp
gf
g8
gel
gul
gac
gay
gend
gem
gong
gag
gian
gomes
groc
gathers
gbag
gurus
hq
hse
hog
hue
holl
homm
hollow
hath
hint
hsp
hunch
hones
hips
heck
haya
hfc
hlc
iq
ian
ist
itin
iac
iowa
iphone
iteration
jed
jir
jak
jub
jade
jaw
jisc
jedi
junk
jokes
juba
jealous
jakarta
koc
kut
kand
kans
kag
kang
kev
kok
kath
kare
kaw
koo
kios
koff
kobe
lh
lw
lor
lip
lant
lace
lome
lian
lact
lily
lug
lada
latch
lomb
lush
lugg
lanes
lpg
lighth
ml
m2
mow
muc
mum
mim
mons
momm
murn
msp
mug
mics
mama
mps
mugg
mason
mbek
mnt
mamm
nm
nk
nz
nis
noun
ncc
naf
nancy
nps
nba
nyc
nautical
oro
omen
oste
ould
pt
ping
pir
pse
piti
pag
pine
piss
pests
pps
pores
pirates
pouch
podium
paho
qadd
rr
rt
ry
ral
rar
ras
rach
rive
rack
roses
ruf
rcs
rented
rows
rife
renting
ryan
ratt
rasse
rachel
rashed
ropes
stin
sigh
sos
sod
sak
sore
sine
ske
sally
sink
sedi
somed
sdr
tm
tg
tz
tul
tem
tep
teng
tav
trol
tales
tending
tash
tina
tuts
tenders
tapping
tapped
ud
uv
ust
uri
ubi
vt
vat
vand
vie
vall
vanc
vag
vamp
vatic
vascular
vapor
wat
wie
wreat
wren
wrought
wins
wats
wired
wiring
wander
wagg
xing
xml
yo
yr
yi
yv
yut
yip
yild
yach
yorks
yao
yuk
yiu
yuri
yoga
zo
zer
zor
zed
zal
zou
zel
zip
zet
zope
zaire
鈥淕
鈥渢
##overs
##oise
##oother
##oeal
##otism
##rent
##ril
##rational
##rus
##rect
##rue
##rights
##nm
##n1
##nical
##name
##namic
##ement
##eure
##eons
##evelopment
##tl
##tz
##trac
##tze
##track
##troller
##iov
##ienced
##iwe
##iarity
##sing
##sting
##saf
##mc
##mg
##may
##mos
##mill
##mium
##maid
##maye
##mills
##yar
##you
##yas
##yun
##yans
##pers
##page
##pace
##pian
##produc
##paper
##padding
##hs
##hing
##hist
##hear
##hang
##hair
##hire
##houses
##dn
##det
##dled
##dings
##dah
##dden
##fas
##fts
##free
##fessional
##front
##filled
##aes
##auc
##cers
##cia
##cans
##come
##cast
##comm
##cli
##cale
##cience
##cope
##cuff
##wer
##wall
##wang
##watch
##gal
##gia
##gonom
##gang
##gulation
##gah
##gio
##gins
##group
##green
##lj
##lar
##low
##lay
##lib
##lord
##lists
##losed
##limate
##litz
##voc
##vable
##bes
##bis
##bers
##but
##bus
##best
##bling
##bury
##bler
##uv
##uz
##uly
##uka
##umented
##55
##24
##26
##xing
##80
##8th
##32
##31
##37
##jc
##ju
##jul
##jab
##jun
##jah
##kg
##kb
##kon
##kan
##kent
##zon
##zin
##zers
##zav
##zheim
##zibar
##1000
##45
##41
##93
##91
##90
##qa
##62
##鈥檛
thigh
thie
thomp
theor
theater
theres
##onut
##onau
##onne
##onville
##tid
##tily
##tige
##times
##tiring
##tibles
##erk
##erse
##erty
##erates
##erator
##env
##ench
##enberg
##enzo
##estin
##ndr
oft
##inch
##ineration
##inating
##inism
##ineries
##inatal
##orable
##orms
##orical
##ormal
##orption
##oresp
##orrh
##orussian
##edo
##edience
##alu
##alk
##alom
##aline
inver
inac
inoc
inverse
##anor
##anas
##anting
##anam
##anue
##anke
##anian
##anyah
##ananar
##atom
##atoc
##atural
##ateness
##atology
##aru
##arts
##arous
##arranted
tomb
tomm
topped
tolim
toss
##itr
##itte
##itch
##itus
##itates
##itality
##itering
##oui
##oua
##oust
##outh
##ouver
##ouched
##istice
##enta
##entes
##inging
##ington
##ecard
##ecret
##omo
##omal
##omit
##omerate
##omao
##icle
##icter
##icia
##icular
##iconduc
##rex
##elin
##elop
##ello
##elorussian
##roke
##asable
##asone
##asiness
rex
reid
retin
reiss
reels
reacted
rewards
rearing
revert
reorder
##ilis
##ilate
##iliary
fores
foreg
##lem
cone
prose
##ram
##rad
##rades
##olk
##stad
##stand
##stall
##store
##stones
##start
##storm
##stasy
##storms
##ths
##tha
##thec
##thest
##thren
##things
##thyl
##ursion
##urry
std
stap
stam
stack
stents
stare
stakes
stumb
stocked
stasis
beac
beans
beaming
##tero
##termination
##terror
##terranean
##idae
asem
asoci
asgm
comic
comity
comfor
comrades
##ionic
thatch
##lyn
##lysis
##opi
##opec
deform
deft
##essee
ish
isa
isab
isba
##rip
##rious
##ritis
##tinsk
sui
suk
suicidal
##uling
##ulac
##ulus
##uliar
##ithic
##ithmetic
##verance
withstand
##acan
##acies
##acles
##ateau
uno
unab
unite
unison
unify
unwise
unmet
unkind
unrelated
unadd
unamet
unaware
untreated
untiring
##ady
##adal
##adic
##adha
whiz
whim
##teous
alc
aland
aloud
aladd
alpine
alzheim
nox
nodes
reside
resale
antim
anomal
##abde
##abilization
exod
exile
exiting
exude
exiles
exerting
exagger
##ppers
bye
byelorussian
##geb
couch
cough
##tica
##ticular
##ticism
commiss
commanding
commuted
commutation
parenting
parole
parcel
parathion
meted
meats
2023
chw
chil
chow
chun
chill
chord
chase
chose
chenn
chatter
chaco
chitt
chrys
chamor
chateau
enqu
engra
enquiries
enraged
##velt
##ocious
##ocommunic
##oconferencing
##ocumented
##mblement
##mbling
##mbrance
##owner
##ains
##aints
atoms
##uttered
ada
aden
##ayu
shing
shri
shine
shack
shone
shau
shining
shah
shipp
shaf
shelling
shrew
shrap
shield
shores
shaky
##uci
intermin
interacting
repent
replic
replying
repulsive
ituri
##uder
##meh
##mees
##mean
##metics
##metrical
##chang
##chair
##cheng
##endi
##endent
##ussion
##usiness
##romb
nem
neat
neaf
lew
lex
lethal
##izi
##izu
##izable
##uned
##unts
secours
##oda
##odel
impending
imprec
impacting
impulsive
##itively
##andr
##andong
##quan
##umably
##umenting
##akov
##there
worsh
worsen
sek
sean
seag
seating
seaw
seeding
sebas
##forth
incub
incommunic
incurable
inculc
incineration
##illes
##illity
##illau
hamb
hama
haunts
gob
agon
agence
agrib
agile
agitation
hein
heal
heating
hebei
youre
youtub
spo
spy
spur
spun
spoon
spacing
spills
sparks
spike
##imo
##iman
recalc
##ieu
arent
armp
arman
artif
artery
arithmetic
princes
printer
prerog
regen
allied
allah
notaries
disg
disl
distill
disney
##ectors
##ipala
coh
coil
cove
cohab
cooks
cosette
##ardments
##apr
##aping
##apacity
##anto
##antum
##iaz
genotyp
genesis
##erea
##eremp
##lict
##lich
##lick
expended
expecting
compos
compression
compatri
compulsion
compressed
computational
comptroller
consign
conserve
conspiracy
pert
perish
perverse
perennial
peritone
perinatal
weed
apples
appalling
##ivity
##ivih
internationale
##ichlor
##ichiro
decode
decorative
decisively
##amous
rela
relic
relational
accra
accusing
workings
workmen
workspace
workflow
workdays
workflows
workpiece
##ouring
##ourism
theirs
provoked
proviso
##uster
undo
undg
undem
undone
undisc
unduly
undocumented
underemp
hashem
##emic
countenance
peers
peup
whichever
##iba
##ibur
##ibah
##duced
##ouss
##ousse
##oussis
plc
plough
contests
indul
##estro
abl
abb
abound
abusive
aboard
mana
manners
manually
mansions
maneu
manpower
mangro
##logs
##aceans
effusion
##ometers
polled
polite
polyn
##mina
underage
underlining
undernour
##tiva
##rying
strings
strides
strata
stricter
assid
assuring
assaults
##eart
tray
trad
trait
tramp
traces
trays
traits
lah
lax
sai
satin
saith
sauce
saarc
sails
##ube
subtit
subreg
subterranean
##eller
##ellar
##ogy
##ongyang
intrac
intros
intrep
intrar
##etting
##etorship
prep
pref
optic
tristan
##igny
amicable
informative
informally
upro
upaz
upsc
upright
upturn
speculative
##eps
##eployment
ecg
ecri
ecstasy
##achi
##achment
##retec
nationalist
nationalism
canary
motive
motiv
moore
moot
moody
##iful
2018
2019
finnish
##ags
##agic
##agong
##agings
##agging
##agonal
obey
obese
therefor
thereunder
invocation
invasive
pots
potter
poised
poisons
outgoing
outrage
outrun
clans
clocks
##osevelt
##park
boot
boob
boats
booms
boiled
boeing
terry
terrain
teresa
##arias
afd
sociop
sociological
usb
usama
persisting
##inee
economize
newton
##ribution
servic
serviced
serviu
##ouni
##ounts
##ounted
##ensen
##ensis
##ensitive
##ensibly
##ensiveness
doe
doth
##undered
soo
soap
sober
basra
childrens
mare
mart
marty
martens
marrak
facial
##ruth
##ruism
##phal
##phones
minug
transient
transverse
transborder
moneg
monster
moneti
##racting
insure
insurers
##ernacle
needn
discrete
technician
approvals
propane
oversh
overbur
overlook
overflow
overthrow
overweight
overriding
overhang
carb
carj
cared
careg
##angling
ell
elves
elaps
##ificent
roosevelt
speciality
specialty
specialize
assembled
##imet
draining
dramati
levelled
##inda
##inded
##indler
##graphers
##otor
##otation
##otomy
desist
deserted
ifs
scold
sciss
scorn
scoring
guillau
captures
delta
delinqu
worlds
##ounding
measles
diocese
reprisal
evans
evasion
lied
limb
##eves
##evil
increment
followers
materia
matured
representations
representational
processor
processors
myoc
##oney
##assing
##assic
equations
equitably
adoptive
essex
##fulness
remot
##determination
##vedev
##olds
maine
mainstay
violin
feeb
publicize
fury
rav
raion
rahim
promoters
confers
envy
presumption
presumed
presumably
formations
ordination
##ategories
emplace
empretec
loom
loop
looming
looph
looting
affinity
afflicted
sitc
annih
annoys
nuances
##management
sheer
sheath
setback
##athic
##inced
##income
joke
joints
productions
courty
courmaye
republics
##intang
healthier
refoc
refining
refinement
referee
buth
redes
redevelopment
##arma
##armed
projection
contributory
personage
documenting
1200
dirt
numbered
numbering
enduring
endnotes
endogenous
##egional
##ropy
##avik
ordering
maud
##prises
phon
depts
##rolled
civilized
schist
schmidt
norte
instantly
belts
locating
##toria
##ergistic
##elfatt
technologically
extensible
staffed
initiators
##arez
fiu
fiat
fiance
legalized
##mmed
verb
verse
##tises
corners
corba
infra
infancy
inflex
helms
medvedev
idol
idyl
idlib
idndr
##ennes
famine
engr
framing
awacs
url
modi
modular
modelling
moderately
moderator
modulus
attuned
smoother
himal
offense
enclav
encoding
encycl
banque
bananas
earl
collects
helper
valuations
valiant
quake
quinqu
quantum
lifes
popula
populating
popping
populous
##isterial
uniting
accountabilities
receivers
assesses
assessors
flange
flown
flocked
brass
brighter
brisk
1700s
emi
emol
##ourably
opposes
donating
growers
##oba
##obenz
mechanization
owns
complements
complemen
differing
legislate
obsession
##upon
designating
##ovar
recognises
charlie
charisma
##ivided
courtroom
dispense
conditionalities
distract
necessitates
majeure
appropriateness
wayne
certify
certifying
backl
backlog
swat
swing
swear
swore
swine
swee
swept
airfield
airbrush
airplanes
mandela
labelled
rulings
24th
bios
biometric
biochemical
waterways
waterfall
waterloo
25c
2000s
grap
graft
grazing
##itarianism
retre
blur
blend
blade
blown
blink
blows
blaming
##spacing
22nd
performer
performers
militant
militarization
handing
handker
handbag
handcuff
frances
fringe
fraser
warring
warplanes
deterring
daylight
stared
starving
exploded
oblige
##tilla
substations
debating
debrief
postoperative
smallhold
smallpo
visibly
totaled
malf
malay
malicious
malabo
advisable
advisors
costed
investigates
questionable
timid
311
positioned
aided
28th
##pecting
##pectively
centralization
restrain
restarted
excursion
understated
trienn
trimester
volvo
geometric
voa
vojn
##rank
##ugal
beggar
subjective
##atize
identifiers
detective
readjust
trep
behave
circling
downright
downgrade
freebs
freezes
comprehension
comprehensiveness
cosmetic
cosmetics
2921
arranging
vein
reflections
plethor
immature
##azi
janjaw
occupies
occupant
occupancy
listens
classm
class2
class3
classify
labourers
273
slm
slam
slag
proscribed
skating
skelet
simulate
dialects
summed
statisticians
morally
morrow
morales
sharia
potentials
kei
girders
##asha
bravery
bratislav
605
unitary
aspiring
##she
##shi
##shed
barre
barrac
barren
barking
divest
divine
baltic
grease
turks
originate
originated
originals
farther
faroe
509
507
aprsaf
##umps
##hasa
352
353
354
359
supern
teleme
tempting
determinations
cloak
subscription
subscribed
408
409
entropy
naturalization
selfdetermination
metre
metoh
metallic
shorten
shortest
shortening
worded
preventable
custod
youngsters
lightning
antiox
billow
brexit
brethren
homeowners
immeas
deval
devils
devotion
essays
msc
mselle
punjab
##ompeti
kindu
kinderg
comparator
transported
selim
selects
selectively
brian
midday
lows
islander
335
337
329
patric
patents
inflow
salw
salts
salam
saloon
poorly
tablets
tableware
##affected
##afferi
calmed
calorie
infrared
germpl
stressful
##reaming
cannon
counterc
counteract
koreans
widow
##efined
complacent
destabilization
similarity
travels
collaborated
beginners
launches
launchers
grud
grulac
happiest
groundless
networked
toolbox
##ursable
separates
courseware
unclos
uncomfort
nearer
punishments
dams
##tox
##took
faults
fauna
524
529
527
turner
medically
customized
autocratic
correcting
illumin
658
runner
runway
runtime
runoff
respondent
continuum
northwest
583
deepened
priming
485
480
487
alternating
scientifically
complaining
445
442
448
444
440
553
appreciative
475
471
647
646
457
desperation
desperately
physicians
physiology
darfour
628
346
hostility
hosni
angels
421
424
429
426
saturn
368
36th
563
567
56th
##nea
##atched
linas
linux
hostels
compensating
compensatory
filament
institutionalized
institutionalize
515
512
513
516
aversion
averaged
interpersonal
arbitrator
registries
functionality
circumvent
495
492
493
496
hart
haram
harold
hariri
##zee
appearances
666
dripping
drifting
crosswind
paces
packs
##yaq
542
universalization
stockhold
inspira
inspiration
drone
crust
crunch
opinio
613
614
##dening
reserving
iranians
updf
enjoyable
395
micivih
##habited
695
killer
ohrm
##ijo
##odynamic
migrate
frees
flotilla
senses
distributions
duarte
favors
favours
favourably
minimized
subsidization
413
537
dougl
##naecology
##edicine
illegality
westbound
462
468
464
460
46th
##oflu
382
383
387
advancements
372
378
everlasting
evergreen
complexion
icg
icj
icon
icing
icac
icbl
icerd
##ophen
433
glance
irrit
irres
irrational
armor
armies
armament
armando
armistice
683
mutation
1964
candidacy
633
639
637
fireworks
lowering
roundtables
##ylon
formalities
formalization
harmonic
##ttled
definitively
trodden
viral
initialization
diploma
diplomas
machining
supplemental
greenland
assignor
fairer
strived
striving
strives
reconno
brazzav
bulb
bullish
bullying
bulbs
erection
erred
errand
ergonom
generosity
slog
islami
unidroit
704
minefields
##etheart
federalism
basement
##olester
netting
netanyah
consumm
consumables
typewriter
curling
curbed
##ushing
habiya
merry
merrill
##plasia
somoni
gods
renegoti
renewing
testament
detaining
polluter
weaponry
witty
remediation
extravag
eyel
picking
appealing
cleanliness
psi
wrest
wright
wrink
wrangling
dependants
modernity
sounded
eradicated
##boat
##boys
670
tenet
tenuous
tuning
guinean
attackers
tracy
tracks
photographic
photonic
hopkins
silvia
hyster
packaged
packagings
stiff
latino
1992a
752
neighboring
1956
quickest
entirety
microenter
rehabilitate
madafferi
chao
booked
edu
edges
edmond
archiving
archival
cyclical
bolt
villager
villanue
walnuts
expectant
drawer
drawdown
thankful
##maj
##maire
##matism
wasteful
perpetual
perpetration
cancers
cellar
cellul
cellpadding
cellspacing
chiefs
robbed
roberts
depositor
aircrew
magic
commanded
commandments
773
771
774
853
diameter
domination
layoffs
hospitality
milu
wafer
waving
waived
waiving
waiter
quarrel
quarrying
wrongly
908
bosom
gasoline
lumb
lumber
luke
slew
watchman
translations
delaying
reconciling
reconciliations
badge
riyaq
optimist
optimizing
habitual
005
009
ghosts
kyi
attendants
macau
macron
numer
unscr
weaker
weakens
sofa
derail
deriving
conforms
bolivian
733
731
730
fostered
belonged
constructing
meaningfully
radiographers
doubling
determinedly
grossly
oriental
orienting
salesman
aligns
sync
synthetic
synergistic
acknowledgment
nicely
nicole
nicolas
##heiro
repeating
repeaters
subcont
subcategories
attractions
attractiveness
goldman
misfort
misappropri
mislead
miserable
maputo
ibm
ibero
messrs
wwii
712
711
716
71st
transformations
superfl
superpower
superintend
kenyan
merciful
weddings
holiness
holistically
hurd
hurried
##espan
predictions
875
khan
pains
tann
tanin
tanning
tomato
liquidated
ugandan
volunteered
jersey
epit
epoch
videot
videoconferencing
cheating
cheek
chewing
maurice
survived
surviving
checklist
horror
horrors
samuel
accomplishing
odp
warmer
warmest
remembrance
colonization
913
converter
converging
telecent
telecom
telecomm
journalism
journalistic
fearful
probed
deficient
clark
845
848
847
984
osaka
oscill
unoda
coalitions
barbed
722
726
789
beds
balls
balloting
caste
caspian
guatemalan
blackberry
salvage
ambassadorial
cardinal
cardiov
remembering
azerbaijani
rena
renamed
squalid
squared
cruelty
nepalese
815
818
cpn
mastercard
verses
reminding
attribute
oceanographic
accommodating
952
dedicate
ammunitions
grandpa
destroying
892
869
860
boxer
boxing
popularizing
748
923
921
926
hitting
shannon
##otoxic
depths
terminals
suprem
cultiv
fatalities
lengths
rainforest
predators
predeployment
matches
equivalence
cambridge
burdened
coconut
dilution
dilap
halve
halted
halons
lesb
ladder
exempting
regretting
compiler
bottled
marker
markup
brokers
brokered
prais
prague
petty
thanksgiving
endeavor
mixing
roller
aggressively
preserves
apathy
knight
knot
knees
knocked
latvian
paved
pawn
zhi
zhen
zhou
styles
styled
sweetheart
contempor
molding
palad
pillow
rangeland
whomsoever
treasurer
duplic
gunfire
abdullah
abdelfatt
overcame
uruguayan
inadequacy
ferment
ferocious
jammu
mujeres
nutritious
rouge
rationality
rationalize
rationalizing
sinai
soils
flux
imaginary
ccf
cca
drylands
ignoring
totality
exhibit
exhibits
apparel
apparatus
##ruptions
brotherhood
995
celib
celery
shoplif
imperatives
apartments
ctoc
dresses
stimulating
##ycomb
christoph
extracted
francisc
epidemiological
anticipate
##oxone
atmospheric
diversify
textiles
uniforms
uniformly
flagship
bridging
bloodshed
bombardments
cabrera
dividing
##flu
spectral
spectators
013
011
017
humil
recurring
scenes
behavioural
hugo
inequities
forgery
unacc
dissent
dissident
abandoning
roadside
cups
cupboard
fuk
fuelled
futile
falc
munich
michigan
xxix
xxiii
therapist
therapies
intimidate
exhaust
seedling
splash
promulgating
patrolling
elevation
elevated
hydrochlor
bonus
bonuca
castro
pcbs
ruins
sands
sandwich
sandbags
tonnage
##links
isnt
astrology
ample
amphet
daes
dwindling
elders
eldest
semitis
semiconduc
semipala
insolvent
criticize
criticizing
occasionally
interpreting
harassed
walker
berthed
mike
oxide
pipes
pipelines
accidentally
unlawfully
lucas
lucrative
torch
heighten
1934
1936
surrounds
favorable
township
casualty
ceos
crows
festive
lecturer
tyres
wounding
thrill
enormously
atlanti
shovel
smoothly
photoelectric
navigate
celebrations
baths
gabri
coupling
markedly
restructured
buds
mosul
passions
ramming
sticks
vitre
vitro
vitally
vitae
rebirth
acidification
accumulating
polynes
jumper
jumping
angelo
magnificent
hindu
imbued
reimbursable
comforted
unrepresent
subtract
subtraction
pools
pooled
1284
referendums
simplifying
irrevoc
027
dinars
mask
pornographic
##annah
unwto
unwarranted
complicate
complicating
1928
1929
1927
protestants
diverting
diverted
divergence
stamping
1890
algorithms
unacceptably
091
henceforth
karl
karte
pulmonary
sophia
utah
##working
distrust
symposia
aeros
aerobic
aeronau
bellamy
cfsp
##perienced
##guard
seaside
sequentially
sequencing
multiplied
044
binuca
pedal
pedro
yields
yielded
reassess
reassign
reassignment
dearest
recessions
wetlands
poisoned
affiliate
smuggled
volunteerism
christmastime
##vestment
##rogate
antagon
antananar
chronicler
insectic
pharmacy
swims
frankly
harbours
pollutant
csce
cssa
cracks
mergers
pigment
pigeon
pigeons
paired
rhine
ashbaj
seattle
aggregation
aggregating
disconn
cartels
cartographer
evacuate
democratiques
constituent
constitutive
catches
catching
dusty
prolongation
stems
unnotic
adversarial
perceive
weighing
weighted
weighty
lobster
redressing
coloured
innocence
sophistication
axes
akin
battered
frost
fractures
hkt
hkia
melbour
##oea
untouched
untruth
uninformed
uninhabited
hammer
reclassify
reluctance
workloads
abundantly
scottish
differentiate
auctioneer
hcfc
hubei
kpmg
nafta
tumours
alterations
disrupting
plasmod
contaminants
proclaims
persuasive
merchants
dynamism
aggravate
breadth
earmark
kwun
kwok
mentor
muddle
pinheiro
pumps
rankings
tickets
betting
scotia
configure
configured
buffet
1539
knowingly
dispersal
electronically
muscles
alienation
contradiction
contradicts
hipcs
loudly
tiny
wilaya
reorganize
forehead
2036
arsenic
lagging
margaret
minurcat
##rollable
detector
auditorium
precedents
stickies
discontinue
ariel
cadre
cadmium
pyongyang
rabat
rodent
tennessee
vendor
inmate
recovering
savior
flawed
1737
surgeon
warsaw
experimentally
##cripts
bisie
diph
frederic
freddie
gallup
gallery
ntaganda
velik
##worth
##worms
sewers
clerides
correlate
entertained
neglecting
jeopardize
triggers
fledgling
hike
necklace
peculiar
vigour
##henyl
rewarded
uneasy
novelty
cherry
chestnut
cognition
propagate
smells
blocking
countermeasure
harnessed
feminist
feminine
feminization
magistrate
homelessness
scholarship
cords
fetch
fetters
julia
jennie
jennifer
kimberly
xinhua
thyroid
reactor
reactors
deminers
unjus
unjspf
paradox
intervenes
leveraging
perfume
indiscriminately
abided
tricky
discovering
quadr
quadrup
bronch
substantiate
subscribe
embracing
honestly
curbing
ultrasound
diagnostico
sacrifices
enthusiastically
wolfgang
bernanke
baref
fungi
groove
honeycomb
jimmy
lumps
pioneered
taip
wenzhou
yangzhou
yangtze
##ifery
##kjavik
2022
interferes
interfered
interfering
hawk
prompts
annotated
victories
victoria
fisherman
categorical
splitting
bathrooms
inaugural
cowardly
fantastic
fantasy
folder
folded
jaak
jaime
pivot
rivier
tabernacle
toyota
resembling
commendable
chimpan
leapt
incursions
hepatitis
hepatoc
coincide
uphill
upsetting
sociologists
scanner
26060
penetration
penetrating
superstition
inflammatory
infringements
negligence
curtailed
cameron
abdelaziz
passionate
refrigerator
citric
fidel
gustav
kras
mascot
nagasaki
inquire
rearr
alpha
interrogations
revolving
cauca
deflection
mediators
emigrate
emigrants
grammatical
simonovic
telegram
telegraph
absentee
competitor
diligent
splendor
louisiana
bountiful
cavity
fono
gambari
hardships
mbayu
pentachlor
pentabde
welding
##misinin
inexperienced
ontology
##olitical
uncovered
ankle
cheque
shiny
shinzo
imperialism
impediment
seamless
recreational
disintegration
disguising
expedient
releasable
relocating
indefinitely
marxist
proprietorship
scrub
screwed
1591
cafeter
unfolds
harvested
microscopic
ultravio
misunderstanding
ignorant
enthusiasts
rigidly
championships
billy
bunia
ffd
hinges
ionizing
jalibah
nicholas
tornado
##cutaneous
reappoint
reappointed
sterile
beaches
unavoid
chongqing
enzymes
adhesive
neurobi
worsened
assassination
assassinations
subdivided
pretexts
addicts
addicted
carpentry
scorecard
scrapping
scarcely
delineate
prescribe
collisions
exploratory
triumphs
metrics
adjudicate
infringing
ambiguity
squadron
contravenes
enlarged
mcdoug
orthodoxy
antibiotic
astronomer
astronomical
ehrc
katrina
nuns
nunat
nickel
najaf
oligarchs
roger
sdm
scepticism
teddy
##kovsky
thriving
forfeited
prosthe
beatings
unspent
anonymity
anonymous
partitioning
chelsea
chronological
repealed
nexus
leakage
arisen
plunge
plunged
plummet
stratospheric
outlays
outlaw
marcoussis
legendary
carelessness
guerrero
ordinances
sergei
populist
analogous
swallowed
retrospective
paternal
unfavorable
denomination
firefighting
reconfigurable
extradited
extradite
cheerful
hormones
kilometers
bandwagon
xxvii
unintentional
reconsidered
buckets
dosage
dizz
emanated
eternal
eternity
fernando
gbp
gigantic
gesture
gracious
iaia
imitate
jolie
jungle
koroma
kolarov
ketamine
ljub
palliative
pavil
rhein
wandering
zemio
##mandu
reykjavik
##leaders
shooter
prsps
expounds
provocations
provocative
requisition
requisitions
climatic
boiler
miniature
transporter
insurgency
cripple
crippling
loosely
nucleus
gramoxone
substituted
substituting
metabolites
radiotherapy
radiocommunic
supermarket
supermarkets
hydropower
redeployments
enlightened
mixture
mixtures
polygon
postponement
masculine
masculinity
dormitory
dormitories
retrieval
diarrhoeal
diarrhoea
apprenticeship
dmfas
dvd
dusk
deregulation
drowning
fugitive
gynaecology
glimp
higgins
humble
icescr
jogging
kumalo
mammal
nourishment
nahr
pessim
paws
rbps
stitch
tidy
tumbling
zanzibar
zurich
##lamide
rethink
forsake
congested
unveiled
unloading
whirlwind
anthony
exaggerate
chagas
chariots
enchanted
energetic
##osanitary
neurons
##izhou
incarcerated
spermat
disbursed
disembarked
coefficient
exponentially
expropriation
conspic
permeability
underdevelopment
bashful
carbohydrate
liquefaction
equipments
confectionery
envisioned
formulas
redeemed
infinitely
awakening
menstrual
watercourses
retroactive
warheads
excitement
federations
cosmopol
veterans
ethanol
turbine
telomerase
outsourcing
taxpayers
midwifery
reinvigorate
candlestick
glossary
obstructed
wrongdoing
unscrupulous
boycott
messengers
railroads
conglomerate
congenital
channelling
renouncing
demobilize
fluorescence
puppy
eyewitness
astronautical
fortunately
conscientious
sulfate
tumultuous
landscapes
warehousing
intrinsic
dysentery
noncompliance
aqsa
bangui
citibank
dennis
daniel
gersh
gomez
ghajar
gorgeous
hesse
jonathan
klein
lincoln
mnb
pencil
pixels
tutorial
vouchers
##second
contiguous
sturdy
unleashing
whisky
altruism
extinguish
envelope
shampoo
councillors
hagrid
recuperation
arnold
arduous
artemisinin
perseverance
decorations
plenipot
contagious
indignation
aberration
abatement
abominable
opaque
tranquillity
ecotourism
usurp
newfoundland
monrovia
monolithic
overexpend
auxiliary
confucian
presumptive
phytosanitary
infiltration
bruno
emerges
backbone
blasphem
franchise
downgraded
pleadings
skirt
brahimi
housewife
telemedicine
calamity
gerhardt
elephant
headquartered
uncontrollable
autobiography
angolan
denuclearization
##hausen
mushroom
replenishment
accomplices
mortgages
misdemean
footnote
episodes
samaritan
homosexuality
caseload
apiece
tsinghua
puzzles
dissatisfied
incompetent
hydrocarbon
mosquito
irrelevant
aeroplanes
inadvertent
shaanxi
wilhelmina
mitrovica
inconvenience
fantasies
sprinkler
alphabet
cavalry
vilnius
glycogen
mitsubishi
hezbollah
hemisphere
browse
bennet
cplp
cinderella
dldd
evelyn
eloquent
fannie
fdtl
gendarm
grocery
gbagbo
honesty
jeddah
jirga
kandahar
kevin
kathmandu
koffi
lantau
lombard
luggage
mommy
murng
mbeki
pineapp
ralph
rassemblement
stink
sediment
someday
trolley
tashkent
tutsi
vancouver
vatican
watson
yorkshire
##castle
##cliff
thompson
reissued
staple
##terrorism
asociacion
unaddressed
aladdin
alzheimer
exodus
exaggerating
chittagong
chrysler
enquired
shrapnel
interministerial
neafc
imprecise
seawater
sebastian
incubators
incommunicado
agribusiness
youtube
compatriots
undisclosed
peuple
mangrove
subtitles
subregions
intraregional
upazila
booby
marrakech
minugua
monegasque
elapsed
scissors
guillaume
feebly
emplacement
courmayeur
enclaves
populaire
##obenzene
complementing
handkerchief
smallpox
vojnovic
readjustment
freebsd
plethora
janjaweed
telemetry
metohija
antioxid
##ompetitive
germplasm
uncomfortable
douglas
brazzaville
netanyahu
habiyambere
microenterprises
villanueva
misfortune
superfluous
cardiovascular
abdelfattah
hydrochloroflu
semitism
semiconductor
semipalatinsk
unrepresented
irrevocable
antananarivo
ashbajah
unnoticed
melbourne
plasmodium
ultraviolet
1d
1g
1h2
2x
2j
3g
3锛
3sl
3h2
4n
7h
7a
8m
8bn
920
a2
ais
aig
aoc
amin
aks
afore
avery
apt
apec
aij
apo
azh
ails
aichi
bs
bf
b5
bj
bom
boc
bial
biz
bum
bap
bake
bade
bile
bism
bint
baking
bai
baz
benth
baff
bisc
bins
bert
bae
baj
bids
bdi
b11
binge
bonomy
bourge
banco
barium
c2
cj
c6
cuc
cies
cia
cans
cear
cif
cors
cern
cade
cair
crab
clemen
cpa
cels
cbi
cee
cuff
ceases
cui
cja
cida
cache
cached
ckt
ds
dd
d3
d1
ding
dre
dion
dess
dac
duc
dud
dum
dap
dall
drou
dans
dome
danc
dues
dau
dint
duch
dai
doss
doming
danced
dush
ddp
drown
dba
dalian
dusting
ddr
duma
drones
dlc
dancer
densely
ee
e2
ej
ein
eit
eis
eod
eia
eph
elear
echr
eba
eruption
erupted
ephem
eruptions
ft
fp
f3
fec
fow
fod
fates
fry
fong
foll
fade
fath
fli
fists
fdic
fta
fights
fuses
frog
foul
fgm
fucked
flick
gle
gos
gud
gak
gill
gie
gich
gace
gore
gms
gout
grop
gpr
gale
gris
gsp
gyp
gior
grec
gyn
gcs
g20
gao
gull
groom
gestation
gsc
gendar
gni
gosp
gaye
gavi
hf
h5
h3
hic
hir
hud
hend
hates
hib
hons
hack
hmm
hood
hump
hover
hij
hof
hume
hats
hush
hatter
hots
huck
hugh
hoa
humph
hutu
herald
hectic
hannah
iy
iu
ied
ias
iad
iain
iap
iach
ike
icep
iced
iunch
iaf
iasc
irene
ihl
jr
jh
jel
jig
jad
joc
jay
jill
jere
jem
jong
jons
jag
jint
jings
junc
jax
jars
jps
jeb
josh
java
ka
kon
kas
kul
kap
kere
kem
kep
kot
kau
kob
kale
kost
kpa
kites
kha
kara
kwan
kla
kiy
koch
kook
kathy
kouch
kagu
kcal
katie
karma
lr
ln
lf
lx
len
lil
lol
lld
lut
lum
lill
lust
lest
lund
lys
lender
lope
lured
lamin
lnt
lumin
linton
lighted
lunda
lallah
ludd
m3
mk
mts
mers
miz
mip
mous
mans
mell
moll
mens
meng
mav
marian
mock
mwa
mik
momb
mourn
mcs
muff
mba
mario
meck
m000
mbt
miam
mfa
makar
mlad
miao
mashed
mlc
mummy
mourning
np
n°
ner
nac
nld
nut
nud
nak
nish
nub
nue
nari
nile
nau
nudge
nause
namp
naw
nana
npa
nels
nested
nude
naugh
nimb
ndi
nyal
neri
nasty
nabil
npc
nibs
nenet
nylon
oo
ot
oy
oc
ov
oat
oar
oth
ome
olo
oath
oint
oued
owe
ola
omn
otto
oracle
oapr
p3
p4
pti
ply
pab
pud
pum
pie
pam
pong
pms
penti
pits
pants
pause
paz
porte
pto
pne
panda
pcs
puls
pfp
porter
pfcs
pdr
pdds
qc
qal
qat
qian
qass
qsp
qana
qadha
rn
rp
rg
rv
r2
r1
rit
rop
rut
rud
rend
rim
rie
rall
rust
rish
rage
rue
rile
rass
rents
rup
rope
ross
ripp
rites
rna
rides
ruts
ribb
ranch
rarity
rba
rican
rosen
rva
rpg
rnas
ronald
rousse
rags
sj
s1
ses
sic
sig
sith
sow
sill
sard
sates
sage
slud
sach
sif
sime
sind
sings
surn
sket
stif
sana
sina
somb
sizes
sica
squir
sara
saints
tt
tp
ting
tir
tse
tect
tard
tass
tents
tread
tame
tying
tick
tions
tica
tcs
tiber
tiles
tabled
tiring
tbt
tnt
taye
tires
tutor
taurus
ure
uro
uter
uld
uia
utt
ucp
ved
vas
vts
vra
vad
vap
vich
vam
vase
vine
vents
verg
vite
vex
vivid
vcr
vrs
vidal
vrm
vista
wt
wy
w2
wad
wary
wach
wade
wau
wals
wits
wince
wob
wax
wick
waken
wik
wane
woo
woles
wush
woke
wilt
woe
wss
wadi
wires
wien
xue
y2
yit
yel
yere
yish
yep
yass
yau
yelled
yosh
zn
zig
zam
zub
zong
zag
zamb
zont
zaling
zoh
鈥淣
鈥渃
鈥渞
##oti
##oes
##oal
##oven
##ointing
##rp
##rer
##rity
##rence
##rish
##rings
##rily
##rhe
##nat
##nge
##nod
##nav
##nival
##neck
##natal
##ety
##eable
##eau
##etics
##eze
##eighth
##eople
##tti
##tou
##tate
##techn
##tected
##tled
##tration
##tax
##toph
##tosis
##technology
##tuously
##itin
##iver
##iard
##iform
##ixt
##iability
##iably
##iyan
##iffs
##iwick
##sy
##ser
##sal
##sar
##sle
##sid
##say
##sies
##sink
##sung
##suff
##ska
##s11
##mith
##main
##mie
##mia
##mam
##mable
##mage
##mons
##mering
##mouth
##yb
##yx
##yte
##ylic
##year
##yung
##yuan
##yrig
##yrov
##yarb
##pin
##pat
##pent
##pts
##pting
##pted
##pect
##pase
##pection
##pot
##pros
##pler
##person
##pots
##preted
##hh
##hz
##h1
##his
##hop
##hun
##hell
##hong
##held
##hov
##hane
##hbu
##hift
##hsen
##huk
##havi
##haping
##d0
##din
##dig
##dri
##dia
##dress
##dale
##deleg
##fo
##fon
##fit
##fis
##fill
##fam
##fif
##fection
##felt
##frog
##a1
##atin
##aqu
##aip
##aam
##aism
##atis
##ck
##cor
##cic
##cion
##cum
##cies
##cord
##cake
##cences
##cales
##cels
##cont
##cony
##cker
##wl
##wu
##wig
##wild
##wup
##wave
##wrec
##gg
##gb
##gon
##gis
##gle
##gate
##gos
##giv
##gam
##gren
##grow
##gged
##guela
##grown
##gardly
##gitte
##ln
##lp
##lb
##lon
##lal
##lan
##lun
##lide
##lime
##lars
##lorn
##lton
##lights
##lasty
##lonal
##lords
##lanca
##lowski
##vs
##var
##vist
##vill
##vie
##vast
##vail
##vents
##vada
##vae
##vsky
##vaux
##bat
##bation
##bay
##bear
##bell
##beg
##budge
##bits
##burn
##bisc
##based
##bsk
##bird
##uro
##uil
##uven
##uments
##uities
##uet
##uitable
##uki
##uzhou
##uila
##56
##5kle
##29
##xins
##88
##81
##87
##39
##jd
##jon
##jou
##jil
##jad
##jia
##jiv
##job
##jeva
##jumb
##justed
##jevo
##jandr
##kn
##kor
##kal
##kat
##kou
##kic
##kas
##kri
##kse
##kim
##kere
##kli
##kai
##zou
##zel
##zac
##zad
##zied
##zau
##zek
##zui
##znets
##45th
##qm
##qf
##qas
##qib
##qoura
##qrif
##qiao
##qvist
##03
##7n
##75
##72
##61
##600
##锛庘
##塗he
##ır
thb
thine
thuring
thug
thwar
thabo
thromb
##onte
##onge
##onary
##ongh
##onest
##onet
##onso
##onites
##onik
##onna
##onica
##tio
##tik
##tier
##tien
##tiff
##tight
##tibly
##tizers
##erel
##erid
##erun
##erque
##ertina
##enas
##enment
##enate
##enity
##enium
##enya
##enames
##enburg
##eniable
##enpe
##esus
##esthes
##ndon
##nder
##ndize
oficial
ofta
ofthe
ofdi
##ini
##inol
##inate
##iners
##inos
##inam
##inable
##inative
##inked
##inov
##inness
##inished
##orth
##orch
##oride
##orially
##orned
##orget
##orburg
##oritization
##orthy
##edes
##educ
##edics
##editary
##edevil
##alm
##alation
##alos
##alore
##alization
##alco
##alogue
##altered
##aligned
##algam
ine
ina
iner
inel
inop
inund
inference
inordin
inactive
inthe
inbound
inlet
inasm
inquiring
ando
andri
andina
##anh
##anin
##aned
##ante
##anos
##anus
##anana
##anbe
##antine
##anja
##aton
##aten
##atan
##atro
##atra
##atur
##atable
##atell
##atric
##atrop
##atta
##aturity
##arre
##arth
##arting
##artic
##arum
##arans
##arten
##around
##arev
##arking
##araz
##aroo
##araj
##aroni
##araby
##aroscopic
toes
tote
tourn
tosh
toto
toby
todays
todd
tokeep
toxins
##itat
##itra
##itos
##itous
##itry
##itron
##itoba
##ouri
##outing
##ouces
##isd
##iser
##isic
##istin
##isch
##isitor
##isban
##isco
##isua
##isfa
##ento
##inga
##ingin
##ingenuous
##ectiv
##econe
##ecified
##ecological
##ecurity
##omial
##omeration
##omph
##omics
##omelli
##omintang
##ico
##icill
##icks
##icket
##rem
##rearing
##eled
##elial
##elme
##elev
##elible
##elio
##elaria
##eleni
##elnuts
##rod
##rof
##rose
##robe
##rogen
##asu
##aste
##asso
##asties
##mentary
ree
reis
retic
reall
remin
reag
reex
reemp
reactive
reacting
reeling
reoccup
reuters
reelected
reestablish
rezek
##ilo
##ilst
##ilig
##ilings
##iliar
fork
forage
foret
fortification
foreleg
forlorn
forerun
forenames
##lemy
##leading
conund
congreg
##tso
##tsk
##tste
##tsch
##tsov
##cet
##ceg
##cett
##ceivable
##cephal
onc
onion
onum
onward
onerous
onusal
onyx
profic
propped
prolet
prodig
##rav
##raic
##raim
##rault
##ratively
##raza
##ravi
##rador
##ragal
##olf
##olve
##olate
##olip
##olam
##ollo
##olute
##olite
##oluted
##olics
##olades
##olym
##stations
##step
##staking
##sthe
##stenance
##strophy
##stroke
##thon
##then
##than
##this
##thic
##thms
##thys
##thood
##thouse
##uren
##urous
stent
stall
stear
stays
strol
strab
stairs
stove
stef
styl
stacks
stcw
stella
stacked
stoves
stellar
bep
beer
beib
beau
beats
beasts
befall
bewild
##tera
##terbury
##idi
##iden
##idou
##idir
##idated
##idences
##idze
##idya
##idoscope
asi
asas
asst
asunc
ashes
asunder
asda
asbest
como
comi
comed
comite
comedy
##iones
##ionable
##ionage
##igator
##irus
##irim
##iries
##ironment
##irium
##lyle
##opp
##opor
##opic
##opia
##opular
##opause
##opoul
##opedia
##opje
##optosis
dean
deuts
##essa
##esses
##essed
##essantly
##esspan
isar
isis
isil
isop
isot
isob
isna
isesco
ismail
isdn
##rij
##riz
##rition
##riers
##rification
##ripping
##rioritization
##tinental
##tinovic
suo
suing
sule
supar
suits
suite
sukh
suzhou
suez
suicides
suisse
sustenance
##ulence
##ulators
##ithely
##sep
##sets
##seys
withered
withheld
##acar
##acas
##acry
##acup
##actional
##activity
##acpc
##acomelli
##ateurs
unon
unim
unear
unog
unet
unpar
unten
unile
unful
unint
unov
unris
unsh
unease
unrec
unpa
unhab
unips
unoms
unann
unoff
unblock
unarmed
unaltered
unisfa
untso
##adz
##adov
##adros
##adier
##adette
##adowed
aca
acous
acry
acres
acron
acrob
acoust
whir
whome
whither
whipping
whisk
whilst
##tea
##tex
##teth
##text
als
ald
alas
alme
alib
alish
alice
aldic
albu
alerted
alber
almond
alba
alarms
alerts
alaska
algeb
##mptory
ores
orde
orland
noe
noc
nob
noel
noir
nood
noose
notions
nook
noises
nobu
noses
noael
nobility
nostal
reso
resting
rested
resub
reset
resorts
resides
resounding
reshaping
anat
anak
antiv
anto
anecd
anode
anoint
anhui
aneur
anesthes
##abh
##abu
##abas
##abao
##aberi
##abiner
##ablanca
exon
exony
exerts
exuber
##ppo
##ppe
##pple
##ppings
byes
bypass
##gee
##getic
##geology
courier
couriers
##ersible
##erspace
##ticus
##ticks
commencing
commuters
commotion
paro
parr
paros
parish
parach
parenth
parano
parchin
parcels
meh
mek
metic
meager
mekong
meyer
2060
2025
ch4
chor
chit
choc
chak
chech
chave
chick
chaff
chees
chamb
chee
chuck
chores
choler
chfs
chili
chlord
chalk
cholester
chuzhou
chidya
##ortment
##ortality
##ortune
enric
entice
enka
enrique
enquiring
##veld
##oces
##oction
##ocate
##ocating
##ocles
##oclass
##oclonal
##ffin
##ffed
##ffic
##owers
##owell
atom
atoll
##utary
##utense
##uttering
adi
adama
adorn
adversity
adored
adenom
adduced
adorned
##ayd
##ayat
##ayev
##ayats
##ayza
##ayyah
shun
shill
shim
shade
shang
shire
shamb
shuts
shatter
shih
shamed
shinaf
shunda
shanty
shaman
shocking
shrank
shwup
##uco
##ucity
##ucking
##uciary
interm
interacts
interacted
interstate
interiors
interameric
##osil
##oskel
##osaccharide
##osatell
##osravi
repel
reproach
reprioritization
itl
itchy
##udy
##uders
##udable
##meen
##mets
##meted
##chi
##chu
##chel
##chke
##chens
##charge
##chised
##chocol
##chuan
##chart
##chiev
##chayats
##endish
##ustin
##usible
##usik
##usades
##uspecting
##romes
neo
nea
neon
neol
neural
nehem
nevada
neoclass
leo
lea
leased
leasing
leuk
leopard
lepros
##izen
##izim
##izumi
##uning
##unas
##unks
##unct
##unov
##unished
secrec
##odor
##odec
##odaid
imprac
impot
impass
impairs
impati
importer
impinge
implos
impersonal
impenet
impendent
##itives
##itiques
##andi
##ands
##andy
##andis
##anders
##andings
##andria
##quie
##querque
##quitous
##umination
##akan
##akos
##akusha
##thering
##theria
wasting
##iston
##istry
seap
seep
seine
sego
seals
sewing
seguela
##fors
##forward
##fords
##arya
##arynge
incl
incas
incurs
incense
incisive
incidences
incessantly
##illon
##illum
##illips
##illusion
haj
haq
haile
haik
hagen
hamad
hailed
haunt
goz
goat
goos
goble
gothic
##veloped
agp
agath
aggl
heare
hears
heats
healed
youn
yous
sps
spx
spence
spies
sprou
spam
spine
spire
sprit
spaced
spins
spraw
spart
spares
spattered
sparing
spillo
sparse
##imi
##iming
##imov
##imilar
##immon
recess
recoll
recast
recond
rector
recomp
recurs
rectified
reclamation
##ieh
##ieur
arna
arson
arrows
arrays
armees
##venting
prc
pratt
prudence
pronged
pruning
regain
reggie
regained
##grace
##grave
allerg
alligator
notre
notary
notarized
disable
disob
disresp
diseased
disrupt
disbel
dislike
disingenuous
disillusion
disgrace
##ectomy
internship
##ipe
##iples
##ipher
##ipient
coo
cot
coated
coag
coals
coins
cozy
cooler
coarse
##ardial
##apac
##apers
##anta
##antom
##antara
##antanam
##iae
##iavel
##iavsky
genre
genus
genomic
genotoxic
##erex
##ereal
##alls
##allow
##tya
##lican
expo
expire
expelling
expounded
compa
compass
compute
computed
complicit
computation
consulate
conscription
perl
perished
perple
percy
perils
perera
perchlor
peroxy
percutaneous
perrault
peripher
committal
weiz
weep
weiss
weave
weii
##iva
##ivist
##ivision
##ivost
##ivodes
internationalized
internationalization
1920
##icht
##ichthys
decel
decim
decep
decomm
decreed
decimal
decoup
decalogue
##amen
##amar
##amol
##amount
##amco
##amodel
##amiliar
relativity
righteous
accent
acclim
accrue
accolades
workable
workmanship
proving
provoke
provocation
undec
undefined
undeniable
hast
hastened
hassle
##ematic
countess
peep
petr
generality
generalizations
##ibo
##ibre
##ibus
##ibund
##ibles
plo
plag
plating
plaster
plung
placent
plowed
plundered
contended
contesting
contacting
##isham
indent
indulg
indelible
##ghum
##ghreb
##esta
##estan
##estad
##estamp
##vernment
##ansen
abn
abc
abac
aback
abusing
abbas
aberd
##agem
manning
manned
manuel
manoe
manasse
manila
mangan
manitoba
##lotte
polyc
politiques
##mines
##minently
underco
underway
underwater
underbel
undernutrition
underwriting
underregulated
##ryos
willow
stricken
strongh
assy
assis
assail
assaulting
assaulted
assortment
travers
traced
traps
trailing
trader
tramps
travaux
##anci
##ancas
##ancip
##ancourt
##ancayo
lau
lament
laver
laval
laaj
latitude
lava
lamented
laudable
humanly
humanism
saver
sapp
savers
sauna
saiga
sagged
##ubs
##uble
##ubert
##issioning
subrou
subso
subpri
subset
subdue
subtrans
subgroup
sublime
##ells
##ellion
##ellors
suppl
supporter
##ogonal
##ongo
##ongru
intel
intending
##etti
##ettes
##etrack
##uals
prey
prefix
preemin
preaching
pretoria
##msp
##sover
hadji
hadnt
ops
optics
opio
##ressin
tris
trus
trilateral
tranch
trusts
trichlor
tricks
##enco
##enca
##encio
##grammetry
amo
amud
amyl
amcow
amalgam
amateurs
##echild
programmable
##idea
informs
upstream
upkeep
speca
speck
speckle
syst
syph
##epo
##eptic
##epres
ecjc
##acha
##achani
additive
canz
canisters
canoe
canterbury
concur
concurs
conclusive
concili
concomit
concussion
concertina
moi
moth
shouldering
respite
##ifers
##ifiers
##ollary
finn
finely
##aginable
particulates
obo
obe
obedi
obedience
therewith
thereupon
invade
invoking
invigor
invading
invokes
invalu
proclam
##titutes
centen
centered
centrif
##ivet
poetic
pointer
##aseer
outn
outbound
outraged
outfit
clen
clut
clod
clap
clout
clone
cleric
clown
clamp
clash
closes
clipp
clips
clums
clinging
##astasis
theyre
##ventional
bof
boon
bois
boast
boves
booming
botan
boston
boasted
terre
terra
terrific
terrif
teraby
##ariums
##ariyrig
lawless
lawlessness
implementations
afro
afrc
afisma
afrique
socket
soccer
usce
persimmon
##ineal
##inets
hisense
hispan
newsw
newcom
newcastle
systematize
##ributing
servitude
##ounced
##kee
##keting
##kety
##kevi
##ensibility
##enspan
##ensitized
##reatment
##ricans
##ricular
##ricious
yearn
yearning
dov
dob
dots
dost
dohuk
##undi
##undra
sob
sothe
soared
soaring
grouped
##entia
##entice
##entiously
bass
basal
childs
childrearing
meek
marion
marig
marred
marines
marta
martian
marcel
maronites
faceless
facsim
##ruation
##ruthers
##pha
##phic
##phia
minpro
minuci
transgress
transca
transcripts
transactional
mone
monograph
monument
monoclonal
##racts
##ractions
##aille
insin
insular
insinc
instig
insisting
insider
inserting
insensitive
proton
##ernsey
discern
disclaim
discounts
disciples
technic
approbation
posing
legible
legged
legends
legco
legacies
maya
mayors
propitious
propensity
articulation
somehow
overp
overd
overfl
overwork
overstate
overestim
overstated
carts
carve
carter
carlo
carved
cartr
carla
carmakers
carpark
carlyle
caracas
carabiner
carruthers
activist
##ango
##anges
##angel
##angular
eln
elm
elective
elects
elli
elites
elba
elaraby
communes
communion
communiques
ester
estuary
estonian
continual
continents
autism
rok
roach
roast
roving
roaming
rosters
##ksha
highness
specialised
##ondo
vik
1000
prij
revocation
revisers
drained
drawe
levelling
##eldin
##inders
##indian
##graphic
##oton
##otted
##otons
descriptions
desolate
desensitized
##aired
##tenham
ifac
ifap
ifcc
ifcs
ifrc
promiss
promisc
scent
scud
scall
scans
scaff
scored
scatter
scrup
scoping
screaming
twig
twist
twere
twisted
twee
peacetime
guer
guisse
guomao
guadal
guinness
guantanam
guernsey
paraffin
##engue
wellington
capt
capella
capillary
capitol
capricious
usepa
delisted
delights
delusion
delaware
delirium
##ilee
financiers
socialism
timeframe
thanking
measurable
diop
diary
diode
diener
diaper
dihydro
diyarb
diapers
reprinted
reprisals
evo
evidential
evils
eviction
evapor
evangel
liar
##evac
##eville
matar
representativity
tether
teens
teik
teacup
##ccp
countrywide
myl
##mitting
##asson
stav
equestrian
esh
ests
esential
eskim
##aysh
##oko
##oku
##00z
##0000
##tillo
herman
herding
herds
hereditary
remission
planes
planetary
##vedere
##olding
mainframe
violators
violencia
takers
takasu
ensued
feast
feather
feaco
feathers
##ritten
publicized
publicizing
furrows
furthest
authorizing
authorisation
rai
raul
ramb
raft
confine
confines
confuse
preship
presale
presumptions
prestige
demon
dementia
operatives
opertti
ordre
ordzh
nonc
nonst
nonann
nonaligned
emptive
empath
empathy
empowers
lov
loins
loosen
lofa
loayza
firstborn
firsthand
affair
affix
afflu
affront
##ilitated
twofold
sits
annie
annette
annabi
fulcr
thematically
numb
##urring
sheung
sheka
sheba
seto
##aths
##inct
##includ
joel
regionalization
participative
healthily
refutes
refrained
refineries
buts
bute
buoy
bupa
buoys
buzz
bujumb
environs
1500
1520
1521
redirect
reddening
projective
periodon
personae
docks
12mon
puri
purse
purity
purified
11a
endoth
endomet
endlessly
##egger
proposa
##balance
whats
diffus
diffused
gloom
gloomy
studios
##ysics
mae
maa
mati
maze
mapped
maids
maestro
maqrif
maiming
maghreb
siro
caj
civpol
##pring
##princ
##pronged
php
phara
phantom
##xtures
##xtending
depot
depots
schaff
schelling
schwar
schopp
belly
belfast
belvedere
locust
locks
locals
locking
locality
locator
locomo
protectionist
##ptoc
##erga
##erged
##erglass
##ordinated
1330
mustn
missionary
callous
stafford
eufor
eugen
aftereff
##itees
##wneh
signer
signaled
signifies
initiates
initiator
defile
defends
defaulted
defunct
##arean
##arets
avon
avian
fierc
fierce
fiendish
fixtures
practise
serene
serfs
serpent
administratively
principals
principled
whereof
actuary
goodness
achilles
acharya
legalization
preparato
##mming
##tima
sustainably
achievable
vera
veresh
vermont
##tegrate
##tised
##tisan
treats
viewer
viewpoints
corre
corro
corrug
corrob
coronary
corollary
infusion
inflict
infamous
helmet
helsink
helmets
##terns
##terness
medina
mediates
1811
1850
idp
ida
idu
idah
1400
1430
##lique
famed
controllers
frail
aww
awad
awful
awoke
builders
urn
urb
urine
urinary
modal
modulated
modifying
modelled
modifies
attest
attests
attestation
attrition
iike
iiqas
smoo
smiles
smoked
offend
offload
offhand
serviceability
secondment
encry
encased
enclose
banquet
banjul
earners
longterm
beforehand
##itorious
##ariats
expressway
##inese
collated
collide
collating
collusion
collagen
creed
creations
helpline
helplessly
valet
valenta
bodied
qua
quay
quand
quater
quote
quaker
quoting
fieldwork
lifeline
lifespan
specificities
datuk
didier
poprc
unix
uniosil
accountancy
assessor
lander
landings
landmar
landstr
landfill
fla
flam
flint
flax
floss
flung
flaming
flaring
flims
flinch
fluttered
flouting
menisc
menopause
occured
brink
brunt
bruni
brisban
header
headings
headless
headway
headset
headlines
headmaster
headaches
headstart
headhun
emulate
emerald
emulator
emancip
progressing
oppress
oppba
opportune
risking
risked
donn
indicted
employments
employability
jug
juices
juarez
##obo
##obar
##obos
##obao
mechanic
mechanically
##amento
surging
surrogate
surcharge
busan
busiest
busayyah
thirsty
##icients
conductor
completes
obsoles
##uper
cultured
communicative
##ovan
##ovina
##ovann
recognise
terrorizing
analogue
analogues
##owness
##erca
mulberry
charities
charco
charging
charismatic
charlton
charlotte
justic
justif
justifications
disputing
respectfully
conflicted
stature
statue
researcher
conditioner
distal
distorting
distortion
distraction
distensibility
necessities
necessitated
proflig
profane
profiling
majlis
##oster
##ostat
##ostos
##ostroph
documentaries
executory
ceramic
cermet
changeover
##roslav
##roscope
severity
openended
southwestern
ilm
methane
schoolchildren
backer
backwards
backyard
backtrack
backlogs
democrat
forcefully
sway
swam
sword
swath
swarm
swung
swadd
swords
swindler
airways
airlin
airship
airfare
airbus
mandating
2010s
companions
placements
placebo
colin
colat
colleg
coltan
evenings
labs
labrador
2400z
biel
biography
biota
waterproof
##tignon
combated
##inka
##riss
methodist
methodical
graz
grams
gratified
grape
gramine
retraining
retribution
blake
blues
blower
blister
blouse
blurred
blinking
blitz
bluet
blinked
blithely
##spec
2211
invests
militarily
notebook
handsh
handbooks
handwritten
broth
brooding
broached
brock
frpi
frci
warp
wares
warner
warship
warlike
warlords
justly
businessmen
fifties
getter
dayton
foundling
foundered
starb
starter
starvation
constellation
construed
constantine
facilitative
2004200
obliges
focussing
thence
substrate
debug
debtors
debunk
debbie
opportunites
opportunistic
postage
postgraduate
postmaster
postnatal
judas
judging
judicious
judaism
malice
malnour
malady
allowable
##aio
##aikovsky
investigatory
outing
purports
purported
stillness
timestamp
313
319
aiding
vicepres
##vested
realism
realise
materialize
payet
payload
2625
28e
28a
clearances
towels
lessen
lessor
lessened
centrality
restated
restart
excision
excise
excitation
libra
liberate
libana
libert
monthe
littl
succulent
trim
trivia
trimmed
volody
electroc
electroph
electrons
electrification
geoph
geoff
georget
stephan
stepchildren
octopi
sexy
sexist
voye
vohid
voorburg
voivodes
##mentioned
##ahiko
##ugu
##ugation
##ugli
begging
begonia
democratically
##atist
##ativeness
covert
identifier
identifiable
##axis
detours
detract
detachment
readability
readmission
cirrh
##avetes
trev
trez
treason
tremble
trembled
downwards
powerless
powerhouse
seniors
abovementioned
29d
29c
29th
panting
panaman
panameric
panchayats
panamco
reformed
reformation
banker
##iographic
arrhy
veal
veined
veins
betterment
marched
marching
reflagging
pleural
plebisc
immensely
immortality
##azione
indigenas
class5
class8
class4
class9
class6
classics
laboured
277
keynes
keyboard
##coons
##iora
slt
slate
slated
slack
slides
slugg
slopes
slurry
prostitute
prostitutes
skid
skip
skaters
skopje
simms
simulations
simma
ethic
dialect
dialog
dialysis
summon
summation
summons
regularity
migra
mori
moring
morse
mornings
morcer
moribund
observational
crediting
##equins
##arsat
sharks
shariah
keel
keating
namesp
wishful
##portune
teaming
rapport
##ashima
##ashnikov
braking
bravely
bradle
braille
braga
brady
hereunder
608
601
609
606
penultim
penicill
##mara
##martin
##marked
##wardena
suffice
typed
typologies
peoplesoft
aspire
professionally
##sheng
##shire
##shops
##shield
emergent
substantively
barn
bart
barc
baron
bared
barth
barter
barring
barcel
barns
barometer
barlow
directorgeneral
balik
balaj
balkan
balcony
greg
greenspan
turf
turban
connects
connex
connectic
connotation
originality
audible
audrey
auditees
fares
fared
farce
farid
faria
fargo
farcep
505
503
506
bury
burke
burton
burma
##eka
##eker
##ekiah
codified
codifying
codenpe
##ographies
##ographical
knowledgeable
iraqis
languor
modeled
pursuits
355
35th
singers
singleness
sayings
supra
superc
telep
tempo
temples
tempered
augmented
clover
cloaks
talc
talley
subsections
subsectors
topography
topographic
403
##unching
cops
copa
copier
copolym
selfish
selfless
outskir
camped
campuses
campbell
easiest
##usei
##useyn
meta
metrob
metrology
metamor
metropol
metamodel
jobless
shortness
shortened
cyr
cyn
cyan
cynic
cybers
teachings
heartened
panelists
russell
antique
billing
billings
harming
harmless
adjourning
adjectiv
bremen
breasts
failings
taxed
taxis
taxing
taxable
broadest
presse
pressur
mobutu
detailing
effectual
causation
causative
imc
devoid
deviant
devoting
devolve
exams
msv
msci
pungent
pastures
##oya
##oyen
##omputer
kindness
compares
pointless
seleka
mid19
midnight
##awar
paperless
lowers
lowincome
potentialities
racing
raccoons
equaling
capitalized
capitalizing
##ungu
324
patron
patril
##ianske
distributors
ivy
salz
salle
salame
salah
salient
salinity
salbut
salaam
internalized
internalize
calves
calories
caliber
caloric
##ilarated
porto
portra
portals
portrays
stressors
ideology
unfip
unfreeze
unfeas
unfamiliar
##eaded
counteracting
counterproduc
counterterrorism
countervail
eleanor
widened
##efruit
complutense
##cribe
hardy
harding
hardest
hardness
hardening
hardworking
travelers
collaborations
collaboratively
beginner
multilaterally
grun
grange
grids
happier
groundwork
groundbreaking
multipronged
toolbar
separations
separatism
separatist
divisional
familial
familiarity
purposeful
uncomp
standardizing
chapman
chapeau
nearing
punishes
dammam
consequential
faj
faire
fauch
faeces
fatima
528
520
52nd
turnip
turnaround
2014c
roadbl
customize
598
594
5935
histories
managua
illumination
654
659
650
runaway
##iterite
northeas
582
589
580
587
deepest
industrialised
precede
primors
483
486
alternately
weber
webster
webpage
552
558
551
554
5585
fishes
fishers
appreciable
guarani
473
476
642
648
643
452
451
454
459
45th
raping
##appiness
texture
textual
textbook
physiographic
darcy
darwin
daredevil
embell
emblem
embryos
629
627
626
62nd
341
3460
hossein
anglo
angular
anglican
422
423
427
englishman
361
565
568
561
faceted
radish
radiant
effortless
egmont
injected
injunction
reins
reinter
reintegrate
filtration
1993a
keepers
fundamentalist
518
511
514
519
interplay
registrant
registrations
obtains
circumference
491
499
49th
hara
harad
harrow
haruh
harvey
appearing
drip
drizzle
timescales
crosses
crossroad
packets
##yao
545
541
549
547
54th
denig
denational
solace
solvents
soluble
solariyrig
parlor
afghans
choic
chooses
jurassic
##ambo
personalized
personalization
crusts
crushing
crusades
lara
larry
larvae
##when
flowchart
615
sideways
sidewal
##dened
suspending
suspense
##apses
structuring
structurally
motherland
candiwe
candelaria
394
390
396
microp
micrometer
##nica
convulsion
convoluted
693
691
699
690
697
killa
##ijin
##ijmans
acquies
avoids
573
571
570
freer
freak
freesty
float
flogging
sensed
senseless
sensillum
##ikha
distributional
dumb
duque
dutiful
favoring
subsidize
sank
sanyo
sannikov
unhappiness
414
419
417
cubs
figs
alley
532
538
533
531
534
539
birgitte
massage
##edict
ledger
illegitim
innovate
innovator
##haj
##haes
cnc
steer
steiger
sixtysecond
ambit
ambly
ambival
liveable
westward
earthly
characterizes
465
463
461
467
wester
##ofen
##ofchocol
startup
389
honorary
borderlines
371
femmes
deliverance
ica
icu
icsw
icicle
wayside
##ophanes
escobar
westerners
435
437
436
glen
glit
glac
glam
glib
glaring
glomer
gloria
glouces
irg
irb
irving
irred
irfan
irrad
musicians
mushar
oilfield
utilizes
utilitarianism
##afi
##afar
##aflu
periodicity
682
688
684
689
68th
6819
login
logan
mutatis
mutandis
##elsen
##elsat
candidly
candidature
candidatures
commercialization
635
630
firewall
##ylan
##ylla
##ylaxis
bearn
bearers
exploits
formalize
formalizing
trojan
[...]
