{
  "version": "1.0",
  "truncation": null,
  "padding": null,
  "added_tokens": [
    {
      "id": 0,
      "content": "<unk>",
      "single_word": false,
      "lstrip": false,
      "rstrip": false,
      "normalized": false,
      "special": true
    },
    {
      "id": 1,
      "content": "<sep>",
      "single_word": false,
      "lstrip": false,
      "rstrip": false,
      "normalized": false,
      "special": true
    },
    {
      "id": 2,
      "content": "<pad>",
      "single_word": false,
      "lstrip": false,
      "rstrip": false,
      "normalized": false,
      "special": true
    },
    {
      "id": 3,
      "content": "<cls>",
      "single_word": false,
      "lstrip": false,
      "rstrip": false,
      "normalized": false,
      "special": true
    },
    {
      "id": 4,
      "content": "<mask>",
      "single_word": false,
      "lstrip": false,
      "rstrip": false,
      "normalized": false,
      "special": true
    },
    {
      "id": 5,
      "content": "<bos>",
      "single_word": false,
      "lstrip": false,
      "rstrip": false,
      "normalized": false,
      "special": true
    },
    {
      "id": 6,
      "content": "<eos>",
      "single_word": false,
      "lstrip": false,
      "rstrip": false,
      "normalized": false,
      "special": true
    }
  ],
  "normalizer": null,
  "pre_tokenizer": {
    "type": "Whitespace"
  },
  "post_processor": null,
  "decoder": null,
  "model": {
    "type": "BPE",
    "dropout": null,
    "unk_token": null,
    "continuing_subword_prefix": null,
    "end_of_word_suffix": null,
    "fuse_unk": false,
    "byte_fallback": false,
    "ignore_merges": false,
    "vocab": {
      "<unk>": 0,
      "<sep>": 1,
      "<pad>": 2,
      "<cls>": 3,
      "<mask>": 4,
      "<bos>": 5,
      "<eos>": 6,
      "!": 7,
      "\"": 8,
      "#": 9,
      "$": 10,
      "%": 11,
      "&": 12,
      "'": 13,
      "(": 14,
      ")": 15,
      "*": 16,
      "+": 17,
      ",": 18,
      "-": 19,
      ".": 20,
      "/": 21,
      "0": 22,
      "1": 23,
      "2": 24,
      "3": 25,
      "4": 26,
      "5": 27,
      "6": 28,
      "7": 29,
      "8": 30,
      "9": 31,
      ":": 32,
      ";": 33,
      "<": 34,
      "=": 35,
      ">": 36,
      "?": 37,
      "@": 38,
      "A": 39,
      "B": 40,
      "C": 41,
      "D": 42,
      "E": 43,
      "F": 44,
      "G": 45,
      "H": 46,
      "I": 47,
      "J": 48,
      "K": 49,
      "L": 50,
      "M": 51,
      "N": 52,
      "O": 53,
      "P": 54,
      "Q": 55,
      "R": 56,
      "S": 57,
      "T": 58,
      "U": 59,
      "V": 60,
      "W": 61,
      "X": 62,
      "Y": 63,
      "Z": 64,
      "[": 65,
      "\\": 66,
      "]": 67,
      "^": 68,
      "_": 69,
      "`": 70,
      "a": 71,
      "b": 72,
      "c": 73,
      "d": 74,
      "e": 75,
      "f": 76,
      "g": 77,
      "h": 78,
      "i": 79,
      "j": 80,
      "k": 81,
      "l": 82,
      "m": 83,
      "n": 84,
      "o": 85,
      "p": 86,
      "q": 87,
      "r": 88,
      "s": 89,
      "t": 90,
      "u": 91,
      "v": 92,
      "w": 93,
      "x": 94,
      "y": 95,
      "z": 96,
      "{": 97,
      "|": 98,
      "}": 99,
      "~": 100,
      "¡": 101,
      "£": 102,
      "§": 103,
      "°": 104,
      "·": 105,
      "º": 106,
      "½": 107,
      "À": 108,
      "Å": 109,
      "É": 110,
      "Í": 111,
      "Î": 112,
      "Ñ": 113,
      "Ó": 114,
      "Ö": 115,
      "×": 116,
      "ß": 117,
      "à": 118,
      "á": 119,
      "â": 120,
      "ã": 121,
      "ä": 122,
      "å": 123,
      "æ": 124,
      "ç": 125,
      "è": 126,
      "é": 127,
      "ê": 128,
      "ë": 129,
      "í": 130,
      "î": 131,
      "ï": 132,
      "ð": 133,
      "ñ": 134,
      "ò": 135,
      "ó": 136,
      "ô": 137,
      "õ": 138,
      "ö": 139,
      "ø": 140,
      "ú": 141,
      "ü": 142,
      "ý": 143,
      "ā": 144,
      "ă": 145,
      "ą": 146,
      "Ć": 147,
      "ć": 148,
      "Č": 149,
      "č": 150,
      "Đ": 151,
      "ė": 152,
      "ę": 153,
      "ě": 154,
      "ğ": 155,
      "ī": 156,
      "İ": 157,
      "ı": 158,
      "ķ": 159,
      "Ľ": 160,
      "ľ": 161,
      "ł": 162,
      "ń": 163,
      "ň": 164,
      "ŉ": 165,
      "Ō": 166,
      "ō": 167,
      "œ": 168,
      "ř": 169,
      "Ś": 170,
      "ś": 171,
      "Š": 172,
      "š": 173,
      "ţ": 174,
      "ū": 175,
      "ż": 176,
      "Ž": 177,
      "ž": 178,
      "ș": 179,
      "Ț": 180,
      "ț": 181,
      "˗": 182,
      "́": 183,
      "̓": 184,
      "α": 185,
      "θ": 186,
      "μ": 187,
      "с": 188,
      "ả": 189,
      "ễ": 190,
      "ồ": 191,
      "–": 192,
      "—": 193,
      "‘": 194,
      "’": 195,
      "“": 196,
      "”": 197,
      "†": 198,
      "‡": 199,
      "•": 200,
      "…": 201,
      "€": 202,
      "℃": 203,
      "Ⅱ": 204,
      "−": 205,
      "∙": 206,
      "√": 207,
      "④": 208,
      "─": 209,
      "□": 210,
      "▪": 211,
      "○": 212,
      "●": 213,
      "❏": 214,
      "。": 215,
      "『": 216,
      "や": 217,
      "ュ": 218,
      "丄": 219,
      "乄": 220,
      "乊": 221,
      "位": 222,
      "佲": 223,
      "克": 224,
      "十": 225,
      "升": 226,
      "单": 227,
      "同": 228,
      "名": 229,
      "噑": 230,
      "噒": 231,
      "圢": 232,
      "堚": 233,
      "塈": 234,
      "塗": 235,
      "妔": 236,
      "婄": 237,
      "婇": 238,
      "嬩": 239,
      "孖": 240,
      "孞": 241,
      "孨": 242,
      "孭": 243,
      "宎": 244,
      "宮": 245,
      "宱": 246,
      "宻": 247,
      "寃": 248,
      "居": 249,
      "屸": 250,
      "嶢": 251,
      "嶵": 252,
      "庘": 253,
      "度": 254,
      "当": 255,
      "搂": 256,
      "攅": 257,
      "攆": 258,
      "攈": 259,
      "斤": 260,
      "机": 261,
      "构": 262,
      "查": 263,
      "楧": 264,
      "楪": 265,
      "業": 266,
      "楯": 267,
      "楴": 268,
      "楶": 269,
      "楽": 270,
      "楾": 271,
      "榯": 272,
      "橦": 273,
      "橧": 274,
      "檋": 275,
      "檒": 276,
      "檓": 277,
      "檚": 278,
      "檛": 279,
      "欌": 280,
      "欒": 281,
      "氨": 282,
      "浓": 283,
      "浜": 284,
      "浣": 285,
      "涓": 286,
      "液": 287,
      "淎": 288,
      "淏": 289,
      "淐": 290,
      "淒": 291,
      "淕": 292,
      "淗": 293,
      "淚": 294,
      "淟": 295,
      "淣": 296,
      "淥": 297,
      "淧": 298,
      "淪": 299,
      "淭": 300,
      "淲": 301,
      "淵": 302,
      "渁": 303,
      "渂": 304,
      "渃": 305,
      "渆": 306,
      "渉": 307,
      "渋": 308,
      "渕": 309,
      "減": 310,
      "渜": 311,
      "渞": 312,
      "渢": 313,
      "渧": 314,
      "溶": 315,
      "滼": 316,
      "濂": 317,
      "濓": 318,
      "熲": 319,
      "犱": 320,
      "犲": 321,
      "瓒": 322,
      "瓙": 323,
      "疪": 324,
      "的": 325,
      "瞫": 326,
      "矷": 327,
      "砏": 328,
      "站": 329,
      "竴": 330,
      "笉": 331,
      "笟": 332,
      "米": 333,
      "級": 334,
      "紝": 335,
      "素": 336,
      "編": 337,
      "纭": 338,
      "网": 339,
      "职": 340,
      "自": 341,
      "茅": 342,
      "褰": 343,
      "该": 344,
      "轰": 345,
      "里": 346,
      "量": 347,
      "釜": 348,
      "鈥": 349,
      "鈧": 350,
      "銆": 351,
      "鍑": 352,
      "鍔": 353,
      "鍚": 354,
      "鏃": 355,
      "鏄": 356,
      "锛": 357,
      "锟": 358,
      "閿": 359,
      "": 360,
      "": 361,
      "": 362,
      "": 363,
      "": 364,
      "！": 365,
      "％": 366,
      "＇": 367,
      "（": 368,
      "）": 369,
      "，": 370,
      "－": 371,
      "．": 372,
      "：": 373,
      "；": 374,
      "？": 375,
      "￡": 376,
      "￥": 377,
      "th": 378,
      "on": 379,
      "in": 380,
      "the": 381,
      "an": 382,
      "re": 383,
      "ti": 384,
      "en": 385,
      "er": 386,
      "or": 387,
      "al": 388,
      "of": 389,
      "es": 390,
      "tion": 391,
      "ed": 392,
      "and": 393,
      "at": 394,
      "is": 395,
      "to": 396,
      "ar": 397,
      "ing": 398,
      "it": 399,
      "ou": 400,
      "ation": 401,
      "ent": 402,
      "as": 403,
      "ro": 404,
      "ic": 405,
      "ec": 406,
      "le": 407,
      "om": 408,
      "st": 409,
      "ve": 410,
      "ac": 411,
      "for": 412,
      "ment": 413,
      "he": 414,
      "il": 415,
      "de": 416,
      "pro": 417,
      "si": 418,
      "se": 419,
      "su": 420,
      "ol": 421,
      "ce": 422,
      "con": 423,
      "ra": 424,
      "be": 425,
      "ri": 426,
      "res": 427,
      "ter": 428,
      "ly": 429,
      "lo": 430,
      "me": 431,
      "ad": 432,
      "un": 433,
      "that": 434,
      "The": 435,
      "ts": 436,
      "ur": 437,
      "te": 438,
      "ver": 439,
      "ab": 440,
      "com": 441,
      "ag": 442,
      "wi": 443,
      "gh": 444,
      "per": 445,
      "ch": 446,
      "ir": 447,
      "ate": 448,
      "ations": 449,
      "im": 450,
      "with": 451,
      "oun": 452,
      "ul": 453,
      "ity": 454,
      "are": 455,
      "por": 456,
      "we": 457,
      "no": 458,
      "vi": 459,
      "ci": 460,
      "ld": 461,
      "par": 462,
      "ex": 463,
      "by": 464,
      "li": 465,
      "20": 466,
      "di": 467,
      "ap": 468,
      "po": 469,
      "ma": 470,
      "et": 471,
      "wh": 472,
      "qu": 473,
      "der": 474,
      "port": 475,
      "mb": 476,
      "man": 477,
      "all": 478,
      "In": 479,
      "mo": 480,
      "sh": 481,
      "tic": 482,
      "ational": 483,
      "ff": 484,
      "sion": 485,
      "our": 486,
      "us": 487,
      "ess": 488,
      "tr": 489,
      "ther": 490,
      "ted": 491,
      "so": 492,
      "pl": 493,
      "uc": 494,
      "ren": 495,
      "end": 496,
      "am": 497,
      "tive": 498,
      "its": 499,
      "op": 500,
      "ties": 501,
      "ay": 502,
      "ion": 503,
      "national": 504,
      "ould": 505,
      "ud": 506,
      "Un": 507,
      "iz": 508,
      "ta": 509,
      "ary": 510,
      "was": 511,
      "ha": 512,
      "ne": 513,
      "Com": 514,
      "wor": 515,
      "over": 516,
      "cl": 517,
      "200": 518,
      "em": 519,
      "mit": 520,
      "pe": 521,
      "ited": 522,
      "lop": 523,
      "ance": 524,
      "velop": 525,
      "St": 526,
      "ke": 527,
      "id": 528,
      "ist": 529,
      "pec": 530,
      "ut": 531,
      "coun": 532,
      "est": 533,
      "ated": 534,
      "rom": 535,
      "mber": 536,
      "ill": 537,
      "ution": 538,
      "red": 539,
      "form": 540,
      "co": 541,
      "from": 542,
      "ven": 543,
      "not": 544,
      "out": 545,
      "United": 546,
      "reg": 547,
      "inter": 548,
      "min": 549,
      "ge": 550,
      "ant": 551,
      "eral": 552,
      "ple": 553,
      "ard": 554,
      "ll": 555,
      "ments": 556,
      "develop": 557,
      "has": 558,
      "work": 559,
      "fe": 560,
      "ial": 561,
      "have": 562,
      "ates": 563,
      "od": 564,
      "Con": 565,
      "19": 566,
      "dis": 567,
      "igh": 568,
      "pre": 569,
      "tri": 570,
      "fic": 571,
      "able": 572,
      "rou": 573,
      "ich": 574,
      "gra": 575,
      "pr": 576,
      "pres": 577,
      "ure": 578,
      "Nations": 579,
      "comm": 580,
      "ty": 581,
      "eneral": 582,
      "ain": 583,
      "their": 584,
      "sec": 585,
      "str": 586,
      "which": 587,
      "Re": 588,
      "age": 589,
      "ers": 590,
      "up": 591,
      "tee": 592,
      "ous": 593,
      "ish": 594,
      "gn": 595,
      "do": 596,
      "el": 597,
      "this": 598,
      "mittee": 599,
      "overn": 600,
      "ans": 601,
      "ub": 602,
      "ace": 603,
      "other": 604,
      "go": 605,
      "one": 606,
      "ces": 607,
      "ence": 608,
      "ach": 609,
      "uman": 610,
      "ser": 611,
      "lic": 612,
      "vis": 613,
      "will": 614,
      "fo": 615,
      "Committee": 616,
      "gan": 617,
      "ust": 618,
      "Sec": 619,
      "mis": 620,
      "righ": 621,
      "his": 622,
      "aw": 623,
      "low": 624,
      "under": 625,
      "um": 626,
      "incl": 627,
      "tions": 628,
      "General": 629,
      "ass": 630,
      "you": 631,
      "ies": 632,
      "cont": 633,
      "ice": 634,
      "had": 635,
      "ew": 636,
      "As": 637,
      "ong": 638,
      "cial": 639,
      "ear": 640,
      "gram": 641,
      "au": 642,
      "been": 643,
      "ild": 644,
      "pol": 645,
      "ia": 646,
      "tec": 647,
      "ord": 648,
      "ret": 649,
      "international": 650,
      "fi": 651,
      "ves": 652,
      "rec": 653,
      "ting": 654,
      "UN": 655,
      "fin": 656,
      "ganiz": 657,
      "tra": 658,
      "States": 659,
      "ses": 660,
      "leg": 661,
      "were": 662,
      "also": 663,
      "sub": 664,
      "king": 665,
      "oper": 666,
      "sa": 667,
      "sup": 668,
      "ari": 669,
      "plement": 670,
      "enti": 671,
      "duc": 672,
      "report": 673,
      "ob": 674,
      "olution": 675,
      "ph": 676,
      "sti": 677,
      "Ch": 678,
      "cess": 679,
      "requ": 680,
      "Pro": 681,
      "ome": 682,
      "act": 683,
      "dec": 684,
      "development": 685,
      "ow": 686,
      "ical": 687,
      "present": 688,
      "should": 689,
      "overnment": 690,
      "ef": 691,
      "provi": 692,
      "ities": 693,
      "10": 694,
      "sy": 695,
      "199": 696,
      "mission": 697,
      "Coun": 698,
      "jec": 699,
      "includ": 700,
      "tries": 701,
      "cre": 702,
      "pos": 703,
      "ue": 704,
      "ful": 705,
      "human": 706,
      "De": 707,
      "ublic": 708,
      "would": 709,
      "ine": 710,
      "ual": 711,
      "ree": 712,
      "ble": 713,
      "omen": 714,
      "It": 715,
      "gr": 716,
      "pri": 717,
      "cil": 718,
      "rel": 719,
      "can": 720,
      "ms": 721,
      "resolution": 722,
      "countries": 723,
      "spec": 724,
      "ase": 725,
      "ten": 726,
      "ip": 727,
      "cri": 728,
      "inform": 729,
      "cent": 730,
      "cer": 731,
      "bo": 732,
      "implement": 733,
      "view": 734,
      "ep": 735,
      "public": 736,
      "program": 737,
      "rights": 738,
      "part": 739,
      "pon": 740,
      "ffec": 741,
      "ures": 742,
      "reat": 743,
      "ress": 744,
      "pers": 745,
      "Council": 746,
      "gen": 747,
      "stem": 748,
      "vention": 749,
      "tain": 750,
      "ors": 751,
      "serv": 752,
      "support": 753,
      "urity": 754,
      "des": 755,
      "ory": 756,
      "eting": 757,
      "og": 758,
      "lish": 759,
      "more": 760,
      "ative": 761,
      "acti": 762,
      "try": 763,
      "ating": 764,
      "organiz": 765,
      "ast": 766,
      "rough": 767,
      "any": 768,
      "ility": 769,
      "roup": 770,
      "such": 771,
      "00": 772,
      "ular": 773,
      "ound": 774,
      "system": 775,
      "ons": 776,
      "ved": 777,
      "year": 778,
      "comp": 779,
      "und": 780,
      "fore": 781,
      "including": 782,
      "region": 783,
      "ind": 784,
      "Secret": 785,
      "201": 786,
      "vel": 787,
      "bet": 788,
      "stit": 789,
      "gu": 790,
      "ose": 791,
      "hn": 792,
      "State": 793,
      "now": 794,
      "med": 795,
      "bas": 796,
      "need": 797,
      "sul": 798,
      "but": 799,
      "feren": 800,
      "women": 801,
      "ning": 802,
      "onom": 803,
      "main": 804,
      "mar": 805,
      "ru": 806,
      "there": 807,
      "ving": 808,
      "),": 809,
      "mon": 810,
      "ced": 811,
      "Inter": 812,
      "into": 813,
      "time": 814,
      "tical": 815,
      ").": 816,
      "law": 817,
      "appro": 818,
      "issu": 819,
      "vision": 820,
      "val": 821,
      "bu": 822,
      "ack": 823,
      "int": 824,
      "cus": 825,
      "cy": 826,
      "semb": 827,
      "information": 828,
      "consi": 829,
      "contin": 830,
      "session": 831,
      "they": 832,
      "econom": 833,
      "He": 834,
      "through": 835,
      "ablish": 836,
      "sembly": 837,
      "ign": 838,
      "meeting": 839,
      "new": 840,
      "get": 841,
      "peri": 842,
      "ople": 843,
      "Th": 844,
      "fr": 845,
      "Assembly": 846,
      "ati": 847,
      "mes": 848,
      "inv": 849,
      "Ad": 850,
      "An": 851,
      "Commission": 852,
      "col": 853,
      "use": 854,
      "ffic": 855,
      "establish": 856,
      "effec": 857,
      "child": 858,
      "made": 859,
      "again": 860,
      "respon": 861,
      "gi": 862,
      "trans": 863,
      "No": 864,
      "ft": 865,
      "ference": 866,
      "ges": 867,
      "ific": 868,
      "level": 869,
      "tor": 870,
      "ember": 871,
      "day": 872,
      "dra": 873,
      "some": 874,
      "lear": 875,
      "very": 876,
      "mil": 877,
      "ally": 878,
      "operation": 879,
      "Dec": 880,
      "tw": 881,
      "ticle": 882,
      "plo": 883,
      "commend": 884,
      "concer": 885,
      "iti": 886,
      "vities": 887,
      "commun": 888,
      "ater": 889,
      "who": 890,
      "ices": 891,
      "Ac": 892,
      "rent": 893,
      "Convention": 894,
      "ollow": 895,
      "sp": 896,
      "Par": 897,
      "cap": 898,
      "inte": 899,
      "member": 900,
      "olog": 901,
      "ult": 902,
      "well": 903,
      "av": 904,
      "air": 905,
      "cur": 906,
      "ange": 907,
      "if": 908,
      "techn": 909,
      "Secretary": 910,
      "ensu": 911,
      "oc": 912,
      "ween": 913,
      "ks": 914,
      "alth": 915,
      "activities": 916,
      "Government": 917,
      "recommend": 918,
      "polic": 919,
      "here": 920,
      "cip": 921,
      "implementation": 922,
      "sel": 923,
      "We": 924,
      "aff": 925,
      "between": 926,
      "land": 927,
      "meas": 928,
      "than": 929,
      "bal": 930,
      "ural": 931,
      "thor": 932,
      "loc": 933,
      "dition": 934,
      "way": 935,
      "ded": 936,
      "incre": 937,
      "process": 938,
      "import": 939,
      "fir": 940,
      "those": 941,
      "set": 942,
      "stand": 943,
      "ref": 944,
      "people": 945,
      "stitution": 946,
      "against": 947,
      "rit": 948,
      "follow": 949,
      "uring": 950,
      "led": 951,
      "country": 952,
      "requi": 953,
      "offic": 954,
      "ned": 955,
      "ner": 956,
      "ticular": 957,
      "ters": 958,
      "order": 959,
      "agement": 960,
      "ina": 961,
      "high": 962,
      "effor": 963,
      "International": 964,
      "sit": 965,
      "agra": 966,
      "particular": 967,
      "ile": 968,
      "them": 969,
      "This": 970,
      "cord": 971,
      "lar": 972,
      "ail": 973,
      "ources": 974,
      "mer": 975,
      "pecial": 976,
      "agraph": 977,
      "may": 978,
      "ision": 979,
      "about": 980,
      "finan": 981,
      "Ar": 982,
      "als": 983,
      "ateg": 984,
      "For": 985,
      "Wh": 986,
      "Wor": 987,
      "her": 988,
      "parti": 989,
      "adop": 990,
      "15": 991,
      "equ": 992,
      "could": 993,
      "ship": 994,
      "my": 995,
      "consider": 996,
      "assist": 997,
      "ie": 998,
      "han": 999,
      "12": 1000,
      "Mr": 1001,
      "ak": 1002,
      "vir": 1003,
      "fac": 1004,
      "these": 1005,
      "your": 1006,
      "produc": 1007,
      "umber": 1008,
      "peace": 1009,
      "ris": 1010,
      "Co": 1011,
      "paragraph": 1012,
      "author": 1013,
      "add": 1014,
      "ond": 1015,
      "soci": 1016,
      "viol": 1017,
      "economic": 1018,
      "protec": 1019,
      "plan": 1020,
      "plic": 1021,
      "urther": 1022,
      "uation": 1023,
      "measures": 1024,
      "regard": 1025,
      "rele": 1026,
      "rest": 1027,
      "two": 1028,
      "ism": 1029,
      "Develop": 1030,
      "decision": 1031,
      "represent": 1032,
      "onment": 1033,
      "dent": 1034,
      "arch": 1035,
      "ica": 1036,
      "regional": 1037,
      "pend": 1038,
      "number": 1039,
      "person": 1040,
      "cu": 1041,
      "take": 1042,
      "ho": 1043,
      "promo": 1044,
      "lin": 1045,
      "fund": 1046,
      "security": 1047,
      "ok": 1048,
      "group": 1049,
      "shall": 1050,
      "lec": 1051,
      "vant": 1052,
      "sign": 1053,
      "ability": 1054,
      "Ex": 1055,
      "Republic": 1056,
      "ght": 1057,
      "tak": 1058,
      "ards": 1059,
      "programme": 1060,
      "row": 1061,
      "II": 1062,
      "ality": 1063,
      "efforts": 1064,
      "bi": 1065,
      "most": 1066,
      "organizations": 1067,
      "ploy": 1068,
      "provision": 1069,
      "see": 1070,
      "particip": 1071,
      "Pre": 1072,
      "only": 1073,
      "Afr": 1074,
      "ized": 1075,
      "government": 1076,
      "cooperation": 1077,
      "bec": 1078,
      "ide": 1079,
      "Conference": 1080,
      "said": 1081,
      "crimin": 1082,
      "ding": 1083,
      "af": 1084,
      "ight": 1085,
      "car": 1086,
      "vironment": 1087,
      "children": 1088,
      "vil": 1089,
      "come": 1090,
      "sive": 1091,
      "educ": 1092,
      "period": 1093,
      "non": 1094,
      "ject": 1095,
      "right": 1096,
      "resul": 1097,
      "13": 1098,
      "resources": 1099,
      "nec": 1100,
      "first": 1101,
      "know": 1102,
      "struc": 1103,
      "ordin": 1104,
      "when": 1105,
      "ian": 1106,
      "ban": 1107,
      "impro": 1108,
      "Development": 1109,
      "ese": 1110,
      "social": 1111,
      "vers": 1112,
      "sible": 1113,
      "contri": 1114,
      "To": 1115,
      "En": 1116,
      "Is": 1117,
      "Or": 1118,
      "aim": 1119,
      "ber": 1120,
      "pur": 1121,
      "fer": 1122,
      "accord": 1123,
      "hol": 1124,
      "ety": 1125,
      "services": 1126,
      "accoun": 1127,
      "11": 1128,
      "provide": 1129,
      "like": 1130,
      "years": 1131,
      "review": 1132,
      "propos": 1133,
      "respec": 1134,
      "lobal": 1135,
      "financial": 1136,
      "vent": 1137,
      "many": 1138,
      "issues": 1139,
      "must": 1140,
      "pa": 1141,
      "action": 1142,
      "management": 1143,
      "pt": 1144,
      "app": 1145,
      "address": 1146,
      "So": 1147,
      "draft": 1148,
      "reng": 1149,
      "ann": 1150,
      "ise": 1151,
      "ining": 1152,
      "health": 1153,
      "ights": 1154,
      "Security": 1155,
      "ports": 1156,
      "ext": 1157,
      "tal": 1158,
      "ince": 1159,
      "18": 1160,
      "conf": 1161,
      "build": 1162,
      "14": 1163,
      "world": 1164,
      "Human": 1165,
      "indi": 1166,
      "ings": 1167,
      "ensure": 1168,
      "ization": 1169,
      "state": 1170,
      "Al": 1171,
      "Rights": 1172,
      "further": 1173,
      "party": 1174,
      "itical": 1175,
      "ys": 1176,
      "assistance": 1177,
      "mand": 1178,
      "ques": 1179,
      "effective": 1180,
      "inci": 1181,
      "taken": 1182,
      "ang": 1183,
      "continu": 1184,
      "article": 1185,
      "relevant": 1186,
      "ulation": 1187,
      "ore": 1188,
      "within": 1189,
      "30": 1190,
      "special": 1191,
      "posi": 1192,
      "members": 1193,
      "sur": 1194,
      "less": 1195,
      "At": 1196,
      "cas": 1197,
      "Bo": 1198,
      "hel": 1199,
      "les": 1200,
      "item": 1201,
      "cho": 1202,
      "legal": 1203,
      "based": 1204,
      "vid": 1205,
      "Group": 1206,
      "vo": 1207,
      "ture": 1208,
      "ples": 1209,
      "Off": 1210,
      "during": 1211,
      "Min": 1212,
      "being": 1213,
      "enda": 1214,
      "staff": 1215,
      "atives": 1216,
      "elec": 1217,
      "fact": 1218,
      "related": 1219,
      "uro": 1220,
      "ite": 1221,
      "programmes": 1222,
      "ants": 1223,
      "ness": 1224,
      "streng": 1225,
      "men": 1226,
      "docu": 1227,
      "ily": 1228,
      "Special": 1229,
      "bud": 1230,
      "cor": 1231,
      "long": 1232,
      "provided": 1233,
      "areas": 1234,
      "strateg": 1235,
      "sed": 1236,
      "addition": 1237,
      "where": 1238,
      "China": 1239,
      "make": 1240,
      "commit": 1241,
      "achie": 1242,
      "institution": 1243,
      "lim": 1244,
      "sident": 1245,
      "developing": 1246,
      "used": 1247,
      "environment": 1248,
      "Office": 1249,
      "tern": 1250,
      "ry": 1251,
      "tle": 1252,
      "16": 1253,
      "call": 1254,
      "policy": 1255,
      "ame": 1256,
      "lion": 1257,
      "important": 1258,
      "cons": 1259,
      "change": 1260,
      "sts": 1261,
      "rol": 1262,
      "capac": 1263,
      "education": 1264,
      "sc": 1265,
      "then": 1266,
      "ican": 1267,
      "enn": 1268,
      "ology": 1269,
      "good": 1270,
      "pare": 1271,
      "bility": 1272,
      "Euro": 1273,
      "read": 1274,
      "ilities": 1275,
      "him": 1276,
      "ffe": 1277,
      "after": 1278,
      "Le": 1279,
      "Pe": 1280,
      "initi": 1281,
      "Organiz": 1282,
      "imp": 1283,
      "ium": 1284,
      "place": 1285,
      "held": 1286,
      "jo": 1287,
      "December": 1288,
      "17": 1289,
      "gress": 1290,
      "fra": 1291,
      "mat": 1292,
      "rece": 1293,
      "bution": 1294,
      "civil": 1295,
      "stan": 1296,
      "ause": 1297,
      "ariat": 1298,
      "cour": 1299,
      "increas": 1300,
      "fied": 1301,
      "Program": 1302,
      "cou": 1303,
      "Member": 1304,
      "what": 1305,
      "ss": 1306,
      "reed": 1307,
      "lead": 1308,
      "discus": 1309,
      "Minis": 1310,
      "among": 1311,
      "persons": 1312,
      "force": 1313,
      "ute": 1314,
      "following": 1315,
      "employ": 1316,
      "self": 1317,
      "she": 1318,
      "current": 1319,
      "Europe": 1320,
      "clo": 1321,
      "br": 1322,
      "depend": 1323,
      "integr": 1324,
      "gin": 1325,
      "IC": 1326,
      "political": 1327,
      "la": 1328,
      "Di": 1329,
      "protection": 1330,
      "off": 1331,
      "uclear": 1332,
      "itor": 1333,
      "inclu": 1334,
      "access": 1335,
      "wn": 1336,
      "wever": 1337,
      "dat": 1338,
      "both": 1339,
      "ens": 1340,
      "stain": 1341,
      "training": 1342,
      "require": 1343,
      "adopted": 1344,
      "dies": 1345,
      "before": 1346,
      "eng": 1347,
      "On": 1348,
      "sions": 1349,
      "ilit": 1350,
      "une": 1351,
      "account": 1352,
      "parties": 1353,
      "ulti": 1354,
      "applic": 1355,
      "budget": 1356,
      "ents": 1357,
      "ai": 1358,
      "general": 1359,
      "istr": 1360,
      "lan": 1361,
      "established": 1362,
      "ked": 1363,
      "vari": 1364,
      "ough": 1365,
      "global": 1366,
      "agree": 1367,
      "Ser": 1368,
      "lig": 1369,
      "recei": 1370,
      "fam": 1371,
      "dom": 1372,
      "echan": 1373,
      "direc": 1374,
      "eld": 1375,
      "proced": 1376,
      "keep": 1377,
      "great": 1378,
      "identi": 1379,
      "help": 1380,
      "Au": 1381,
      "uch": 1382,
      "just": 1383,
      "sustain": 1384,
      "put": 1385,
      "outh": 1386,
      "grow": 1387,
      "tention": 1388,
      "Programme": 1389,
      "continue": 1390,
      "diffe": 1391,
      "Cha": 1392,
      "don": 1393,
      "situation": 1394,
      "capacity": 1395,
      "25": 1396,
      "role": 1397,
      "--": 1398,
      "usti": 1399,
      "cing": 1400,
      "Organization": 1401,
      "ade": 1402,
      "President": 1403,
      "ror": 1404,
      "mework": 1405,
      "necess": 1406,
      "tex": 1407,
      "reques": 1408,
      "exam": 1409,
      "coordin": 1410,
      "accordance": 1411,
      "Cent": 1412,
      "stud": 1413,
      "building": 1414,
      "deleg": 1415,
      "admin": 1416,
      "gy": 1417,
      "did": 1418,
      "pris": 1419,
      "sum": 1420,
      "expres": 1421,
      "Amer": 1422,
      "remain": 1423,
      "three": 1424,
      "thing": 1425,
      "There": 1426,
      "recommendations": 1427,
      "consul": 1428,
      "2008": 1429,
      "comple": 1430,
      "prior": 1431,
      "indic": 1432,
      "ency": 1433,
      "tained": 1434,
      "iness": 1435,
      "isl": 1436,
      "2006": 1437,
      "agenda": 1438,
      "assess": 1439,
      "proble": 1440,
      "unc": 1441,
      "CO": 1442,
      "coura": 1443,
      "same": 1444,
      "appropri": 1445,
      ");": 1446,
      "jud": 1447,
      "treat": 1448,
      "field": 1449,
      "specific": 1450,
      "respect": 1451,
      "without": 1452,
      "pop": 1453,
      "working": 1454,
      "fication": 1455,
      "tim": 1456,
      "ben": 1457,
      "ential": 1458,
      "community": 1459,
      "avail": 1460,
      "tem": 1461,
      "dered": 1462,
      "They": 1463,
      "24": 1464,
      "cra": 1465,
      "ages": 1466,
      "submit": 1467,
      "2005": 1468,
      "ort": 1469,
      "ultural": 1470,
      "wer": 1471,
      "how": 1472,
      "each": 1473,
      "princi": 1474,
      "local": 1475,
      "Rec": 1476,
      "mun": 1477,
      "million": 1478,
      "technical": 1479,
      "World": 1480,
      "ith": 1481,
      "char": 1482,
      "life": 1483,
      "road": 1484,
      "line": 1485,
      "conflic": 1486,
      "progress": 1487,
      "ID": 1488,
      "exp": 1489,
      "full": 1490,
      "mark": 1491,
      "jor": 1492,
      "sto": 1493,
      "uly": 1494,
      "own": 1495,
      "control": 1496,
      "improve": 1497,
      "fy": 1498,
      "mechan": 1499,
      "att": 1500,
      "cies": 1501,
      "2009": 1502,
      "while": 1503,
      "June": 1504,
      "23": 1505,
      "ption": 1506,
      "ital": 1507,
      "second": 1508,
      "Article": 1509,
      "000": 1510,
      "every": 1511,
      "trade": 1512,
      "data": 1513,
      "search": 1514,
      "National": 1515,
      "concern": 1516,
      "interest": 1517,
      "Africa": 1518,
      "text": 1519,
      "care": 1520,
      "lab": 1521,
      "Res": 1522,
      "partment": 1523,
      "ds": 1524,
      "Reg": 1525,
      "ale": 1526,
      "2010": 1527,
      "ended": 1528,
      "arian": 1529,
      "gender": 1530,
      "appropriate": 1531,
      "But": 1532,
      "legisl": 1533,
      "governmental": 1534,
      "necessary": 1535,
      "New": 1536,
      "nuclear": 1537,
      "since": 1538,
      "anal": 1539,
      "policies": 1540,
      "ran": 1541,
      "ient": 1542,
      "framework": 1543,
      "conom": 1544,
      "violence": 1545,
      "major": 1546,
      "bus": 1547,
      "lat": 1548,
      "net": 1549,
      "ustice": 1550,
      "Econom": 1551,
      "vic": 1552,
      "amoun": 1553,
      "chool": 1554,
      "ral": 1555,
      "21": 1556,
      "sing": 1557,
      "26": 1558,
      "document": 1559,
      "Dis": 1560,
      "communic": 1561,
      "vice": 1562,
      "reco": 1563,
      "invol": 1564,
      "ove": 1565,
      "ivers": 1566,
      "design": 1567,
      "increase": 1568,
      "approach": 1569,
      "Social": 1570,
      "ged": 1571,
      "back": 1572,
      "2007": 1573,
      "basis": 1574,
      "nat": 1575,
      "jects": 1576,
      "ize": 1577,
      "vidual": 1578,
      "Chair": 1579,
      "conduc": 1580,
      "dist": 1581,
      "Board": 1582,
      "Oc": 1583,
      "termin": 1584,
      "groups": 1585,
      "reas": 1586,
      "reports": 1587,
      "2004": 1588,
      "airs": 1589,
      "thod": 1590,
      "sm": 1591,
      "sibility": 1592,
      "war": 1593,
      "institutions": 1594,
      "four": 1595,
      "let": 1596,
      "Economic": 1597,
      "case": 1598,
      "reduc": 1599,
      "possible": 1600,
      "Pol": 1601,
      "You": 1602,
      "exist": 1603,
      "urn": 1604,
      "2000": 1605,
      "mater": 1606,
      "area": 1607,
      "du": 1608,
      "consult": 1609,
      "del": 1610,
      "cases": 1611,
      "hi": 1612,
      "itarian": 1613,
      "And": 1614,
      "individual": 1615,
      "Parties": 1616,
      "bil": 1617,
      "water": 1618,
      "rative": 1619,
      "recogn": 1620,
      "July": 1621,
      "ules": 1622,
      "nel": 1623,
      "head": 1624,
      "six": 1625,
      "ird": 1626,
      "wel": 1627,
      "provisions": 1628,
      "If": 1629,
      "multi": 1630,
      "22": 1631,
      "har": 1632,
      "hand": 1633,
      "mi": 1634,
      "real": 1635,
      "Ho": 1636,
      "Govern": 1637,
      "itary": 1638,
      "exper": 1639,
      "include": 1640,
      "ious": 1641,
      "society": 1642,
      "Li": 1643,
      "official": 1644,
      "crimination": 1645,
      "May": 1646,
      "weap": 1647,
      "Fund": 1648,
      "open": 1649,
      "key": 1650,
      "DP": 1651,
      "South": 1652,
      "say": 1653,
      "terror": 1654,
      "2011": 1655,
      "monitor": 1656,
      "ennium": 1657,
      "pay": 1658,
      "needs": 1659,
      "meetings": 1660,
      "appe": 1661,
      "prac": 1662,
      "consideration": 1663,
      "focus": 1664,
      "Gu": 1665,
      "invest": 1666,
      "reach": 1667,
      "tics": 1668,
      "available": 1669,
      "Ag": 1670,
      "concl": 1671,
      "play": 1672,
      "encoura": 1673,
      "ission": 1674,
      "ditions": 1675,
      "fully": 1676,
      "upon": 1677,
      "Tra": 1678,
      "contr": 1679,
      "atory": 1680,
      "side": 1681,
      "sector": 1682,
      "contribution": 1683,
      "ition": 1684,
      "ste": 1685,
      "even": 1686,
      "concerned": 1687,
      "Law": 1688,
      "fl": 1689,
      "func": 1690,
      "cept": 1691,
      "2003": 1692,
      "ways": 1693,
      "phas": 1694,
      "tig": 1695,
      "ecu": 1696,
      "because": 1697,
      "sol": 1698,
      "experi": 1699,
      "various": 1700,
      "developed": 1701,
      "proposed": 1702,
      "portun": 1703,
      "IV": 1704,
      "acts": 1705,
      "ger": 1706,
      "hen": 1707,
      "ross": 1708,
      "Fin": 1709,
      "ators": 1710,
      "range": 1711,
      "European": 1712,
      "school": 1713,
      "acy": 1714,
      "project": 1715,
      "istrative": 1716,
      "priv": 1717,
      "issue": 1718,
      "down": 1719,
      "50": 1720,
      "Pal": 1721,
      "art": 1722,
      "promote": 1723,
      "position": 1724,
      "deb": 1725,
      "atus": 1726,
      "does": 1727,
      "sen": 1728,
      "levels": 1729,
      "proper": 1730,
      "method": 1731,
      "allen": 1732,
      "achieve": 1733,
      "hal": 1734,
      "nor": 1735,
      "spe": 1736,
      "With": 1737,
      "tocol": 1738,
      "Me": 1739,
      "Per": 1740,
      "encies": 1741,
      "suc": 1742,
      "keeping": 1743,
      "uture": 1744,
      "oblig": 1745,
      "She": 1746,
      "ders": 1747,
      "military": 1748,
      "light": 1749,
      "istration": 1750,
      "business": 1751,
      "research": 1752,
      "allow": 1753,
      "objec": 1754,
      "continued": 1755,
      "sustainable": 1756,
      "ently": 1757,
      "conditions": 1758,
      "roduc": 1759,
      "month": 1760,
      "Isra": 1761,
      "27": 1762,
      "term": 1763,
      "still": 1764,
      "vestig": 1765,
      "ination": 1766,
      "African": 1767,
      "ake": 1768,
      "noted": 1769,
      "Im": 1770,
      "ences": 1771,
      "28": 1772,
      "comb": 1773,
      "opportun": 1774,
      "power": 1775,
      "operations": 1776,
      "considered": 1777,
      "standing": 1778,
      "29": 1779,
      "ave": 1780,
      "different": 1781,
      "Octo": 1782,
      "2001": 1783,
      "October": 1784,
      "ator": 1785,
      "Women": 1786,
      "technology": 1787,
      "question": 1788,
      "conflict": 1789,
      "claim": 1790,
      "benef": 1791,
      "ouse": 1792,
      "rab": 1793,
      "particularly": 1794,
      "future": 1795,
      "sequ": 1796,
      "uge": 1797,
      "2002": 1798,
      "prof": 1799,
      "ath": 1800,
      "pover": 1801,
      "plac": 1802,
      "bodies": 1803,
      "Sep": 1804,
      "ot": 1805,
      "31": 1806,
      "vol": 1807,
      "small": 1808,
      "affec": 1809,
      "Af": 1810,
      "Cour": 1811,
      "purpo": 1812,
      "nal": 1813,
      "sia": 1814,
      "Department": 1815,
      "found": 1816,
      "ene": 1817,
      "step": 1818,
      "ately": 1819,
      "truc": 1820,
      "ecutive": 1821,
      "Nor": 1822,
      "laration": 1823,
      "ament": 1824,
      "going": 1825,
      "2012": 1826,
      "ric": 1827,
      "govern": 1828,
      "required": 1829,
      "ready": 1830,
      "tow": 1831,
      "systems": 1832,
      "tember": 1833,
      "Working": 1834,
      "poverty": 1835,
      "September": 1836,
      "post": 1837,
      "prehen": 1838,
      "ink": 1839,
      "Tr": 1840,
      "gency": 1841,
      "signific": 1842,
      "Palest": 1843,
      "ared": 1844,
      "point": 1845,
      "material": 1846,
      "whe": 1847,
      "lines": 1848,
      "veral": 1849,
      "above": 1850,
      "organization": 1851,
      "Mon": 1852,
      "lit": 1853,
      "old": 1854,
      "importance": 1855,
      "facilit": 1856,
      "ody": 1857,
      "humanitarian": 1858,
      "ES": 1859,
      "sure": 1860,
      "requirements": 1861,
      "sk": 1862,
      "ulations": 1863,
      "authorities": 1864,
      "Arab": 1865,
      "eval": 1866,
      "clear": 1867,
      "istan": 1868,
      "stru": 1869,
      "police": 1870,
      "mary": 1871,
      "reli": 1872,
      "total": 1873,
      "challen": 1874,
      "nership": 1875,
      "last": 1876,
      "taking": 1877,
      "risk": 1878,
      "much": 1879,
      "pic": 1880,
      "quality": 1881,
      "enter": 1882,
      "However": 1883,
      "ze": 1884,
      "population": 1885,
      "prehensive": 1886,
      "arma": 1887,
      "sex": 1888,
      "making": 1889,
      "1999": 1890,
      "investig": 1891,
      "beli": 1892,
      "determin": 1893,
      "visory": 1894,
      "service": 1895,
      "mocra": 1896,
      "Be": 1897,
      "impact": 1898,
      "High": 1899,
      "active": 1900,
      "resolutions": 1901,
      "ceed": 1902,
      "rug": 1903,
      "TA": 1904,
      "result": 1905,
      "means": 1906,
      "plain": 1907,
      "goti": 1908,
      "given": 1909,
      "Secretariat": 1910,
      "direct": 1911,
      "cup": 1912,
      "ank": 1913,
      "deli": 1914,
      "Union": 1915,
      "defin": 1916,
      "projects": 1917,
      "Nove": 1918,
      "wide": 1919,
      "request": 1920,
      "reflec": 1921,
      "November": 1922,
      "free": 1923,
      "ali": 1924,
      "pen": 1925,
      "ling": 1926,
      "anti": 1927,
      "ided": 1928,
      "paren": 1929,
      "growth": 1930,
      "armament": 1931,
      "alia": 1932,
      "60": 1933,
      "anu": 1934,
      "study": 1935,
      "Court": 1936,
      "poin": 1937,
      "especial": 1938,
      "requested": 1939,
      "ists": 1940,
      "agencies": 1941,
      "especially": 1942,
      "mor": 1943,
      "secret": 1944,
      "Action": 1945,
      "Sub": 1946,
      "ource": 1947,
      "Add": 1948,
      "cost": 1949,
      "personnel": 1950,
      "All": 1951,
      "far": 1952,
      "lack": 1953,
      "note": 1954,
      "2013": 1955,
      "Aff": 1956,
      "participation": 1957,
      "delegation": 1958,
      "Protocol": 1959,
      "appor": 1960,
      "ope": 1961,
      "Mo": 1962,
      "tis": 1963,
      "pot": 1964,
      "formation": 1965,
      "large": 1966,
      "Pr": 1967,
      "tar": 1968,
      "expec": 1969,
      "IN": 1970,
      "teur": 1971,
      "vious": 1972,
      "show": 1973,
      "genous": 1974,
      "ca": 1975,
      "rate": 1976,
      "private": 1977,
      "family": 1978,
      "half": 1979,
      "cir": 1980,
      "results": 1981,
      "March": 1982,
      "ring": 1983,
      "negoti": 1984,
      "attention": 1985,
      "establishment": 1986,
      "amount": 1987,
      "Man": 1988,
      "Se": 1989,
      "ined": 1990,
      "ession": 1991,
      "substan": 1992,
      "whether": 1993,
      "Cri": 1994,
      "ues": 1995,
      "received": 1996,
      "ories": 1997,
      "aged": 1998,
      "Report": 1999,
      "food": 2000,
      "submitted": 2001,
      "significant": 2002,
      "That": 2003,
      "legislation": 2004,
      "..": 2005,
      "actions": 2006,
      "prepar": 2007,
      "employment": 2008,
      "mocratic": 2009,
      "fif": 2010,
      "ulture": 2011,
      "representatives": 2012,
      "ward": 2013,
      "40": 2014,
      "certain": 2015,
      "event": 2016,
      "ustri": 2017,
      "strengthe": 2018,
      "adv": 2019,
      "ele": 2020,
      "estic": 2021,
      "prevent": 2022,
      "pursu": 2023,
      "towards": 2024,
      "Affairs": 2025,
      "US": 2026,
      "ground": 2027,
      "status": 2028,
      "construc": 2029,
      "comes": 2030,
      "agreed": 2031,
      "regular": 2032,
      "called": 2033,
      "reform": 2034,
      "criminal": 2035,
      "Mission": 2036,
      "independ": 2037,
      "ON": 2038,
      "justice": 2039,
      "market": 2040,
      "success": 2041,
      "ply": 2042,
      "sian": 2043,
      "quar": 2044,
      "198": 2045,
      "1998": 2046,
      "tail": 2047,
      "discrimination": 2048,
      "relations": 2049,
      "additional": 2050,
      "might": 2051,
      "rais": 2052,
      "space": 2053,
      "weapons": 2054,
      "bit": 2055,
      "date": 2056,
      "third": 2057,
      "eration": 2058,
      "Chin": 2059,
      "body": 2060,
      "monitoring": 2061,
      "These": 2062,
      "context": 2063,
      "better": 2064,
      "amb": 2065,
      "Governments": 2066,
      "production": 2067,
      "Indi": 2068,
      "give": 2069,
      "explo": 2070,
      "list": 2071,
      "serious": 2072,
      "den": 2073,
      "wish": 2074,
      "aware": 2075,
      "Janu": 2076,
      "tices": 2077,
      "January": 2078,
      "eth": 2079,
      "eas": 2080,
      "graph": 2081,
      "ogue": 2082,
      "Sy": 2083,
      "territ": 2084,
      "included": 2085,
      "ological": 2086,
      "itation": 2087,
      "Rappor": 2088,
      "tled": 2089,
      "vity": 2090,
      "rea": 2091,
      "collec": 2092,
      "migr": 2093,
      "Rapporteur": 2094,
      "rules": 2095,
      "environmental": 2096,
      "Ter": 2097,
      "due": 2098,
      "sci": 2099,
      "irl": 2100,
      "comprehensive": 2101,
      "introduc": 2102,
      "pat": 2103,
      "ick": 2104,
      "fficient": 2105,
      "ener": 2106,
      "procedures": 2107,
      "several": 2108,
      "contained": 2109,
      "increased": 2110,
      "close": 2111,
      "Chinese": 2112,
      "ging": 2113,
      "standards": 2114,
      "IS": 2115,
      "abilities": 2116,
      "costs": 2117,
      "Declaration": 2118,
      "Act": 2119,
      "expressed": 2120,
      "instru": 2121,
      "enh": 2122,
      "emer": 2123,
      "domestic": 2124,
      "coordination": 2125,
      "America": 2126,
      "Apr": 2127,
      "sug": 2128,
      "record": 2129,
      "::": 2130,
      "cal": 2131,
      "move": 2132,
      "prepare": 2133,
      "problems": 2134,
      "Fe": 2135,
      "izing": 2136,
      "Executive": 2137,
      "mandate": 2138,
      "che": 2139,
      "tives": 2140,
      "ysis": 2141,
      "application": 2142,
      "April": 2143,
      "\".": 2144,
      "terms": 2145,
      "chan": 2146,
      "Admin": 2147,
      "existing": 2148,
      "isms": 2149,
      "strengthen": 2150,
      "Fed": 2151,
      "traffic": 2152,
      "reporting": 2153,
      "ually": 2154,
      "representative": 2155,
      "best": 2156,
      "cover": 2157,
      "wa": 2158,
      "ched": 2159,
      "concerning": 2160,
      "ried": 2161,
      "UNDP": 2162,
      "Direc": 2163,
      "dial": 2164,
      "diffic": 2165,
      "belie": 2166,
      "tes": 2167,
      "reported": 2168,
      "foreign": 2169,
      "labor": 2170,
      "Vi": 2171,
      "estim": 2172,
      "manent": 2173,
      "common": 2174,
      "principles": 2175,
      "girl": 2176,
      "practi": 2177,
      "strong": 2178,
      "responsibility": 2179,
      "Palestin": 2180,
      "fil": 2181,
      "Sup": 2182,
      "stitute": 2183,
      "statement": 2184,
      "took": 2185,
      "equip": 2186,
      "funds": 2187,
      "va": 2188,
      "already": 2189,
      "forman": 2190,
      "relating": 2191,
      "ledge": 2192,
      "five": 2193,
      "recent": 2194,
      "response": 2195,
      "Ministry": 2196,
      "ck": 2197,
      "bru": 2198,
      "threat": 2199,
      "armed": 2200,
      "posed": 2201,
      "When": 2202,
      "pli": 2203,
      "What": 2204,
      "Peace": 2205,
      "ought": 2206,
      "therefore": 2207,
      "become": 2208,
      "secretariat": 2209,
      "rule": 2210,
      "Service": 2211,
      "35": 2212,
      "UNC": 2213,
      "agreement": 2214,
      "mal": 2215,
      "next": 2216,
      "decided": 2217,
      "days": 2218,
      "gust": 2219,
      "ask": 2220,
      "ict": 2221,
      "ours": 2222,
      "practices": 2223,
      "CR": 2224,
      "Go": 2225,
      "addressed": 2226,
      "increasing": 2227,
      "circ": 2228,
      "PA": 2229,
      "Ira": 2230,
      "til": 2231,
      "treatment": 2232,
      "ER": 2233,
      "writ": 2234,
      "gether": 2235,
      "formance": 2236,
      "Iraq": 2237,
      "decisions": 2238,
      "another": 2239,
      "ather": 2240,
      "often": 2241,
      "occup": 2242,
      "refer": 2243,
      "mechanisms": 2244,
      "deal": 2245,
      "annex": 2246,
      "Tec": 2247,
      "oples": 2248,
      "regarding": 2249,
      "August": 2250,
      "cultural": 2251,
      "kind": 2252,
      "Represent": 2253,
      "administrative": 2254,
      "terrorism": 2255,
      "energy": 2256,
      "face": 2257,
      "times": 2258,
      "too": 2259,
      "observ": 2260,
      "joint": 2261,
      "Ro": 2262,
      "cam": 2263,
      "def": 2264,
      "My": 2265,
      "house": 2266,
      "Treat": 2267,
      "Sp": 2268,
      "previous": 2269,
      "reedom": 2270,
      "langu": 2271,
      "Can": 2272,
      "Jo": 2273,
      "sent": 2274,
      "investment": 2275,
      "gal": 2276,
      "aring": 2277,
      "least": 2278,
      "wee": 2279,
      "subject": 2280,
      "entitled": 2281,
      "Advisory": 2282,
      "bed": 2283,
      "tims": 2284,
      "associ": 2285,
      "contribu": 2286,
      "together": 2287,
      "ior": 2288,
      "Techn": 2289,
      "Jap": 2290,
      "think": 2291,
      "look": 2292,
      "enhance": 2293,
      "ners": 2294,
      "affir": 2295,
      "Ms": 2296,
      "ler": 2297,
      "org": 2298,
      "Child": 2299,
      "company": 2300,
      "refuge": 2301,
      "Ob": 2302,
      "az": 2303,
      "Sum": 2304,
      "uses": 2305,
      "assessment": 2306,
      "Japan": 2307,
      "mic": 2308,
      "name": 2309,
      "connec": 2310,
      "transfer": 2311,
      "Febru": 2312,
      "February": 2313,
      "income": 2314,
      "anel": 2315,
      "missions": 2316,
      "broad": 2317,
      "aster": 2318,
      "AN": 2319,
      "analysis": 2320,
      "obligations": 2321,
      "challenges": 2322,
      "Centre": 2323,
      "ming": 2324,
      "ars": 2325,
      "ering": 2326,
      "example": 2327,
      "Tri": 2328,
      "arms": 2329,
      "team": 2330,
      "Eng": 2331,
      "Minister": 2332,
      "planning": 2333,
      "33": 2334,
      "ah": 2335,
      "ori": 2336,
      "guide": 2337,
      "cle": 2338,
      "shop": 2339,
      "placed": 2340,
      "provides": 2341,
      "contributions": 2342,
      "Other": 2343,
      "arrange": 2344,
      "performance": 2345,
      "lands": 2346,
      "III": 2347,
      "People": 2348,
      "Some": 2349,
      "little": 2350,
      "consist": 2351,
      "Palestinian": 2352,
      "equipment": 2353,
      "though": 2354,
      "rain": 2355,
      "value": 2356,
      "HIV": 2357,
      "prevention": 2358,
      "dialogue": 2359,
      "bun": 2360,
      "economy": 2361,
      "practice": 2362,
      "gent": 2363,
      "detail": 2364,
      "riend": 2365,
      "Ass": 2366,
      "indigenous": 2367,
      "early": 2368,
      "EC": 2369,
      "bri": 2370,
      "cred": 2371,
      "using": 2372,
      "providing": 2373,
      "AT": 2374,
      "oung": 2375,
      "maintain": 2376,
      "matter": 2377,
      "65": 2378,
      "AC": 2379,
      "hip": 2380,
      "paper": 2381,
      "judic": 2382,
      "victims": 2383,
      "\",": 2384,
      "Information": 2385,
      "Director": 2386,
      "ulated": 2387,
      "peacekeeping": 2388,
      "Asia": 2389,
      "short": 2390,
      "property": 2391,
      "ever": 2392,
      "coming": 2393,
      "equality": 2394,
      "Rus": 2395,
      "dated": 2396,
      "conven": 2397,
      "knowledge": 2398,
      "bring": 2399,
      "IDS": 2400,
      "emphas": 2401,
      "crime": 2402,
      "annual": 2403,
      "corpor": 2404,
      "Ap": 2405,
      "Col": 2406,
      "drug": 2407,
      "living": 2408,
      "ending": 2409,
      "however": 2410,
      "58": 2411,
      "tiz": 2412,
      "distri": 2413,
      "EF": 2414,
      "freedom": 2415,
      "usion": 2416,
      "rati": 2417,
      "plans": 2418,
      "consultations": 2419,
      "Israel": 2420,
      "strengthening": 2421,
      "exer": 2422,
      "forms": 2423,
      "strategy": 2424,
      "commitment": 2425,
      "bur": 2426,
      "tors": 2427,
      "effect": 2428,
      "initiatives": 2429,
      "natural": 2430,
      "Mal": 2431,
      "tro": 2432,
      "always": 2433,
      "proceed": 2434,
      "quate": 2435,
      "1997": 2436,
      "His": 2437,
      "ister": 2438,
      "oney": 2439,
      "adoption": 2440,
      "One": 2441,
      "demand": 2442,
      "While": 2443,
      "awareness": 2444,
      "Si": 2445,
      "want": 2446,
      "ased": 2447,
      "forces": 2448,
      "sim": 2449,
      "documents": 2450,
      "ii": 2451,
      "iter": 2452,
      "organized": 2453,
      "rac": 2454,
      "peti": 2455,
      "final": 2456,
      "medi": 2457,
      "custo": 2458,
      "ream": 2459,
      "semin": 2460,
      "que": 2461,
      "clim": 2462,
      "needed": 2463,
      "AIDS": 2464,
      "East": 2465,
      "stry": 2466,
      "safe": 2467,
      "ire": 2468,
      "violations": 2469,
      "matters": 2470,
      "network": 2471,
      "rap": 2472,
      "biennium": 2473,
      "Plan": 2474,
      "laws": 2475,
      "around": 2476,
      "matic": 2477,
      "evaluation": 2478,
      "hold": 2479,
      "strategies": 2480,
      "reduction": 2481,
      "problem": 2482,
      "function": 2483,
      "hab": 2484,
      "vered": 2485,
      "disarmament": 2486,
      "fail": 2487,
      "aspec": 2488,
      "posts": 2489,
      "Char": 2490,
      "job": 2491,
      "met": 2492,
      "para": 2493,
      "office": 2494,
      "according": 2495,
      "lateral": 2496,
      "45": 2497,
      "48": 2498,
      "49": 2499,
      "aran": 2500,
      "home": 2501,
      "reser": 2502,
      "liance": 2503,
      "Ann": 2504,
      "procedure": 2505,
      "veness": 2506,
      "principle": 2507,
      "quarters": 2508,
      "AS": 2509,
      "rup": 2510,
      "iting": 2511,
      "few": 2512,
      "agreements": 2513,
      "construction": 2514,
      "eli": 2515,
      "room": 2516,
      "responsible": 2517,
      "ditional": 2518,
      "course": 2519,
      "pass": 2520,
      "exchange": 2521,
      "strategic": 2522,
      "integration": 2523,
      "59": 2524,
      "friend": 2525,
      "nam": 2526,
      "run": 2527,
      "ash": 2528,
      "meet": 2529,
      "table": 2530,
      "contain": 2531,
      "never": 2532,
      "section": 2533,
      "origin": 2534,
      "dic": 2535,
      "past": 2536,
      "vation": 2537,
      "flow": 2538,
      "promotion": 2539,
      "63": 2540,
      "IT": 2541,
      "cris": 2542,
      "basic": 2543,
      "changes": 2544,
      "Global": 2545,
      "ped": 2546,
      "atis": 2547,
      "Chairman": 2548,
      "cise": 2549,
      "conduct": 2550,
      "sal": 2551,
      "preci": 2552,
      "compan": 2553,
      "priority": 2554,
      "young": 2555,
      "star": 2556,
      "death": 2557,
      "Univers": 2558,
      "pendit": 2559,
      "communication": 2560,
      "ably": 2561,
      "sugges": 2562,
      "DC": 2563,
      "notes": 2564,
      "Democratic": 2565,
      "Accord": 2566,
      "potential": 2567,
      "Bank": 2568,
      "ones": 2569,
      "statis": 2570,
      "alling": 2571,
      "reason": 2572,
      "steps": 2573,
      "happ": 2574,
      "xim": 2575,
      "selec": 2576,
      "discussion": 2577,
      "experience": 2578,
      "67": 2579,
      "ines": 2580,
      "peoples": 2581,
      "wit": 2582,
      "Region": 2583,
      "Treaty": 2584,
      "Mar": 2585,
      "tered": 2586,
      "teach": 2587,
      "partners": 2588,
      "Head": 2589,
      "funding": 2590,
      "sexual": 2591,
      "stu": 2592,
      "sition": 2593,
      "separ": 2594,
      "thern": 2595,
      "transport": 2596,
      "respective": 2597,
      "requests": 2598,
      "Trade": 2599,
      "expected": 2600,
      "Management": 2601,
      "Representative": 2602,
      "EN": 2603,
      "deploy": 2604,
      "workers": 2605,
      "47": 2606,
      "dam": 2607,
      "ied": 2608,
      "sets": 2609,
      "cell": 2610,
      "agric": 2611,
      "1995": 2612,
      "Offic": 2613,
      "class": 2614,
      "recommended": 2615,
      "Central": 2616,
      "os": 2617,
      "alleg": 2618,
      "operational": 2619,
      "tation": 2620,
      "2014": 2621,
      "purpose": 2622,
      "ps": 2623,
      "ured": 2624,
      "infr": 2625,
      "mean": 2626,
      "others": 2627,
      "greater": 2628,
      "involved": 2629,
      "Further": 2630,
      "sid": 2631,
      "carried": 2632,
      "months": 2633,
      "infl": 2634,
      "forward": 2635,
      "Commun": 2636,
      "draw": 2637,
      "joy": 2638,
      "opportunities": 2639,
      "Tur": 2640,
      "hard": 2641,
      "ador": 2642,
      "inst": 2643,
      "return": 2644,
      "capital": 2645,
      "holders": 2646,
      "37": 2647,
      "find": 2648,
      "promoting": 2649,
      "trafficking": 2650,
      "ama": 2651,
      "yet": 2652,
      "197": 2653,
      "1994": 2654,
      "authority": 2655,
      "items": 2656,
      "limited": 2657,
      "66": 2658,
      "Ger": 2659,
      "1996": 2660,
      "partnership": 2661,
      "contract": 2662,
      "More": 2663,
      "ither": 2664,
      "feel": 2665,
      "settle": 2666,
      "57": 2667,
      "rural": 2668,
      "zer": 2669,
      "Under": 2670,
      "equal": 2671,
      "nature": 2672,
      "affected": 2673,
      "via": 2674,
      "struct": 2675,
      "aimed": 2676,
      "Tribun": 2677,
      "climate": 2678,
      "Kore": 2679,
      "Sud": 2680,
      "vul": 2681,
      "understanding": 2682,
      "communities": 2683,
      "electr": 2684,
      "girls": 2685,
      "According": 2686,
      "jur": 2687,
      "live": 2688,
      "rought": 2689,
      "higher": 2690,
      "vidence": 2691,
      "mention": 2692,
      "Implement": 2693,
      "Afgh": 2694,
      "kes": 2695,
      "astruc": 2696,
      "ada": 2697,
      "mod": 2698,
      "model": 2699,
      "got": 2700,
      "100": 2701,
      "collabor": 2702,
      "ticles": 2703,
      "IL": 2704,
      "emb": 2705,
      "money": 2706,
      "ances": 2707,
      "ensuring": 2708,
      "protect": 2709,
      "vere": 2710,
      "illennium": 2711,
      "officials": 2712,
      "During": 2713,
      "cep": 2714,
      "unt": 2715,
      "carry": 2716,
      "prepared": 2717,
      "enforce": 2718,
      "begin": 2719,
      "urban": 2720,
      "lling": 2721,
      "tection": 2722,
      "cannot": 2723,
      "treaty": 2724,
      "essional": 2725,
      "hours": 2726,
      "uce": 2727,
      "tool": 2728,
      "today": 2729,
      "seven": 2730,
      "complain": 2731,
      "approved": 2732,
      "facilitate": 2733,
      "Afghan": 2734,
      "gener": 2735,
      "facilities": 2736,
      "Territ": 2737,
      "Educ": 2738,
      "guaran": 2739,
      "55": 2740,
      "Gene": 2741,
      "oman": 2742,
      "descri": 2743,
      "multilateral": 2744,
      "experts": 2745,
      "64": 2746,
      "PR": 2747,
      "tax": 2748,
      "Constitution": 2749,
      "presented": 2750,
      "Commissioner": 2751,
      "court": 2752,
      "mechanism": 2753,
      "benefits": 2754,
      "vulner": 2755,
      "hist": 2756,
      "pu": 2757,
      "accept": 2758,
      "sib": 2759,
      "univers": 2760,
      "committee": 2761,
      "offices": 2762,
      "61": 2763,
      "tiveness": 2764,
      "stake": 2765,
      "unish": 2766,
      "anda": 2767,
      "expendit": 2768,
      "signed": 2769,
      "American": 2770,
      "Sudan": 2771,
      "uations": 2772,
      "former": 2773,
      "formal": 2774,
      "site": 2775,
      "financing": 2776,
      "stances": 2777,
      "functions": 2778,
      "essential": 2779,
      "counter": 2780,
      "39": 2781,
      "Panel": 2782,
      "tran": 2783,
      "implemented": 2784,
      "ork": 2785,
      "share": 2786,
      "kets": 2787,
      "entific": 2788,
      "conclud": 2789,
      "Meeting": 2790,
      "Sta": 2791,
      "venant": 2792,
      "famil": 2793,
      "inc": 2794,
      "uni": 2795,
      "rence": 2796,
      "products": 2797,
      "Coordin": 2798,
      "proposals": 2799,
      "appli": 2800,
      "objectives": 2801,
      "ians": 2802,
      "thus": 2803,
      "ills": 2804,
      "commer": 2805,
      "obser": 2806,
      "medical": 2807,
      "issued": 2808,
      "ologies": 2809,
      "Environment": 2810,
      "arrangements": 2811,
      "infrastruc": 2812,
      "36": 2813,
      "done": 2814,
      "ature": 2815,
      "appreci": 2816,
      "Cont": 2817,
      "typ": 2818,
      "saf": 2819,
      "statements": 2820,
      "laun": 2821,
      "adequate": 2822,
      "crisis": 2823,
      "cr": 2824,
      "san": 2825,
      "acter": 2826,
      "whole": 2827,
      "apply": 2828,
      "safety": 2829,
      "32": 2830,
      "34": 2831,
      "Do": 2832,
      "Des": 2833,
      "Review": 2834,
      "informed": 2835,
      "amental": 2836,
      "Ha": 2837,
      "Millennium": 2838,
      "ton": 2839,
      "lifer": 2840,
      "vised": 2841,
      "implementing": 2842,
      "committed": 2843,
      "aspects": 2844,
      "King": 2845,
      "Oper": 2846,
      "York": 2847,
      "evidence": 2848,
      "gest": 2849,
      "demo": 2850,
      "guid": 2851,
      "recommendation": 2852,
      "independent": 2853,
      "52": 2854,
      "stated": 2855,
      "attack": 2856,
      "Ab": 2857,
      "Ci": 2858,
      "elim": 2859,
      "English": 2860,
      "AR": 2861,
      "ligh": 2862,
      "UNO": 2863,
      "indu": 2864,
      "media": 2865,
      "selves": 2866,
      "Covenant": 2867,
      "proposal": 2868,
      "prison": 2869,
      "Geneva": 2870,
      "CN": 2871,
      "Pac": 2872,
      "bre": 2873,
      "gre": 2874,
      "lam": 2875,
      "individuals": 2876,
      "liferation": 2877,
      "iency": 2878,
      "having": 2879,
      "supported": 2880,
      "industri": 2881,
      "opportunity": 2882,
      "Her": 2883,
      "Pers": 2884,
      "solution": 2885,
      "instruments": 2886,
      "51": 2887,
      "enjoy": 2888,
      "behalf": 2889,
      "poor": 2890,
      "paragraphs": 2891,
      "bar": 2892,
      "regulations": 2893,
      "host": 2894,
      "ICEF": 2895,
      "Finan": 2896,
      "contribute": 2897,
      "Implementation": 2898,
      "44": 2899,
      "68": 2900,
      "until": 2901,
      "competi": 2902,
      "reduce": 2903,
      "core": 2904,
      "week": 2905,
      "Tribunal": 2906,
      "ww": 2907,
      "below": 2908,
      "complete": 2909,
      "relationship": 2910,
      "Assist": 2911,
      "Russian": 2912,
      "62": 2913,
      "Pri": 2914,
      "ateral": 2915,
      "currently": 2916,
      "labour": 2917,
      "negotiations": 2918,
      "Pacific": 2919,
      "dri": 2920,
      "pite": 2921,
      "alloc": 2922,
      "alls": 2923,
      "compliance": 2924,
      "regions": 2925,
      "AL": 2926,
      "io": 2927,
      "ood": 2928,
      "test": 2929,
      "guidelines": 2930,
      "aid": 2931,
      "border": 2932,
      "categ": 2933,
      "rates": 2934,
      "enhan": 2935,
      "near": 2936,
      "institutional": 2937,
      "identify": 2938,
      "Agency": 2939,
      "EP": 2940,
      "ig": 2941,
      "vices": 2942,
      "seem": 2943,
      "effects": 2944,
      "conducted": 2945,
      "judicial": 2946,
      "CC": 2947,
      "uel": 2948,
      "citiz": 2949,
      "participate": 2950,
      "Federation": 2951,
      "language": 2952,
      "sor": 2953,
      "oma": 2954,
      "central": 2955,
      "Health": 2956,
      "processes": 2957,
      "Agenda": 2958,
      "Cor": 2959,
      "onic": 2960,
      "restr": 2961,
      "love": 2962,
      "fundamental": 2963,
      "concerns": 2964,
      "Permanent": 2965,
      "combat": 2966,
      "infrastructure": 2967,
      "38": 2968,
      "54": 2969,
      "HR": 2970,
      "TH": 2971,
      "crimes": 2972,
      "avo": 2973,
      "Division": 2974,
      "identified": 2975,
      "Civil": 2976,
      "industry": 2977,
      "Lat": 2978,
      "dy": 2979,
      "ij": 2980,
      "round": 2981,
      "inion": 2982,
      "ides": 2983,
      "recommends": 2984,
      "56": 2985,
      "demon": 2986,
      "paid": 2987,
      "effectively": 2988,
      "Ne": 2989,
      "Public": 2990,
      "entities": 2991,
      "integrated": 2992,
      "administration": 2993,
      "tempor": 2994,
      "Agree": 2995,
      "went": 2996,
      "manner": 2997,
      "occur": 2998,
      "positive": 2999,
      "Since": 3000,
      "prosec": 3001,
      "sufficient": 3002,
      "verage": 3003,
      "overall": 3004,
      "urement": 3005,
      "goals": 3006,
      "Cooperation": 3007,
      "structure": 3008,
      "Leban": 3009,
      "ION": 3010,
      "Non": 3011,
      "OR": 3012,
      "Sci": 3013,
      "nic": 3014,
      "reference": 3015,
      "ico": 3016,
      "simil": 3017,
      "compet": 3018,
      "delegations": 3019,
      "communications": 3020,
      "transition": 3021,
      "fec": 3022,
      "hous": 3023,
      "ins": 3024,
      "leave": 3025,
      "UNICEF": 3026,
      "Trans": 3027,
      "companies": 3028,
      "internal": 3029,
      "undertaken": 3030,
      "purposes": 3031,
      "Support": 3032,
      "refugees": 3033,
      "dol": 3034,
      "big": 3035,
      "connection": 3036,
      "demonstr": 3037,
      "Iran": 3038,
      "fish": 3039,
      "mical": 3040,
      "aries": 3041,
      "aud": 3042,
      "bor": 3043,
      "bro": 3044,
      "stress": 3045,
      "illed": 3046,
      "questions": 3047,
      "students": 3048,
      "referred": 3049,
      "Regional": 3050,
      "mentioned": 3051,
      "dle": 3052,
      "percent": 3053,
      "manag": 3054,
      "Str": 3055,
      "bia": 3056,
      "pet": 3057,
      "parts": 3058,
      "neg": 3059,
      "Forum": 3060,
      "Charter": 3061,
      "University": 3062,
      "ED": 3063,
      "GO": 3064,
      "chang": 3065,
      "Institute": 3066,
      "workshop": 3067,
      "methods": 3068,
      "circum": 3069,
      "things": 3070,
      "liament": 3071,
      "mother": 3072,
      "fire": 3073,
      "1993": 3074,
      "views": 3075,
      "gious": 3076,
      "debt": 3077,
      "Ge": 3078,
      "vey": 3079,
      "apter": 3080,
      "travel": 3081,
      "satis": 3082,
      "ferences": 3083,
      "vote": 3084,
      "benefit": 3085,
      "preparation": 3086,
      "effic": 3087,
      "tification": 3088,
      "outcome": 3089,
      "effort": 3090,
      "Summit": 3091,
      "Korea": 3092,
      "By": 3093,
      "fav": 3094,
      "once": 3095,
      "ries": 3096,
      "tees": 3097,
      "cooper": 3098,
      "difficult": 3099,
      "53": 3100,
      "69": 3101,
      "Bra": 3102,
      "Let": 3103,
      "city": 3104,
      "mend": 3105,
      "ago": 3106,
      "phys": 3107,
      "known": 3108,
      "pointed": 3109,
      "pursuant": 3110,
      "introduced": 3111,
      "Em": 3112,
      "itself": 3113,
      "acqu": 3114,
      "advant": 3115,
      "primary": 3116,
      "conference": 3117,
      "improving": 3118,
      "materials": 3119,
      "Canada": 3120,
      "distribution": 3121,
      "enforcement": 3122,
      "Bel": 3123,
      "Sa": 3124,
      "inno": 3125,
      "minal": 3126,
      "Party": 3127,
      "achieved": 3128,
      "analy": 3129,
      "AM": 3130,
      "Fore": 3131,
      "ey": 3132,
      "ime": 3133,
      "compon": 3134,
      "Protection": 3135,
      "commitments": 3136,
      "Israeli": 3137,
      "believe": 3138,
      "Code": 3139,
      "participants": 3140,
      "speak": 3141,
      "India": 3142,
      "How": 3143,
      "Justice": 3144,
      "organ": 3145,
      "isted": 3146,
      "articles": 3147,
      "opinion": 3148,
      "gets": 3149,
      "compens": 3150,
      "transparen": 3151,
      "ensus": 3152,
      "prises": 3153,
      "After": 3154,
      "exercise": 3155,
      "Ma": 3156,
      "consequ": 3157,
      "adjust": 3158,
      "whose": 3159,
      "letter": 3160,
      "later": 3161,
      "ongoing": 3162,
      "enable": 3163,
      "asked": 3164,
      "deep": 3165,
      "consum": 3166,
      "irst": 3167,
      "mind": 3168,
      "supply": 3169,
      "ruit": 3170,
      "Part": 3171,
      "officers": 3172,
      "character": 3173,
      "expand": 3174,
      "says": 3175,
      "schools": 3176,
      "points": 3177,
      "families": 3178,
      "Agreement": 3179,
      "brought": 3180,
      "vac": 3181,
      "abor": 3182,
      "lled": 3183,
      "tenance": 3184,
      "recognized": 3185,
      "fifty": 3186,
      "oto": 3187,
      "stream": 3188,
      "rather": 3189,
      "loo": 3190,
      "aps": 3191,
      "Criminal": 3192,
      "Sh": 3193,
      "son": 3194,
      "forced": 3195,
      "intergovernmental": 3196,
      "ically": 3197,
      "activity": 3198,
      "standard": 3199,
      "indicated": 3200,
      "interests": 3201,
      "religious": 3202,
      "estimated": 3203,
      "Hong": 3204,
      "spo": 3205,
      "itable": 3206,
      "lot": 3207,
      "extra": 3208,
      "target": 3209,
      "Kingdom": 3210,
      "restric": 3211,
      "zil": 3212,
      "iddle": 3213,
      "price": 3214,
      "prise": 3215,
      "UNF": 3216,
      "critical": 3217,
      "leader": 3218,
      "directly": 3219,
      "):": 3220,
      "dro": 3221,
      "ping": 3222,
      "Unit": 3223,
      "minor": 3224,
      "similar": 3225,
      "cop": 3226,
      "gain": 3227,
      "vin": 3228,
      "wan": 3229,
      "seen": 3230,
      "away": 3231,
      "scale": 3232,
      "claims": 3233,
      "stakeholders": 3234,
      "sight": 3235,
      "words": 3236,
      "minim": 3237,
      "substantive": 3238,
      "guidance": 3239,
      "Ta": 3240,
      "hon": 3241,
      "acting": 3242,
      "fron": 3243,
      "paign": 3244,
      "priorities": 3245,
      "stead": 3246,
      "avoid": 3247,
      "First": 3248,
      "OF": 3249,
      "cru": 3250,
      "punish": 3251,
      "won": 3252,
      "offer": 3253,
      "verse": 3254,
      "zed": 3255,
      "web": 3256,
      "themselves": 3257,
      "Force": 3258,
      "expert": 3259,
      "Fr": 3260,
      "ude": 3261,
      "provisional": 3262,
      "untary": 3263,
      "Bur": 3264,
      "remo": 3265,
      "altern": 3266,
      "detention": 3267,
      "log": 3268,
      "fig": 3269,
      "Po": 3270,
      "immedi": 3271,
      "export": 3272,
      "izes": 3273,
      "interpre": 3274,
      "sibilities": 3275,
      "culture": 3276,
      "ograph": 3277,
      "assets": 3278,
      "Associ": 3279,
      "seek": 3280,
      "dollar": 3281,
      "PS": 3282,
      "tre": 3283,
      "tur": 3284,
      "resource": 3285,
      "create": 3286,
      "improved": 3287,
      "events": 3288,
      "Exper": 3289,
      "goods": 3290,
      "fourth": 3291,
      "governance": 3292,
      "productive": 3293,
      "juris": 3294,
      "average": 3295,
      "aly": 3296,
      "issions": 3297,
      "super": 3298,
      "uty": 3299,
      "effectiveness": 3300,
      "takes": 3301,
      "indicators": 3302,
      "elements": 3303,
      "Education": 3304,
      "hy": 3305,
      "along": 3306,
      "accom": 3307,
      "teen": 3308,
      "soon": 3309,
      "ously": 3310,
      "technologies": 3311,
      "likely": 3312,
      "proceedings": 3313,
      "applied": 3314,
      "fle": 3315,
      "ya": 3316,
      "estern": 3317,
      "lease": 3318,
      "dio": 3319,
      "Second": 3320,
      "throughout": 3321,
      "ternal": 3322,
      "scope": 3323,
      "circumstances": 3324,
      "Foreign": 3325,
      "Su": 3326,
      "iss": 3327,
      "ics": 3328,
      "covered": 3329,
      "Also": 3330,
      "initiative": 3331,
      "single": 3332,
      "reached": 3333,
      "Afghanistan": 3334,
      "efficiency": 3335,
      "ulate": 3336,
      "moder": 3337,
      "utes": 3338,
      "outside": 3339,
      "recover": 3340,
      "Austr": 3341,
      "raised": 3342,
      "ethnic": 3343,
      "territory": 3344,
      "70": 3345,
      "Kong": 3346,
      "Mex": 3347,
      "cand": 3348,
      "informal": 3349,
      "receive": 3350,
      "temporary": 3351,
      "uter": 3352,
      "ancy": 3353,
      "centres": 3354,
      "continues": 3355,
      "Sust": 3356,
      "night": 3357,
      "left": 3358,
      "across": 3359,
      "sectors": 3360,
      "torture": 3361,
      "Crime": 3362,
      "Administrative": 3363,
      "Sustain": 3364,
      "amend": 3365,
      "option": 3366,
      "1990": 3367,
      "remains": 3368,
      "ptional": 3369,
      "encourage": 3370,
      "Syri": 3371,
      "42": 3372,
      "cut": 3373,
      "fem": 3374,
      "top": 3375,
      "prohi": 3376,
      "trust": 3377,
      "sessions": 3378,
      "versity": 3379,
      "contribut": 3380,
      "delay": 3381,
      "dest": 3382,
      "ades": 3383,
      "ung": 3384,
      "includes": 3385,
      "objective": 3386,
      "TAD": 3387,
      "brief": 3388,
      "ruption": 3389,
      "Strateg": 3390,
      "43": 3391,
      "Dra": 3392,
      "bl": 3393,
      "came": 3394,
      "mut": 3395,
      "ech": 3396,
      "UNCTAD": 3397,
      "Children": 3398,
      "Bud": 3399,
      "fair": 3400,
      "turn": 3401,
      "maintenance": 3402,
      "Islam": 3403,
      "anger": 3404,
      "discussions": 3405,
      "bitr": 3406,
      "commercial": 3407,
      "either": 3408,
      "Congo": 3409,
      "balance": 3410,
      "firm": 3411,
      "reaties": 3412,
      "migration": 3413,
      "statistics": 3414,
      "influ": 3415,
      "AP": 3416,
      "curement": 3417,
      "flo": 3418,
      "thought": 3419,
      "comed": 3420,
      "visit": 3421,
      "relation": 3422,
      "spon": 3423,
      "tren": 3424,
      "enary": 3425,
      "olid": 3426,
      "excl": 3427,
      "book": 3428,
      "markets": 3429,
      "Political": 3430,
      "associated": 3431,
      ".,": 3432,
      "Such": 3433,
      "Yu": 3434,
      "proliferation": 3435,
      "perform": 3436,
      "why": 3437,
      "personal": 3438,
      "elections": 3439,
      "Ni": 3440,
      "Over": 3441,
      "cross": 3442,
      "const": 3443,
      "comments": 3444,
      "addressing": 3445,
      "surance": 3446,
      "campaign": 3447,
      "Germany": 3448,
      "Cub": 3449,
      "ief": 3450,
      "ying": 3451,
      "yond": 3452,
      "enced": 3453,
      "prin": 3454,
      "transmit": 3455,
      "Services": 3456,
      "charge": 3457,
      "stop": 3458,
      "industrial": 3459,
      "Latin": 3460,
      "NGO": 3461,
      "OS": 3462,
      "bbe": 3463,
      "ery": 3464,
      "subsequ": 3465,
      "supporting": 3466,
      "extent": 3467,
      "leaders": 3468,
      "discussed": 3469,
      "complex": 3470,
      "practical": 3471,
      "Annex": 3472,
      "Elec": 3473,
      "bir": 3474,
      "hic": 3475,
      "tell": 3476,
      "agency": 3477,
      "debate": 3478,
      "emergency": 3479,
      "ijing": 3480,
      "sn": 3481,
      "anced": 3482,
      "atch": 3483,
      "ables": 3484,
      "Section": 3485,
      "economies": 3486,
      "invited": 3487,
      "bank": 3488,
      "Recalling": 3489,
      "duce": 3490,
      "collaboration": 3491,
      "oil": 3492,
      "reiter": 3493,
      "ureau": 3494,
      "growing": 3495,
      "investigation": 3496,
      "troop": 3497,
      "Som": 3498,
      "dou": 3499,
      "hope": 3500,
      "really": 3501,
      "tial": 3502,
      "start": 3503,
      "disabilities": 3504,
      "2015": 3505,
      "situations": 3506,
      "factors": 3507,
      "types": 3508,
      "Sustainable": 3509,
      "46": 3510,
      "ule": 3511,
      "ane": 3512,
      "tili": 3513,
      "ites": 3514,
      "loss": 3515,
      "finding": 3516,
      "plications": 3517,
      "specialized": 3518,
      "majority": 3519,
      "skills": 3520,
      "Brazil": 3521,
      "Ph": 3522,
      "dr": 3523,
      "lower": 3524,
      "jected": 3525,
      "welcomed": 3526,
      "Beijing": 3527,
      "Goals": 3528,
      "Room": 3529,
      "Fren": 3530,
      "win": 3531,
      "wise": 3532,
      "enough": 3533,
      "enty": 3534,
      "concept": 3535,
      "UNEP": 3536,
      "North": 3537,
      "Joint": 3538,
      "France": 3539,
      "Fif": 3540,
      "omin": 3541,
      "stri": 3542,
      "qual": 3543,
      "consistent": 3544,
      "credit": 3545,
      "housing": 3546,
      "80": 3547,
      "Bu": 3548,
      "cause": 3549,
      "na": 3550,
      "revised": 3551,
      "dissemin": 3552,
      "ublish": 3553,
      "traditional": 3554,
      "calls": 3555,
      "Mexico": 3556,
      "late": 3557,
      "ened": 3558,
      "tele": 3559,
      "trial": 3560,
      "encouraged": 3561,
      "geria": 3562,
      "negative": 3563,
      "IF": 3564,
      "Pak": 3565,
      "mate": 3566,
      "inten": 3567,
      "pose": 3568,
      "pread": 3569,
      "civilian": 3570,
      "Please": 3571,
      "sound": 3572,
      "stability": 3573,
      "adap": 3574,
      "mine": 3575,
      "ilitation": 3576,
      "billion": 3577,
      "settlement": 3578,
      "Cari": 3579,
      "West": 3580,
      "arrest": 3581,
      "added": 3582,
      "exten": 3583,
      "youth": 3584,
      "adopt": 3585,
      "vulnerable": 3586,
      "Association": 3587,
      "sis": 3588,
      "ats": 3589,
      "units": 3590,
      "extre": 3591,
      "legislative": 3592,
      "fifth": 3593,
      "physical": 3594,
      "Caribbe": 3595,
      "mach": 3596,
      "source": 3597,
      "motion": 3598,
      "UNH": 3599,
      "suppli": 3600,
      "although": 3601,
      "periodic": 3602,
      "Although": 3603,
      "positions": 3604,
      "appear": 3605,
      "Pakistan": 3606,
      "Caribbean": 3607,
      "Many": 3608,
      "ive": 3609,
      "ju": 3610,
      "pi": 3611,
      "wed": 3612,
      "istic": 3613,
      "ury": 3614,
      "lives": 3615,
      "mobil": 3616,
      "diction": 3617,
      "THE": 3618,
      "candid": 3619,
      "41": 3620,
      "IA": 3621,
      "efficient": 3622,
      "sources": 3623,
      "reaffir": 3624,
      "resol": 3625,
      "prices": 3626,
      "respond": 3627,
      "follows": 3628,
      "confid": 3629,
      "professional": 3630,
      "delivery": 3631,
      "difficul": 3632,
      "CD": 3633,
      "band": 3634,
      "oso": 3635,
      "ication": 3636,
      "ished": 3637,
      "goal": 3638,
      "useful": 3639,
      "ield": 3640,
      "peaceful": 3641,
      "initial": 3642,
      "Technology": 3643,
      "gg": 3644,
      "depart": 3645,
      "modi": 3646,
      "compensation": 3647,
      "French": 3648,
      "attem": 3649,
      "portion": 3650,
      "developments": 3651,
      "understand": 3652,
      "Countries": 3653,
      "ification": 3654,
      "Administration": 3655,
      "ible": 3656,
      "beyond": 3657,
      "riage": 3658,
      "subsi": 3659,
      "consolid": 3660,
      "completed": 3661,
      "truction": 3662,
      "Headquarters": 3663,
      "agricultural": 3664,
      "Ku": 3665,
      "Lab": 3666,
      "usu": 3667,
      "tit": 3668,
      "istered": 3669,
      "ases": 3670,
      "ster": 3671,
      "stage": 3672,
      "hood": 3673,
      "enna": 3674,
      "applications": 3675,
      "weapon": 3676,
      "achievement": 3677,
      "enterprises": 3678,
      "raising": 3679,
      "studies": 3680,
      "UNHCR": 3681,
      "Four": 3682,
      "bound": 3683,
      "sea": 3684,
      "chec": 3685,
      "appoint": 3686,
      "regime": 3687,
      "approval": 3688,
      "spir": 3689,
      "riter": 3690,
      "longer": 3691,
      "accountability": 3692,
      "Discrimination": 3693,
      "designed": 3694,
      "recovery": 3695,
      "Gen": 3696,
      "pred": 3697,
      "incorpor": 3698,
      "topic": 3699,
      "rable": 3700,
      "agg": 3701,
      "twenty": 3702,
      "science": 3703,
      "rapid": 3704,
      "universal": 3705,
      "Bri": 3706,
      "Med": 3707,
      "eigh": 3708,
      "pil": 3709,
      "promis": 3710,
      "forest": 3711,
      "responsibilities": 3712,
      "scientific": 3713,
      "mom": 3714,
      "sof": 3715,
      "treaties": 3716,
      "external": 3717,
      "earch": 3718,
      "lined": 3719,
      "terrorist": 3720,
      "wait": 3721,
      "modern": 3722,
      "($": 3723,
      "77": 3724,
      "Sal": 3725,
      "nes": 3726,
      "usions": 3727,
      "yl": 3728,
      "vehic": 3729,
      "Stand": 3730,
      "dents": 3731,
      "assi": 3732,
      "icit": 3733,
      "explain": 3734,
      "ends": 3735,
      "something": 3736,
      "achieving": 3737,
      "harmon": 3738,
      "Prof": 3739,
      "citizens": 3740,
      "UNFPA": 3741,
      "Islamic": 3742,
      "Labour": 3743,
      "500": 3744,
      "Am": 3745,
      "Don": 3746,
      "Nuclear": 3747,
      "abuse": 3748,
      "displaced": 3749,
      "boo": 3750,
      "expen": 3751,
      "involve": 3752,
      "voluntary": 3753,
      "successful": 3754,
      "Furthermore": 3755,
      "Syrian": 3756,
      "Cy": 3757,
      "acted": 3758,
      "makes": 3759,
      "Inte": 3760,
      "type": 3761,
      "leading": 3762,
      "System": 3763,
      "Moreover": 3764,
      "expenditure": 3765,
      "leadership": 3766,
      "criter": 3767,
      "iation": 3768,
      "mass": 3769,
      "inary": 3770,
      "seas": 3771,
      "serve": 3772,
      "product": 3773,
      "link": 3774,
      "Cl": 3775,
      "Egy": 3776,
      "TO": 3777,
      "odi": 3778,
      "zone": 3779,
      "ension": 3780,
      "acces": 3781,
      "establishing": 3782,
      "highligh": 3783,
      "Prevention": 3784,
      "consultation": 3785,
      "instrument": 3786,
      "chemical": 3787,
      "Vienna": 3788,
      "habilitation": 3789,
      "appreciation": 3790,
      "Persons": 3791,
      "task": 3792,
      "rely": 3793,
      "ison": 3794,
      "disaster": 3795,
      "contro": 3796,
      "1992": 3797,
      "requires": 3798,
      "bilateral": 3799,
      "Territory": 3800,
      "Dar": 3801,
      "EA": 3802,
      "Our": 3803,
      "publish": 3804,
      "advice": 3805,
      "dipl": 3806,
      "announ": 3807,
      "continuing": 3808,
      "sixty": 3809,
      "Liber": 3810,
      "Six": 3811,
      "bad": 3812,
      "almost": 3813,
      "sharing": 3814,
      "Note": 3815,
      "remained": 3816,
      "craft": 3817,
      "deployment": 3818,
      "Officer": 3819,
      "Australia": 3820,
      "duty": 3821,
      "ania": 3822,
      "tific": 3823,
      "arri": 3824,
      "Inv": 3825,
      "plenary": 3826,
      "please": 3827,
      "payment": 3828,
      "Trust": 3829,
      "written": 3830,
      ",\"": 3831,
      "utili": 3832,
      "constitution": 3833,
      "renew": 3834,
      "presence": 3835,
      "risks": 3836,
      "Guine": 3837,
      "penal": 3838,
      "clean": 3839,
      "Bureau": 3840,
      "EM": 3841,
      "Optional": 3842,
      "dim": 3843,
      "ees": 3844,
      "suff": 3845,
      "resses": 3846,
      "vide": 3847,
      "regul": 3848,
      "Reques": 3849,
      "UNM": 3850,
      "Author": 3851,
      "Disarmament": 3852,
      "defined": 3853,
      "birth": 3854,
      "Asian": 3855,
      "father": 3856,
      "woman": 3857,
      "inde": 3858,
      "orial": 3859,
      "istics": 3860,
      "states": 3861,
      "permanent": 3862,
      "retur": 3863,
      "appeal": 3864,
      "observations": 3865,
      "cracy": 3866,
      "Budget": 3867,
      "kers": 3868,
      "remed": 3869,
      "conclusion": 3870,
      "Norway": 3871,
      "independence": 3872,
      "Follow": 3873,
      "Rw": 3874,
      "Wel": 3875,
      "tise": 3876,
      "arm": 3877,
      "weak": 3878,
      "nothing": 3879,
      "obtain": 3880,
      "creation": 3881,
      "created": 3882,
      "violation": 3883,
      "parents": 3884,
      "Lebanon": 3885,
      "Requests": 3886,
      "tivity": 3887,
      "perpet": 3888,
      "series": 3889,
      "content": 3890,
      "UNID": 3891,
      "relative": 3892,
      "Any": 3893,
      "Research": 3894,
      "vereign": 3895,
      "elimin": 3896,
      "anim": 3897,
      "illegal": 3898,
      "load": 3899,
      "doing": 3900,
      "mainly": 3901,
      "tically": 3902,
      "courts": 3903,
      "obligation": 3904,
      "reflected": 3905,
      "advance": 3906,
      "alleged": 3907,
      "Haiti": 3908,
      "gos": 3909,
      "differen": 3910,
      "improvement": 3911,
      "determination": 3912,
      "reflect": 3913,
      "dollars": 3914,
      "73": 3915,
      "thir": 3916,
      "hear": 3917,
      "election": 3918,
      "judges": 3919,
      "conflicts": 3920,
      "stock": 3921,
      "approaches": 3922,
      "pattern": 3923,
      "Technical": 3924,
      "concluded": 3925,
      "female": 3926,
      "IM": 3927,
      "hop": 3928,
      "democratic": 3929,
      "press": 3930,
      "rect": 3931,
      "actors": 3932,
      "causes": 3933,
      "Cap": 3934,
      "Eth": 3935,
      "sence": 3936,
      "educational": 3937,
      "limit": 3938,
      "Recom": 3939,
      "reasons": 3940,
      "Polic": 3941,
      "actively": 3942,
      "safegu": 3943,
      "Draft": 3944,
      "Guinea": 3945,
      "90": 3946,
      "UR": 3947,
      "ered": 3948,
      "conferences": 3949,
      "grad": 3950,
      "doc": 3951,
      "poll": 3952,
      "destruction": 3953,
      "...": 3954,
      "jurisdiction": 3955,
      "Bar": 3956,
      "nation": 3957,
      "procurement": 3958,
      "timely": 3959,
      "valu": 3960,
      "cash": 3961,
      "consensus": 3962,
      "applicable": 3963,
      "detailed": 3964,
      "tools": 3965,
      "Coordination": 3966,
      "Elim": 3967,
      "Mi": 3968,
      "ax": 3969,
      "accep": 3970,
      "compared": 3971,
      "challenge": 3972,
      "sanc": 3973,
      "minimum": 3974,
      "HC": 3975,
      "jour": 3976,
      "sou": 3977,
      "recon": 3978,
      "unit": 3979,
      "absence": 3980,
      "implications": 3981,
      "waste": 3982,
      "contact": 3983,
      "planned": 3984,
      "clearly": 3985,
      "collection": 3986,
      "Cuba": 3987,
      "Gre": 3988,
      "sched": 3989,
      "wal": 3990,
      "heart": 3991,
      "convention": 3992,
      "fel": 3993,
      "recently": 3994,
      "grant": 3995,
      "setting": 3996,
      "Argent": 3997,
      "dones": 3998,
      "phase": 3999,
      "caused": 4000,
      "exploitation": 4001,
      "described": 4002,
      "Ques": 4003,
      "VI": 4004,
      "sil": 4005,
      "smo": 4006,
      "slow": 4007,
      "told": 4008,
      "fort": 4009,
      "mail": 4010,
      "alled": 4011,
      "Indones": 4012,
      "illing": 4013,
      "fulfil": 4014,
      "Legal": 4015,
      "focused": 4016,
      "beginning": 4017,
      "UNIDO": 4018,
      "Pl": 4019,
      "bat": 4020,
      "eal": 4021,
      "fall": 4022,
      "voc": 4023,
      "inth": 4024,
      "condition": 4025,
      "ague": 4026,
      "shown": 4027,
      "operating": 4028,
      "Those": 4029,
      "civilians": 4030,
      "criteria": 4031,
      "Of": 4032,
      "bul": 4033,
      "bid": 4034,
      "danger": 4035,
      "pul": 4036,
      "intended": 4037,
      "measure": 4038,
      "guarantee": 4039,
      "audit": 4040,
      "confidence": 4041,
      "Est": 4042,
      "PC": 4043,
      "ufact": 4044,
      "zation": 4045,
      "ising": 4046,
      "tour": 4047,
      "dead": 4048,
      "manufact": 4049,
      "sovereign": 4050,
      "ames": 4051,
      "haz": 4052,
      "discrimin": 4053,
      "subregional": 4054,
      "computer": 4055,
      "becom": 4056,
      "reviewed": 4057,
      "sixth": 4058,
      "suggested": 4059,
      "electronic": 4060,
      "break": 4061,
      "resid": 4062,
      "entry": 4063,
      "mental": 4064,
      "prom": 4065,
      "finance": 4066,
      "reland": 4067,
      "despite": 4068,
      "toral": 4069,
      "Parliament": 4070,
      "sche": 4071,
      "datab": 4072,
      "Reco": 4073,
      "allowed": 4074,
      "damage": 4075,
      "Financial": 4076,
      "extreme": 4077,
      "Recommend": 4078,
      "AW": 4079,
      "God": 4080,
      "Mor": 4081,
      "Middle": 4082,
      "Pop": 4083,
      "Port": 4084,
      "fight": 4085,
      "ham": 4086,
      "wo": 4087,
      "constit": 4088,
      "raise": 4089,
      "neigh": 4090,
      "word": 4091,
      "submission": 4092,
      "generally": 4093,
      "encourages": 4094,
      "history": 4095,
      "Elimination": 4096,
      "El": 4097,
      "Ireland": 4098,
      "Western": 4099,
      "gas": 4100,
      "enab": 4101,
      "forum": 4102,
      "began": 4103,
      "aging": 4104,
      "earth": 4105,
      "centre": 4106,
      "medium": 4107,
      "Members": 4108,
      "recognition": 4109,
      "consumption": 4110,
      "moment": 4111,
      "Drug": 4112,
      "Rules": 4113,
      "rich": 4114,
      "inking": 4115,
      "arbitr": 4116,
      "agu": 4117,
      "dependent": 4118,
      "budgetary": 4119,
      "shows": 4120,
      "movement": 4121,
      "Turkey": 4122,
      "Car": 4123,
      "vill": 4124,
      "wr": 4125,
      "alities": 4126,
      "offe": 4127,
      "Int": 4128,
      "Initi": 4129,
      "ions": 4130,
      "umer": 4131,
      "aircraft": 4132,
      "holding": 4133,
      "capacities": 4134,
      "ICT": 4135,
      "solid": 4136,
      "Space": 4137,
      "enhancing": 4138,
      "consequences": 4139,
      "Recogn": 4140,
      "base": 4141,
      "ik": 4142,
      "pir": 4143,
      "town": 4144,
      "lea": 4145,
      "heard": 4146,
      "oli": 4147,
      "urgent": 4148,
      "maxim": 4149,
      "judge": 4150,
      "involving": 4151,
      "senior": 4152,
      "enterprise": 4153,
      "racial": 4154,
      "Operations": 4155,
      "Egypt": 4156,
      "Ken": 4157,
      "bon": 4158,
      "ease": 4159,
      "gment": 4160,
      "saw": 4161,
      "perspec": 4162,
      "ventions": 4163,
      "actual": 4164,
      "Then": 4165,
      "idea": 4166,
      "mandates": 4167,
      "Objec": 4168,
      "observers": 4169,
      "launch": 4170,
      "gl": 4171,
      "orient": 4172,
      "ands": 4173,
      "sumed": 4174,
      "tative": 4175,
      "Prosec": 4176,
      "closed": 4177,
      "partnerships": 4178,
      "stressed": 4179,
      "Now": 4180,
      "Table": 4181,
      "hom": 4182,
      "rehabilitation": 4183,
      "aria": 4184,
      "los": 4185,
      "comment": 4186,
      "approxim": 4187,
      "banks": 4188,
      "accounts": 4189,
      "elected": 4190,
      "ginal": 4191,
      "didn": 4192,
      "Introduc": 4193,
      "Main": 4194,
      "lay": 4195,
      "inspec": 4196,
      "repe": 4197,
      "alle": 4198,
      "lost": 4199,
      "clari": 4200,
      "Third": 4201,
      "Yugos": 4202,
      "departments": 4203,
      "eighth": 4204,
      "Bang": 4205,
      "ST": 4206,
      "hor": 4207,
      "mers": 4208,
      "tas": 4209,
      "onia": 4210,
      "ero": 4211,
      "ece": 4212,
      "ect": 4213,
      "rid": 4214,
      "version": 4215,
      "compar": 4216,
      "mbass": 4217,
      "recruit": 4218,
      "Internet": 4219,
      "COP": 4220,
      "munic": 4221,
      "governments": 4222,
      "closely": 4223,
      "Slo": 4224,
      "ired": 4225,
      "proportion": 4226,
      "noti": 4227,
      "diary": 4228,
      "elabor": 4229,
      "phone": 4230,
      "valid": 4231,
      "learned": 4232,
      "followed": 4233,
      "bition": 4234,
      "sensi": 4235,
      "places": 4236,
      "determined": 4237,
      "Community": 4238,
      "SP": 4239,
      "Vice": 4240,
      "fuel": 4241,
      "gation": 4242,
      "jan": 4243,
      "xed": 4244,
      "heav": 4245,
      "cohe": 4246,
      "Italy": 4247,
      "marriage": 4248,
      "acknow": 4249,
      "learning": 4250,
      "plication": 4251,
      "corruption": 4252,
      "reducing": 4253,
      "lerance": 4254,
      "Statis": 4255,
      "Experts": 4256,
      "Rwanda": 4257,
      "perpetr": 4258,
      "CE": 4259,
      "psy": 4260,
      "pati": 4261,
      "forth": 4262,
      "advis": 4263,
      "utor": 4264,
      "1991": 4265,
      "ciliation": 4266,
      "Weap": 4267,
      "hosp": 4268,
      "survey": 4269,
      "strength": 4270,
      "engaged": 4271,
      "assessments": 4272,
      "fields": 4273,
      "affect": 4274,
      "started": 4275,
      "changed": 4276,
      "transparency": 4277,
      "front": 4278,
      "La": 4279,
      "OM": 4280,
      "Zeal": 4281,
      "ified": 4282,
      "island": 4283,
      "department": 4284,
      "appointed": 4285,
      "geograph": 4286,
      "crete": 4287,
      "lock": 4288,
      "processing": 4289,
      "purch": 4290,
      "welcomes": 4291,
      "Training": 4292,
      "evalu": 4293,
      "details": 4294,
      "puts": 4295,
      "Indonesia": 4296,
      "Cultural": 4297,
      "EU": 4298,
      "San": 4299,
      "Tim": 4300,
      "Ur": 4301,
      "argu": 4302,
      "photo": 4303,
      "mainstream": 4304,
      "membership": 4305,
      "express": 4306,
      "element": 4307,
      "structures": 4308,
      "democracy": 4309,
      "NGOs": 4310,
      "Authority": 4311,
      "Zealand": 4312,
      "300": 4313,
      "Cam": 4314,
      "mid": 4315,
      "ninth": 4316,
      "arity": 4317,
      "wealth": 4318,
      "augh": 4319,
      "Bosn": 4320,
      "engine": 4321,
      "donor": 4322,
      "Federal": 4323,
      "looked": 4324,
      "organs": 4325,
      "competition": 4326,
      "Fourth": 4327,
      "Doc": 4328,
      "Great": 4329,
      "Te": 4330,
      "Vol": 4331,
      "fting": 4332,
      "hind": 4333,
      "sle": 4334,
      "vital": 4335,
      "permit": 4336,
      "died": 4337,
      "pressure": 4338,
      "buy": 4339,
      "advoc": 4340,
      "flex": 4341,
      "Jud": 4342,
      "Out": 4343,
      "cro": 4344,
      "gol": 4345,
      "nine": 4346,
      "insurance": 4347,
      "relig": 4348,
      "ening": 4349,
      "quick": 4350,
      "affairs": 4351,
      "sites": 4352,
      "participated": 4353,
      "resulting": 4354,
      "donors": 4355,
      "reduced": 4356,
      "expertise": 4357,
      "relief": 4358,
      "separate": 4359,
      "Assistance": 4360,
      "contributing": 4361,
      "Argentina": 4362,
      "Lu": 4363,
      "gave": 4364,
      "infec": 4365,
      "forty": 4366,
      "undi": 4367,
      "tel": 4368,
      "true": 4369,
      "entire": 4370,
      "possibility": 4371,
      "cipal": 4372,
      "authorized": 4373,
      "extended": 4374,
      "courses": 4375,
      "Policy": 4376,
      "Fo": 4377,
      "Its": 4378,
      "Ky": 4379,
      "WA": 4380,
      "fare": 4381,
      "mort": 4382,
      "lying": 4383,
      "chapter": 4384,
      "Ref": 4385,
      "gov": 4386,
      "decre": 4387,
      "Governing": 4388,
      "sense": 4389,
      "Staff": 4390,
      "alternative": 4391,
      "Phil": 4392,
      "wrong": 4393,
      "approximately": 4394,
      "Bas": 4395,
      "Distr": 4396,
      "Mac": 4397,
      "Where": 4398,
      "aking": 4399,
      "memor": 4400,
      "plant": 4401,
      "registration": 4402,
      "path": 4403,
      "direction": 4404,
      "Police": 4405,
      "expect": 4406,
      "launched": 4407,
      "www": 4408,
      "omatic": 4409,
      "looking": 4410,
      "Burundi": 4411,
      ".\"": 4412,
      "Gi": 4413,
      "ibility": 4414,
      "ana": 4415,
      "ray": 4416,
      "unity": 4417,
      "versi": 4418,
      "complement": 4419,
      "quanti": 4420,
      "users": 4421,
      "registered": 4422,
      "aims": 4423,
      "integrity": 4424,
      "Most": 4425,
      "agriculture": 4426,
      "HO": 4427,
      "erra": 4428,
      "dem": 4429,
      "susp": 4430,
      "minister": 4431,
      "decide": 4432,
      "bot": 4433,
      "accounting": 4434,
      "requirement": 4435,
      "COM": 4436,
      "attach": 4437,
      "easy": 4438,
      "Colom": 4439,
      "selected": 4440,
      "category": 4441,
      "Aud": 4442,
      "Day": 4443,
      "Fac": 4444,
      "Uk": 4445,
      "rep": 4446,
      "exec": 4447,
      "options": 4448,
      "formed": 4449,
      "preser": 4450,
      "conting": 4451,
      "auto": 4452,
      "audi": 4453,
      "internationally": 4454,
      "syste": 4455,
      "board": 4456,
      "values": 4457,
      "gible": 4458,
      "produced": 4459,
      "release": 4460,
      "coordinated": 4461,
      "headquarters": 4462,
      "deliver": 4463,
      "migrants": 4464,
      "emphasis": 4465,
      "meaning": 4466,
      "seventh": 4467,
      "Somalia": 4468,
      "spirit": 4469,
      "neighb": 4470,
      "Austri": 4471,
      "Boli": 4472,
      "Field": 4473,
      "Koso": 4474,
      "Pow": 4475,
      "bab": 4476,
      "frequ": 4477,
      "gun": 4478,
      "mits": 4479,
      "rein": 4480,
      "beha": 4481,
      "illicit": 4482,
      "pression": 4483,
      "decl": 4484,
      "Prepar": 4485,
      "discuss": 4486,
      "engage": 4487,
      "played": 4488,
      "mutual": 4489,
      "FA": 4490,
      "From": 4491,
      "Swed": 4492,
      "Year": 4493,
      "cat": 4494,
      "fur": 4495,
      "ilt": 4496,
      "size": 4497,
      "ches": 4498,
      "atell": 4499,
      "cipl": 4500,
      "empower": 4501,
      "regn": 4502,
      "inding": 4503,
      "Why": 4504,
      "employed": 4505,
      "attend": 4506,
      "determine": 4507,
      "definition": 4508,
      "witness": 4509,
      "respectively": 4510,
      "teenth": 4511,
      "Brit": 4512,
      "las": 4513,
      "thous": 4514,
      "erad": 4515,
      "concrete": 4516,
      "bel": 4517,
      "belong": 4518,
      "iring": 4519,
      "highest": 4520,
      "aily": 4521,
      "CON": 4522,
      "harm": 4523,
      "conclusions": 4524,
      "languages": 4525,
      "workshops": 4526,
      "influence": 4527,
      "subsequent": 4528,
      "difficulties": 4529,
      "Kuwait": 4530,
      "involvement": 4531,
      "Integr": 4532,
      "Population": 4533,
      "Introduction": 4534,
      "recruitment": 4535,
      "Air": 4536,
      "Ear": 4537,
      "Fra": 4538,
      "Item": 4539,
      "zing": 4540,
      "ense": 4541,
      "station": 4542,
      "depos": 4543,
      "distr": 4544,
      "aint": 4545,
      "Provision": 4546,
      "deser": 4547,
      "representation": 4548,
      "Therefore": 4549,
      "expan": 4550,
      "existence": 4551,
      "morning": 4552,
      "Sierra": 4553,
      "networks": 4554,
      "Objective": 4555,
      "Kosovo": 4556,
      "behavi": 4557,
      "Har": 4558,
      "Net": 4559,
      "Sm": 4560,
      "gross": 4561,
      "mag": 4562,
      "pack": 4563,
      "sought": 4564,
      "ford": 4565,
      "concent": 4566,
      "intern": 4567,
      "feed": 4568,
      "secure": 4569,
      "creating": 4570,
      "Well": 4571,
      "factor": 4572,
      "placement": 4573,
      "documentation": 4574,
      "Palestine": 4575,
      "territorial": 4576,
      "Gender": 4577,
      "Sing": 4578,
      "cli": 4579,
      "eight": 4580,
      "mus": 4581,
      "vations": 4582,
      "rew": 4583,
      "resident": 4584,
      "constitute": 4585,
      "behind": 4586,
      "Commit": 4587,
      "worth": 4588,
      "disp": 4589,
      "preced": 4590,
      "boy": 4591,
      "Work": 4592,
      "remaining": 4593,
      "specifically": 4594,
      "normal": 4595,
      "grounds": 4596,
      "refugee": 4597,
      "freedoms": 4598,
      "component": 4599,
      "DA": 4600,
      "mess": 4601,
      "instruc": 4602,
      "attr": 4603,
      "roy": 4604,
      "severe": 4605,
      "lym": 4606,
      "mines": 4607,
      "worked": 4608,
      "Rel": 4609,
      "earli": 4610,
      "gran": 4611,
      "resulted": 4612,
      "holds": 4613,
      "Leone": 4614,
      "fying": 4615,
      "Princi": 4616,
      "targets": 4617,
      "strengthened": 4618,
      "records": 4619,
      "occupation": 4620,
      "Spain": 4621,
      "namely": 4622,
      "ATION": 4623,
      "emphasized": 4624,
      "attacks": 4625,
      "Letter": 4626,
      "Weapons": 4627,
      "Bosnia": 4628,
      "75": 4629,
      "Ambass": 4630,
      "Ben": 4631,
      "Open": 4632,
      "TS": 4633,
      "moun": 4634,
      "numer": 4635,
      "stay": 4636,
      "works": 4637,
      "door": 4638,
      "legiti": 4639,
      "welcome": 4640,
      "Peru": 4641,
      "collective": 4642,
      "contributed": 4643,
      "honour": 4644,
      "findings": 4645,
      "decrease": 4646,
      "CH": 4647,
      "Fam": 4648,
      "fast": 4649,
      "iop": 4650,
      "ised": 4651,
      "ili": 4652,
      "conform": 4653,
      "executive": 4654,
      "actually": 4655,
      "tware": 4656,
      "Ministers": 4657,
      "amounts": 4658,
      "embar": 4659,
      "histor": 4660,
      "Even": 4661,
      "Lo": 4662,
      "Swit": 4663,
      "ball": 4664,
      "mas": 4665,
      "intention": 4666,
      "acce": 4667,
      "urges": 4668,
      "paras": 4669,
      "etary": 4670,
      "fine": 4671,
      "undred": 4672,
      "marine": 4673,
      "buted": 4674,
      "Islands": 4675,
      "identification": 4676,
      "stood": 4677,
      "contracts": 4678,
      "original": 4679,
      "interpretation": 4680,
      "candidates": 4681,
      "Ethiop": 4682,
      "sanctions": 4683,
      "NP": 4684,
      "Two": 4685,
      "haps": 4686,
      "pregn": 4687,
      "entered": 4688,
      "produce": 4689,
      "sell": 4690,
      "ception": 4691,
      "shared": 4692,
      "owing": 4693,
      "drawn": 4694,
      "sometimes": 4695,
      "faced": 4696,
      "himself": 4697,
      "offence": 4698,
      "summary": 4699,
      "Finally": 4700,
      "Monitor": 4701,
      "patri": 4702,
      "emerging": 4703,
      "defence": 4704,
      "competent": 4705,
      "advantage": 4706,
      "highlighted": 4707,
      "Framework": 4708,
      "87": 4709,
      "Cro": 4710,
      "Jama": 4711,
      "gree": 4712,
      "acking": 4713,
      "supports": 4714,
      "giving": 4715,
      "funded": 4716,
      "lessons": 4717,
      "airo": 4718,
      "puty": 4719,
      "Chamber": 4720,
      "completion": 4721,
      "combating": 4722,
      "substantial": 4723,
      "Indigenous": 4724,
      "increasingly": 4725,
      "micro": 4726,
      "AND": 4727,
      "conventions": 4728,
      "Herze": 4729,
      "usually": 4730,
      "check": 4731,
      "accepted": 4732,
      "Kenya": 4733,
      "expansion": 4734,
      "Gaz": 4735,
      "fed": 4736,
      "stor": 4737,
      "accus": 4738,
      "urs": 4739,
      "usal": 4740,
      "pled": 4741,
      "endors": 4742,
      "outcomes": 4743,
      "commission": 4744,
      "organizational": 4745,
      "nergy": 4746,
      "highly": 4747,
      "secondary": 4748,
      "victim": 4749,
      "occupied": 4750,
      "zerland": 4751,
      "carrying": 4752,
      "eyes": 4753,
      "immediately": 4754,
      "doub": 4755,
      "Portu": 4756,
      "govina": 4757,
      "Switzerland": 4758,
      "Herzegovina": 4759,
      "Nam": 4760,
      "Sen": 4761,
      "Sim": 4762,
      "bes": 4763,
      "je": 4764,
      "justi": 4765,
      "alone": 4766,
      "acade": 4767,
      "liqu": 4768,
      "Incre": 4769,
      "Chief": 4770,
      "opened": 4771,
      "friends": 4772,
      "IAEA": 4773,
      "tasks": 4774,
      "Every": 4775,
      "OP": 4776,
      "uted": 4777,
      "sta": 4778,
      "stance": 4779,
      "raine": 4780,
      "cities": 4781,
      "Status": 4782,
      "declaration": 4783,
      "Decides": 4784,
      "techni": 4785,
      "location": 4786,
      "rise": 4787,
      "represented": 4788,
      "inclusive": 4789,
      "opening": 4790,
      "ESC": 4791,
      "Sea": 4792,
      "dealing": 4793,
      "Turk": 4794,
      "accompl": 4795,
      "published": 4796,
      "Britain": 4797,
      "Food": 4798,
      "gor": 4799,
      "hundred": 4800,
      "uri": 4801,
      "theless": 4802,
      "uration": 4803,
      "whom": 4804,
      "sho": 4805,
      "obst": 4806,
      "ownership": 4807,
      "responding": 4808,
      "examination": 4809,
      "recognize": 4810,
      "territories": 4811,
      "cooperate": 4812,
      "spoke": 4813,
      "Refuge": 4814,
      "Colombia": 4815,
      "Ukraine": 4816,
      "Mic": 4817,
      "SB": 4818,
      "Tun": 4819,
      "ga": 4820,
      "ival": 4821,
      "race": 4822,
      "vance": 4823,
      "degree": 4824,
      "radio": 4825,
      "unte": 4826,
      "wife": 4827,
      "classi": 4828,
      "utri": 4829,
      "discipl": 4830,
      "cession": 4831,
      "lawy": 4832,
      "linked": 4833,
      "employees": 4834,
      "inclusion": 4835,
      "Guide": 4836,
      "green": 4837,
      "Financing": 4838,
      "categories": 4839,
      "components": 4840,
      "Land": 4841,
      "Ste": 4842,
      "fis": 4843,
      "acci": 4844,
      "defic": 4845,
      "urrent": 4846,
      "urged": 4847,
      "ulg": 4848,
      "servation": 4849,
      "Not": 4850,
      "considers": 4851,
      "consent": 4852,
      "availability": 4853,
      "speed": 4854,
      "failure": 4855,
      "happy": 4856,
      "database": 4857,
      "wers": 4858,
      "wind": 4859,
      "anish": 4860,
      "enders": 4861,
      "oration": 4862,
      "deter": 4863,
      "advisory": 4864,
      "count": 4865,
      "undertake": 4866,
      "talk": 4867,
      "bene": 4868,
      "Respon": 4869,
      "calc": 4870,
      "teams": 4871,
      "statistical": 4872,
      "Control": 4873,
      "Fifth": 4874,
      "98": 4875,
      "Olym": 4876,
      "Roman": 4877,
      "Sto": 4878,
      "iary": 4879,
      "inside": 4880,
      "tish": 4881,
      "sider": 4882,
      "diversity": 4883,
      "else": 4884,
      "saving": 4885,
      "Total": 4886,
      "speaking": 4887,
      "threats": 4888,
      "observed": 4889,
      "Territories": 4890,
      "expenditures": 4891,
      "solutions": 4892,
      "Nether": 4893,
      "Partnership": 4894,
      "crucial": 4895,
      "Sweden": 4896,
      "granted": 4897,
      "Ambassador": 4898,
      "Monitoring": 4899,
      "78": 4900,
      "Ivo": 4901,
      "MD": 4902,
      "OHC": 4903,
      "Rule": 4904,
      "cks": 4905,
      "din": 4906,
      "geting": 4907,
      "accur": 4908,
      "Their": 4909,
      "abil": 4910,
      "iry": 4911,
      "aren": 4912,
      "tru": 4913,
      "uck": 4914,
      "outstanding": 4915,
      "diseas": 4916,
      "supplement": 4917,
      "owned": 4918,
      "survi": 4919,
      "everything": 4920,
      "Peacekeeping": 4921,
      "weeks": 4922,
      "Despite": 4923,
      "Science": 4924,
      "floor": 4925,
      "diplomatic": 4926,
      "OHCHR": 4927,
      "Mad": 4928,
      "ived": 4929,
      "nar": 4930,
      "aled": 4931,
      "attri": 4932,
      "cean": 4933,
      "ney": 4934,
      "clust": 4935,
      "Streng": 4936,
      "Contr": 4937,
      "visits": 4938,
      "auti": 4939,
      "Chapter": 4940,
      "trying": 4941,
      "participating": 4942,
      "everyone": 4943,
      "designated": 4944,
      "estimates": 4945,
      "allegations": 4946,
      "Assistant": 4947,
      "Georg": 4948,
      "punishment": 4949,
      "Questions": 4950,
      "losses": 4951,
      "Philip": 4952,
      "Netherlands": 4953,
      "Ano": 4954,
      "Mechan": 4955,
      "Sur": 4956,
      "bai": 4957,
      "fai": 4958,
      "tend": 4959,
      "uan": 4960,
      "anmar": 4961,
      "reet": 4962,
      "except": 4963,
      "exceed": 4964,
      "Comp": 4965,
      "mining": 4966,
      "Concl": 4967,
      "Congress": 4968,
      "grading": 4969,
      "otherwise": 4970,
      "foot": 4971,
      "Chile": 4972,
      "responses": 4973,
      "akes": 4974,
      "became": 4975,
      "Soci": 4976,
      "extend": 4977,
      "investigations": 4978,
      "Myanmar": 4979,
      "Another": 4980,
      "Agr": 4981,
      "Azer": 4982,
      "Ban": 4983,
      "CT": 4984,
      "iv": 4985,
      "nations": 4986,
      "instead": 4987,
      "lege": 4988,
      "convic": 4989,
      "chair": 4990,
      "lies": 4991,
      "manage": 4992,
      "Inspec": 4993,
      "Consider": 4994,
      "command": 4995,
      "train": 4996,
      "object": 4997,
      "primar": 4998,
      "widely": 4999,
      "Malay": 5000,
      "prosecution": 5001,
      "Belar": 5002,
      "subsidiary": 5003,
      "Austria": 5004,
      "AD": 5005,
      "Def": 5006,
      "Rac": 5007,
      "Ti": 5008,
      "Tha": 5009,
      "dar": 5010,
      "spread": 5011,
      "imposed": 5012,
      "Anti": 5013,
      "offences": 5014,
      "Regulations": 5015,
      "recorded": 5016,
      "flows": 5017,
      "instance": 5018,
      "appointment": 5019,
      "constitutional": 5020,
      "eliminate": 5021,
      "felt": 5022,
      "Initiative": 5023,
      "perspective": 5024,
      "Ivoire": 5025,
      "diseases": 5026,
      "Br": 5027,
      "Cô": 5028,
      "IP": 5029,
      "Nep": 5030,
      "cum": 5031,
      "daily": 5032,
      "ken": 5033,
      "tieth": 5034,
      "atute": 5035,
      "sha": 5036,
      "optim": 5037,
      "occas": 5038,
      "enhanced": 5039,
      "software": 5040,
      "expenses": 5041,
      "Darfur": 5042,
      "acceler": 5043,
      "primarily": 5044,
      "Che": 5045,
      "Tor": 5046,
      "gold": 5047,
      "lor": 5048,
      "abol": 5049,
      "shap": 5050,
      "disease": 5051,
      "Reaffir": 5052,
      "legally": 5053,
      "century": 5054,
      "medic": 5055,
      "invent": 5056,
      "transl": 5057,
      "learn": 5058,
      "curren": 5059,
      "faction": 5060,
      "seeking": 5061,
      "Humanitarian": 5062,
      "engagement": 5063,
      "distinc": 5064,
      "names": 5065,
      "reasonable": 5066,
      "elimination": 5067,
      "dynam": 5068,
      "British": 5069,
      "Professional": 5070,
      "earlier": 5071,
      "liquid": 5072,
      "obstac": 5073,
      "Georgia": 5074,
      "baijan": 5075,
      "Azerbaijan": 5076,
      "Côte": 5077,
      "88": 5078,
      "Hab": 5079,
      "aut": 5080,
      "ata": 5081,
      "atures": 5082,
      "asters": 5083,
      "iland": 5084,
      "oph": 5085,
      "willing": 5086,
      "award": 5087,
      "Project": 5088,
      "largest": 5089,
      "interested": 5090,
      "Chairperson": 5091,
      "hands": 5092,
      "Northern": 5093,
      "Viol": 5094,
      "nearly": 5095,
      "enabling": 5096,
      "Docu": 5097,
      "religion": 5098,
      "Bi": 5099,
      "CP": 5100,
      "Qu": 5101,
      "Sou": 5102,
      "hun": 5103,
      "killed": 5104,
      "pain": 5105,
      "inj": 5106,
      "oles": 5107,
      "plat": 5108,
      "ventive": 5109,
      "marks": 5110,
      "Decade": 5111,
      "Good": 5112,
      "contains": 5113,
      "teachers": 5114,
      "Scientific": 5115,
      "immediate": 5116,
      "trends": 5117,
      "Nigeria": 5118,
      "internally": 5119,
      "Ethiopia": 5120,
      "Olympic": 5121,
      "400": 5122,
      "listed": 5123,
      "ware": 5124,
      "etc": 5125,
      "facing": 5126,
      "voted": 5127,
      "indicate": 5128,
      "latest": 5129,
      "Finland": 5130,
      "achievements": 5131,
      "governing": 5132,
      "Terror": 5133,
      "previously": 5134,
      "Summary": 5135,
      "allocation": 5136,
      "supplies": 5137,
      "vehicles": 5138,
      "thirty": 5139,
      "offered": 5140,
      "sleep": 5141,
      "Croati": 5142,
      "Gaza": 5143,
      "79": 5144,
      "89": 5145,
      "Fri": 5146,
      "IG": 5147,
      "WHO": 5148,
      "Your": 5149,
      "itions": 5150,
      "ov": 5151,
      "squ": 5152,
      "reproductive": 5153,
      "outer": 5154,
      "protocol": 5155,
      "confir": 5156,
      "kept": 5157,
      "formulation": 5158,
      "obtained": 5159,
      "cold": 5160,
      "thank": 5161,
      "ideas": 5162,
      "attended": 5163,
      "frameworks": 5164,
      "liter": 5165,
      "showed": 5166,
      "Strategy": 5167,
      "troops": 5168,
      "attemp": 5169,
      "Prosecutor": 5170,
      "acknowled": 5171,
      "74": 5172,
      "oth": 5173,
      "watch": 5174,
      "isition": 5175,
      "proved": 5176,
      "sume": 5177,
      "unable": 5178,
      "usband": 5179,
      "amp": 5180,
      "minutes": 5181,
      "Consul": 5182,
      "prus": 5183,
      "dow": 5184,
      "phen": 5185,
      "maintained": 5186,
      "pending": 5187,
      "ordinary": 5188,
      "See": 5189,
      "drugs": 5190,
      "Prime": 5191,
      "percentage": 5192,
      "website": 5193,
      "Cyprus": 5194,
      "announced": 5195,
      "Liberia": 5196,
      "Invest": 5197,
      "psych": 5198,
      "atellite": 5199,
      "600": 5200,
      "Energy": 5201,
      "IR": 5202,
      "War": 5203,
      "Yes": 5204,
      "hur": 5205,
      "map": 5206,
      "yes": 5207,
      "theory": 5208,
      "reve": 5209,
      "itat": 5210,
      "itors": 5211,
      "stations": 5212,
      "unless": 5213,
      "ults": 5214,
      "matically": 5215,
      "nationality": 5216,
      "commissions": 5217,
      "Rev": 5218,
      "Deputy": 5219,
      "locked": 5220,
      "equitable": 5221,
      "belief": 5222,
      "Several": 5223,
      "advanced": 5224,
      "ratification": 5225,
      "containing": 5226,
      "ILO": 5227,
      "occurred": 5228,
      "drop": 5229,
      "Agric": 5230,
      "72": 5231,
      "ET": 5232,
      "Each": 5233,
      "Jer": 5234,
      "List": 5235,
      "SA": 5236,
      "blo": 5237,
      "panel": 5238,
      "vince": 5239,
      "wall": 5240,
      "eries": 5241,
      "atemal": 5242,
      "ump": 5243,
      "anything": 5244,
      "Parti": 5245,
      "putes": 5246,
      "populations": 5247,
      "temper": 5248,
      "Resolution": 5249,
      "Liby": 5250,
      "Guatemal": 5251,
      "experiences": 5252,
      "facilitating": 5253,
      "failed": 5254,
      "teaching": 5255,
      "complainant": 5256,
      "born": 5257,
      "books": 5258,
      "discriminatory": 5259,
      "perpetrators": 5260,
      "numerous": 5261,
      "Jord": 5262,
      "SR": 5263,
      "Water": 5264,
      "husband": 5265,
      "nutri": 5266,
      "inqu": 5267,
      "envis": 5268,
      "emissions": 5269,
      "Stud": 5270,
      "UNAM": 5271,
      "certific": 5272,
      "Paragraph": 5273,
      "ships": 5274,
      "Encoura": 5275,
      "worldwide": 5276,
      "electoral": 5277,
      "identity": 5278,
      "duties": 5279,
      "heads": 5280,
      "norms": 5281,
      "deliber": 5282,
      "coverage": 5283,
      "unique": 5284,
      "changing": 5285,
      "ylum": 5286,
      "returned": 5287,
      "pollution": 5288,
      "sovereignty": 5289,
      "Moroc": 5290,
      "heavy": 5291,
      "District": 5292,
      "Refugees": 5293,
      "Friday": 5294,
      "76": 5295,
      "Pur": 5296,
      "dream": 5297,
      "hoc": 5298,
      "ket": 5299,
      "lades": 5300,
      "nd": 5301,
      "thematic": 5302,
      "asset": 5303,
      "sun": 5304,
      "oversight": 5305,
      "clin": 5306,
      "updated": 5307,
      "presentation": 5308,
      "built": 5309,
      "news": 5310,
      "considering": 5311,
      "considerable": 5312,
      "impacts": 5313,
      "expression": 5314,
      "investments": 5315,
      "ESCO": 5316,
      "preventing": 5317,
      "introduction": 5318,
      "maintaining": 5319,
      "sales": 5320,
      "selection": 5321,
      "concluding": 5322,
      "favour": 5323,
      "transparent": 5324,
      "dissemination": 5325,
      "ectual": 5326,
      "benefic": 5327,
      "Belarus": 5328,
      "Nepal": 5329,
      "Jordan": 5330,
      "71": 5331,
      "85": 5332,
      "City": 5333,
      "CED": 5334,
      "Op": 5335,
      "Tan": 5336,
      "ev": 5337,
      "miti": 5338,
      "vast": 5339,
      "verification": 5340,
      "liber": 5341,
      "coast": 5342,
      "persist": 5343,
      "cycle": 5344,
      "equival": 5345,
      "plicit": 5346,
      "improvements": 5347,
      "Subcommittee": 5348,
      "Model": 5349,
      "significantly": 5350,
      "wishes": 5351,
      "UNODC": 5352,
      "adjustment": 5353,
      "wanted": 5354,
      "turned": 5355,
      "trend": 5356,
      "principal": 5357,
      "Banglades": 5358,
      "accused": 5359,
      "Philipp": 5360,
      "faith": 5361,
      "Cer": 5362,
      "Shan": 5363,
      "binding": 5364,
      "figh": 5365,
      "vail": 5366,
      "assign": 5367,
      "explan": 5368,
      "sole": 5369,
      "amended": 5370,
      "subprogramme": 5371,
      "orders": 5372,
      "payments": 5373,
      "racism": 5374,
      "amendment": 5375,
      "regulatory": 5376,
      "Power": 5377,
      "Tunis": 5378,
      "Move": 5379,
      "gro": 5380,
      "theme": 5381,
      "align": 5382,
      "unemployment": 5383,
      "parliament": 5384,
      "lia": 5385,
      "quite": 5386,
      "regulation": 5387,
      "valuation": 5388,
      "akh": 5389,
      "facts": 5390,
      "bran": 5391,
      "difference": 5392,
      "ING": 5393,
      "ambia": 5394,
      "transportation": 5395,
      "seems": 5396,
      "destroy": 5397,
      "intensi": 5398,
      "Following": 5399,
      "maximum": 5400,
      "Habitat": 5401,
      "Croatia": 5402,
      "Red": 5403,
      "eat": 5404,
      "ker": 5405,
      "ino": 5406,
      "reven": 5407,
      "ende": 5408,
      "provin": 5409,
      "admis": 5410,
      "grade": 5411,
      "UNIF": 5412,
      "specified": 5413,
      "Internal": 5414,
      "getting": 5415,
      "Thus": 5416,
      "socio": 5417,
      "protecting": 5418,
      "links": 5419,
      "Leg": 5420,
      "summar": 5421,
      "Meas": 5422,
      "reforms": 5423,
      "convened": 5424,
      "functioning": 5425,
      "minority": 5426,
      "penalty": 5427,
      "journal": 5428,
      "municip": 5429,
      "concentr": 5430,
      "Terrorism": 5431,
      "Bangladesh": 5432,
      "Den": 5433,
      "Effec": 5434,
      "lu": 5435,
      "sco": 5436,
      "ilateral": 5437,
      "prospec": 5438,
      "resh": 5439,
      "cide": 5440,
      "track": 5441,
      "disasters": 5442,
      "answer": 5443,
      "fixed": 5444,
      "UNESCO": 5445,
      "trading": 5446,
      "box": 5447,
      "boys": 5448,
      "Noting": 5449,
      "officer": 5450,
      "carbon": 5451,
      "Alban": 5452,
      "surve": 5453,
      "join": 5454,
      "ilitary": 5455,
      "sustainability": 5456,
      "profession": 5457,
      "preparing": 5458,
      "migrant": 5459,
      "suggest": 5460,
      "write": 5461,
      "broader": 5462,
      "bringing": 5463,
      "simple": 5464,
      "starting": 5465,
      "brother": 5466,
      "satisfaction": 5467,
      "restrictions": 5468,
      "differences": 5469,
      "conformity": 5470,
      "academic": 5471,
      "Thailand": 5472,
      "VII": 5473,
      "swe": 5474,
      "ume": 5475,
      "reintegration": 5476,
      "dep": 5477,
      "prob": 5478,
      "sides": 5479,
      "immun": 5480,
      "presid": 5481,
      "sym": 5482,
      "marked": 5483,
      "numbers": 5484,
      "writing": 5485,
      "deployed": 5486,
      "enjoyment": 5487,
      "identifying": 5488,
      "minorities": 5489,
      "valuable": 5490,
      "execution": 5491,
      "Principles": 5492,
      "NPT": 5493,
      "Portugal": 5494,
      "accomplish": 5495,
      "Malaysia": 5496,
      "Philippines": 5497,
      "Bec": 5498,
      "Saint": 5499,
      "fit": 5500,
      "gap": 5501,
      "ron": 5502,
      "vor": 5503,
      "assigned": 5504,
      "omb": 5505,
      "stable": 5506,
      "selling": 5507,
      "suspec": 5508,
      "stim": 5509,
      "Produc": 5510,
      "examine": 5511,
      "coordinate": 5512,
      "quarter": 5513,
      "iii": 5514,
      "acceptable": 5515,
      "sanitation": 5516,
      "mobilization": 5517,
      "resolve": 5518,
      "relatively": 5519,
      "geographical": 5520,
      "declared": 5521,
      "empowerment": 5522,
      "Erit": 5523,
      "Les": 5524,
      "Mus": 5525,
      "Saf": 5526,
      "hu": 5527,
      "hit": 5528,
      "wood": 5529,
      "inf": 5530,
      "ardi": 5531,
      "arily": 5532,
      "asylum": 5533,
      "ley": 5534,
      "bear": 5535,
      "abroad": 5536,
      "uled": 5537,
      "apore": 5538,
      "preme": 5539,
      "server": 5540,
      "generation": 5541,
      "Adoption": 5542,
      "choice": 5543,
      "receiving": 5544,
      "unction": 5545,
      "popular": 5546,
      "combined": 5547,
      "believes": 5548,
      "burden": 5549,
      "electric": 5550,
      "acceptance": 5551,
      "prohib": 5552,
      "appearance": 5553,
      "controlled": 5554,
      "becoming": 5555,
      "mainstreaming": 5556,
      "Singapore": 5557,
      "Guatemala": 5558,
      "Set": 5559,
      "ito": 5560,
      "ox": 5561,
      "repatri": 5562,
      "arising": 5563,
      "sement": 5564,
      "impris": 5565,
      "exports": 5566,
      "dign": 5567,
      "rene": 5568,
      "coal": 5569,
      "grave": 5570,
      "trained": 5571,
      "credi": 5572,
      "Armen": 5573,
      "initiated": 5574,
      "Resources": 5575,
      "hibition": 5576,
      "soldi": 5577,
      "delivered": 5578,
      "preparatory": 5579,
      "Assess": 5580,
      "Lebanese": 5581,
      "manager": 5582,
      "managers": 5583,
      "figure": 5584,
      "figures": 5585,
      "safeguards": 5586,
      "reconciliation": 5587,
      "hazard": 5588,
      "Drugs": 5589,
      "Preparatory": 5590,
      "legitimate": 5591,
      "endorsed": 5592,
      "truth": 5593,
      "99": 5594,
      "Eas": 5595,
      "Last": 5596,
      "Loc": 5597,
      "Mali": 5598,
      "Plat": 5599,
      "ault": 5600,
      "fill": 5601,
      "deed": 5602,
      "perhaps": 5603,
      "taining": 5604,
      "sphere": 5605,
      "protected": 5606,
      "Developing": 5607,
      "represents": 5608,
      "Algeria": 5609,
      "incidents": 5610,
      "committees": 5611,
      "globalization": 5612,
      "explore": 5613,
      "allocated": 5614,
      "competence": 5615,
      "Employ": 5616,
      "expanded": 5617,
      "constant": 5618,
      "extensive": 5619,
      "video": 5620,
      "Recognizing": 5621,
      "leaving": 5622,
      "Particip": 5623,
      "depth": 5624,
      "imprisonment": 5625,
      "Camb": 5626,
      "LDC": 5627,
      "Task": 5628,
      "XX": 5629,
      "ka": 5630,
      "kid": 5631,
      "llig": 5632,
      "rant": 5633,
      "rang": 5634,
      "vative": 5635,
      "suffe": 5636,
      "extr": 5637,
      "udes": 5638,
      "istries": 5639,
      "disputes": 5640,
      "entially": 5641,
      "Additional": 5642,
      "technological": 5643,
      "violated": 5644,
      "hot": 5645,
      "factory": 5646,
      "latter": 5647,
      "background": 5648,
      "multiple": 5649,
      "saying": 5650,
      "investigate": 5651,
      "regularly": 5652,
      "strongly": 5653,
      "John": 5654,
      "simply": 5655,
      "ENT": 5656,
      "settlements": 5657,
      "innovation": 5658,
      "copy": 5659,
      "Budgetary": 5660,
      "Timor": 5661,
      "ministerial": 5662,
      "systematic": 5663,
      "FAO": 5664,
      "Mechanism": 5665,
      "CEDAW": 5666,
      "Ecu": 5667,
      "Nairo": 5668,
      "Ori": 5669,
      "Session": 5670,
      "Ug": 5671,
      "sale": 5672,
      "online": 5673,
      "oring": 5674,
      "attit": 5675,
      "abled": 5676,
      "compris": 5677,
      "perfec": 5678,
      "withdraw": 5679,
      "mob": 5680,
      "code": 5681,
      "disability": 5682,
      "strict": 5683,
      "dog": 5684,
      "aritime": 5685,
      "syn": 5686,
      "Deleg": 5687,
      "compil": 5688,
      "drafting": 5689,
      "spent": 5690,
      "Forms": 5691,
      "yourself": 5692,
      "Costa": 5693,
      "surface": 5694,
      "lavia": 5695,
      "flu": 5696,
      "north": 5697,
      "Official": 5698,
      "Coordinator": 5699,
      "amendments": 5700,
      "Strategic": 5701,
      "Build": 5702,
      "aggreg": 5703,
      "Establish": 5704,
      "Morocco": 5705,
      "suffered": 5706,
      "Nairobi": 5707,
      "81": 5708,
      "FD": 5709,
      "Found": 5710,
      "Pa": 5711,
      "SC": 5712,
      "eties": 5713,
      "filled": 5714,
      "usive": 5715,
      "rose": 5716,
      "division": 5717,
      "makers": 5718,
      "fell": 5719,
      "recalled": 5720,
      "publication": 5721,
      "transactions": 5722,
      "capabilities": 5723,
      "located": 5724,
      "afford": 5725,
      "voting": 5726,
      "increases": 5727,
      "sustained": 5728,
      "assessed": 5729,
      "appeared": 5730,
      "doesn": 5731,
      "claimed": 5732,
      "reflects": 5733,
      "CRC": 5734,
      "Iraqi": 5735,
      "corporate": 5736,
      "jobs": 5737,
      "acquisition": 5738,
      "adaptation": 5739,
      "dispute": 5740,
      "Safety": 5741,
      "Ecuador": 5742,
      "700": 5743,
      "Bus": 5744,
      "Based": 5745,
      "Hu": 5746,
      "Nic": 5747,
      "Ri": 5748,
      "Wed": 5749,
      "black": 5750,
      "game": 5751,
      "mac": 5752,
      "rust": 5753,
      "eco": 5754,
      "story": 5755,
      "sile": 5756,
      "weight": 5757,
      "lions": 5758,
      "preventive": 5759,
      "entity": 5760,
      "Change": 5761,
      "decent": 5762,
      "publications": 5763,
      "Acti": 5764,
      "periods": 5765,
      "choose": 5766,
      "ength": 5767,
      "helped": 5768,
      "realization": 5769,
      "distributed": 5770,
      "complaints": 5771,
      "guarantees": 5772,
      "prisoners": 5773,
      "citizen": 5774,
      "targeted": 5775,
      "explained": 5776,
      "Yugoslavia": 5777,
      "coherence": 5778,
      "Given": 5779,
      "neighbour": 5780,
      "Bolivia": 5781,
      "usalem": 5782,
      "autiful": 5783,
      "Society": 5784,
      "Jerusalem": 5785,
      "Eastern": 5786,
      "Bah": 5787,
      "Military": 5788,
      "Sri": 5789,
      "ao": 5790,
      "brea": 5791,
      "lav": 5792,
      "thors": 5793,
      "alian": 5794,
      "tolerance": 5795,
      "conver": 5796,
      "condem": 5797,
      "adverse": 5798,
      "viation": 5799,
      "Independent": 5800,
      "Common": 5801,
      "arding": 5802,
      "fear": 5803,
      "update": 5804,
      "undertaking": 5805,
      "UNI": 5806,
      "comply": 5807,
      "Angol": 5808,
      "balanced": 5809,
      "indicates": 5810,
      "camp": 5811,
      "sentence": 5812,
      "passed": 5813,
      "Accordingly": 5814,
      "Belgi": 5815,
      "extension": 5816,
      "sensitive": 5817,
      "quickly": 5818,
      "Family": 5819,
      "autonom": 5820,
      "nutrition": 5821,
      "82": 5822,
      "96": 5823,
      "SO": 5824,
      "Sign": 5825,
      "Tai": 5826,
      "shel": 5827,
      "vador": 5828,
      "image": 5829,
      "imparti": 5830,
      "dig": 5831,
      "Informal": 5832,
      "Comprehensive": 5833,
      "stip": 5834,
      "Chr": 5835,
      "Proced": 5836,
      "transit": 5837,
      "encouraging": 5838,
      "experienced": 5839,
      "Monday": 5840,
      "anticip": 5841,
      "demands": 5842,
      "reiterated": 5843,
      "pilot": 5844,
      "currency": 5845,
      "))": 5846,
      "93": 5847,
      "97": 5848,
      "Kaz": 5849,
      "ME": 5850,
      "MIN": 5851,
      "Use": 5852,
      "ib": 5853,
      "male": 5854,
      "ony": 5855,
      "icated": 5856,
      "ressive": 5857,
      "loans": 5858,
      "mem": 5859,
      "die": 5860,
      "essor": 5861,
      "substance": 5862,
      "phy": 5863,
      "ify": 5864,
      "career": 5865,
      "Occup": 5866,
      "Poland": 5867,
      "pension": 5868,
      "raints": 5869,
      "Russia": 5870,
      "testing": 5871,
      "speakers": 5872,
      "campaigns": 5873,
      "Salvador": 5874,
      "Statistics": 5875,
      "83": 5876,
      "800": 5877,
      "95": 5878,
      "Hoc": 5879,
      "Never": 5880,
      "Yet": 5881,
      "crow": 5882,
      "ier": 5883,
      "knew": 5884,
      "zy": 5885,
      "zuel": 5886,
      "remin": 5887,
      "till": 5888,
      "ises": 5889,
      "isation": 5890,
      "roll": 5891,
      "rock": 5892,
      "riers": 5893,
      "exc": 5894,
      "elf": 5895,
      "authors": 5896,
      "105": 5897,
      "Through": 5898,
      "intell": 5899,
      "Mrs": 5900,
      "virt": 5901,
      "promoted": 5902,
      "Both": 5903,
      "consci": 5904,
      "ennial": 5905,
      "charges": 5906,
      "warning": 5907,
      "letters": 5908,
      "easily": 5909,
      "Peacebuilding": 5910,
      "exerc": 5911,
      "Planning": 5912,
      "reservations": 5913,
      "Contin": 5914,
      "demonstrated": 5915,
      "Sahar": 5916,
      "television": 5917,
      "Earth": 5918,
      "Tibet": 5919,
      "Uganda": 5920,
      "mobile": 5921,
      "Activities": 5922,
      "Ber": 5923,
      "Fran": 5924,
      "Reduc": 5925,
      "Vene": 5926,
      "VIII": 5927,
      "breach": 5928,
      "dum": 5929,
      "ja": 5930,
      "kill": 5931,
      "sam": 5932,
      "sors": 5933,
      "vated": 5934,
      "era": 5935,
      "istry": 5936,
      "tom": 5937,
      "ulating": 5938,
      "cive": 5939,
      "powers": 5940,
      "soil": 5941,
      "gene": 5942,
      "serving": 5943,
      "continent": 5944,
      "Paris": 5945,
      "inade": 5946,
      "joined": 5947,
      "dependence": 5948,
      "directed": 5949,
      "charged": 5950,
      "sequently": 5951,
      "picture": 5952,
      "constructive": 5953,
      "tests": 5954,
      "Spanish": 5955,
      "transferred": 5956,
      "judiciary": 5957,
      "ratified": 5958,
      "inflation": 5959,
      "modalities": 5960,
      "cutting": 5961,
      "arrested": 5962,
      "attempt": 5963,
      "dimension": 5964,
      "hospital": 5965,
      "engineering": 5966,
      "mortality": 5967,
      "Strengthe": 5968,
      "envisaged": 5969,
      "equivalent": 5970,
      "Movement": 5971,
      "endeav": 5972,
      "Cambodi": 5973,
      "Wednes": 5974,
      "Venezuel": 5975,
      "Cz": 5976,
      "Calls": 5977,
      "Lank": 5978,
      "Sene": 5979,
      "bill": 5980,
      "cast": 5981,
      "fol": 5982,
      "fun": 5983,
      "middle": 5984,
      "rd": 5985,
      "rs": 5986,
      "atar": 5987,
      "detained": 5988,
      "beautiful": 5989,
      "unilateral": 5990,
      "explicit": 5991,
      "lihood": 5992,
      "Ind": 5993,
      "emp": 5994,
      "goes": 5995,
      "Promotion": 5996,
      "inees": 5997,
      "intro": 5998,
      "someone": 5999,
      "rising": 6000,
      "correc": 6001,
      "Peoples": 6002,
      "warm": 6003,
      "Supplement": 6004,
      "reservation": 6005,
      "Environmental": 6006,
      "Expert": 6007,
      "reaffirmed": 6008,
      "oriented": 6009,
      "notice": 6010,
      "ophob": 6011,
      "blood": 6012,
      "Senegal": 6013,
      "94": 6014,
      "Clim": 6015,
      "Domin": 6016,
      "Equ": 6017,
      "Rica": 6018,
      "Saudi": 6019,
      "evol": 6020,
      "master": 6021,
      "ots": 6022,
      "vate": 6023,
      "za": 6024,
      "reality": 6025,
      "oral": 6026,
      "isters": 6027,
      "stra": 6028,
      "prove": 6029,
      "rape": 6030,
      "resist": 6031,
      "chain": 6032,
      "expl": 6033,
      "plus": 6034,
      "regret": 6035,
      "feas": 6036,
      "prelim": 6037,
      "Process": 6038,
      "posal": 6039,
      "correct": 6040,
      "seriously": 6041,
      "jointly": 6042,
      "Transport": 6043,
      "looks": 6044,
      "Taking": 6045,
      "remote": 6046,
      "Supreme": 6047,
      "Small": 6048,
      "Turkish": 6049,
      "MDG": 6050,
      "Document": 6051,
      "phenomen": 6052,
      "Tunisia": 6053,
      "Because": 6054,
      "Wednesday": 6055,
      "preliminary": 6056,
      "92": 6057,
      "EL": 6058,
      "Ghan": 6059,
      "Lond": 6060,
      "Na": 6061,
      "drew": 6062,
      "gather": 6063,
      "hour": 6064,
      "reply": 6065,
      "enophob": 6066,
      "ilar": 6067,
      "user": 6068,
      "illu": 6069,
      "marginal": 6070,
      "lawful": 6071,
      "Thurs": 6072,
      "Decision": 6073,
      "herit": 6074,
      "papers": 6075,
      "healthy": 6076,
      "munition": 6077,
      "exped": 6078,
      "controls": 6079,
      "businesses": 6080,
      "volume": 6081,
      "affecting": 6082,
      "reliable": 6083,
      "graphic": 6084,
      "install": 6085,
      "modity": 6086,
      "constraints": 6087,
      "season": 6088,
      "remedies": 6089,
      "patterns": 6090,
      "southern": 6091,
      "tourism": 6092,
      "prompt": 6093,
      "village": 6094,
      "aughter": 6095,
      "Network": 6096,
      "Stock": 6097,
      "Measures": 6098,
      "Ali": 6099,
      "Have": 6100,
      "Pan": 6101,
      "School": 6102,
      "ee": 6103,
      "ets": 6104,
      "south": 6105,
      "satellite": 6106,
      "yle": 6107,
      "incur": 6108,
      "revision": 6109,
      "reconstruction": 6110,
      "asing": 6111,
      "asser": 6112,
      "rail": 6113,
      "premis": 6114,
      "prefer": 6115,
      "decade": 6116,
      "decades": 6117,
      "programming": 6118,
      "Who": 6119,
      "equity": 6120,
      "released": 6121,
      "lining": 6122,
      "Island": 6123,
      "examples": 6124,
      "speech": 6125,
      "substances": 6126,
      "German": 6127,
      "favou": 6128,
      "characteristics": 6129,
      "vocational": 6130,
      "fiscal": 6131,
      "cluster": 6132,
      "Investment": 6133,
      "Legisl": 6134,
      "dignity": 6135,
      "Platform": 6136,
      "lligence": 6137,
      "Venezuela": 6138,
      "London": 6139,
      "Thursday": 6140,
      "84": 6141,
      "GDP": 6142,
      "Lord": 6143,
      "OL": 6144,
      "Tod": 6145,
      "fruit": 6146,
      "length": 6147,
      "mu": 6148,
      "sports": 6149,
      "onization": 6150,
      "repli": 6151,
      "enem": 6152,
      "bek": 6153,
      "bearing": 6154,
      "chief": 6155,
      "lib": 6156,
      "opposition": 6157,
      "tried": 6158,
      "visited": 6159,
      "foster": 6160,
      "partner": 6161,
      "organize": 6162,
      "sels": 6163,
      "150": 6164,
      "impunity": 6165,
      "closure": 6166,
      "brary": 6167,
      "Serbia": 6168,
      "iversary": 6169,
      "Appe": 6170,
      "Universal": 6171,
      "observer": 6172,
      "Person": 6173,
      "Corr": 6174,
      "incorporated": 6175,
      "repeated": 6176,
      "eradication": 6177,
      "Integrated": 6178,
      "historical": 6179,
      "Southern": 6180,
      "Angola": 6181,
      "intellectual": 6182,
      "Lanka": 6183,
      "introduce": 6184,
      "Climate": 6185,
      "212": 6186,
      "CI": 6187,
      "WTO": 6188,
      "card": 6189,
      "gate": 6190,
      "gone": 6191,
      "hes": 6192,
      "swi": 6193,
      "umb": 6194,
      "wing": 6195,
      "reti": 6196,
      "enth": 6197,
      "ention": 6198,
      "roles": 6199,
      "deta": 6200,
      "wides": 6201,
      "quali": 6202,
      "shar": 6203,
      "sections": 6204,
      "cessive": 6205,
      "reviews": 6206,
      "aire": 6207,
      "examined": 6208,
      "reaching": 6209,
      "1988": 6210,
      "channel": 6211,
      "covering": 6212,
      "Viet": 6213,
      "associations": 6214,
      "customs": 6215,
      "vulnerability": 6216,
      "wonder": 6217,
      "promise": 6218,
      "suffering": 6219,
      "dangerous": 6220,
      "scheme": 6221,
      "lawyers": 6222,
      "Romania": 6223,
      "Torture": 6224,
      "Eritrea": 6225,
      "Czech": 6226,
      "widespread": 6227,
      "86": 6228,
      "Dr": 6229,
      "Equality": 6230,
      "Hung": 6231,
      "STA": 6232,
      "fat": 6233,
      "lap": 6234,
      "send": 6235,
      "ancing": 6236,
      "terday": 6237,
      "chap": 6238,
      "ula": 6239,
      "poses": 6240,
      "counsel": 6241,
      "umn": 6242,
      "Notes": 6243,
      "assisting": 6244,
      "biological": 6245,
      "mandated": 6246,
      "imped": 6247,
      "Only": 6248,
      "Center": 6249,
      "summer": 6250,
      "1989": 6251,
      "Ministerial": 6252,
      "brid": 6253,
      "seminars": 6254,
      "habit": 6255,
      "innovative": 6256,
      "Post": 6257,
      "treated": 6258,
      "subsequently": 6259,
      "residence": 6260,
      "purchase": 6261,
      "dark": 6262,
      "soldiers": 6263,
      "FOR": 6264,
      "Oh": 6265,
      "Sha": 6266,
      "Val": 6267,
      "ean": 6268,
      "hin": 6269,
      "junction": 6270,
      "sper": 6271,
      "spr": 6272,
      "tan": 6273,
      "wat": 6274,
      "zones": 6275,
      "reo": 6276,
      "tian": 6277,
      "tot": 6278,
      "aragu": 6279,
      "astic": 6280,
      "dele": 6281,
      "suitable": 6282,
      "ression": 6283,
      "lose": 6284,
      "ghai": 6285,
      "exha": 6286,
      "excell": 6287,
      "pool": 6288,
      "shi": 6289,
      "shr": 6290,
      "interventions": 6291,
      "objects": 6292,
      "spa": 6293,
      "capable": 6294,
      "talks": 6295,
      "voice": 6296,
      "budgets": 6297,
      "tlements": 6298,
      "integrate": 6299,
      "Americ": 6300,
      "welfare": 6301,
      "believed": 6302,
      "kinds": 6303,
      "teacher": 6304,
      "blue": 6305,
      "exclud": 6306,
      "double": 6307,
      "topics": 6308,
      "Greece": 6309,
      "fortun": 6310,
      "Sloven": 6311,
      "thousands": 6312,
      "embargo": 6313,
      "savings": 6314,
      "perfect": 6315,
      "Nicaragu": 6316,
      "qualified": 6317,
      ",'": 6318,
      "Current": 6319,
      "Uru": 6320,
      "dry": 6321,
      "scri": 6322,
      "rob": 6323,
      "deem": 6324,
      "older": 6325,
      "notification": 6326,
      "endum": 6327,
      "file": 6328,
      "entials": 6329,
      "cury": 6330,
      "balances": 6331,
      "rown": 6332,
      "corresponding": 6333,
      "helping": 6334,
      "plays": 6335,
      "ambi": 6336,
      "Treatment": 6337,
      "studied": 6338,
      "restricted": 6339,
      "gains": 6340,
      "performed": 6341,
      "hoped": 6342,
      "patients": 6343,
      "COMM": 6344,
      "behaviour": 6345,
      "federal": 6346,
      "platform": 6347,
      "temperature": 6348,
      "Tanz": 6349,
      "Denmark": 6350,
      "Armenia": 6351,
      "Foundation": 6352,
      "Belgium": 6353,
      "Industri": 6354,
      "Ghana": 6355,
      "Today": 6356,
      "TR": 6357,
      "TER": 6358,
      "lad": 6359,
      "mad": 6360,
      "nomin": 6361,
      "tt": 6362,
      "thesis": 6363,
      "encing": 6364,
      "prog": 6365,
      "conservation": 6366,
      "noon": 6367,
      "exception": 6368,
      "prevail": 6369,
      "prescri": 6370,
      "earning": 6371,
      "subjected": 6372,
      "Forces": 6373,
      "Excell": 6374,
      "buildings": 6375,
      "limits": 6376,
      "environmentally": 6377,
      "variety": 6378,
      "greatly": 6379,
      "recognizes": 6380,
      "farmers": 6381,
      "pursue": 6382,
      "graphy": 6383,
      "association": 6384,
      "running": 6385,
      "jury": 6386,
      "commerce": 6387,
      "supervision": 6388,
      "transmitted": 6389,
      "window": 6390,
      "predict": 6391,
      "vehicle": 6392,
      "chemicals": 6393,
      "inspection": 6394,
      "Team": 6395,
      "Similar": 6396,
      "Increased": 6397,
      "obstacles": 6398,
      "macro": 6399,
      "Kazakh": 6400,
      "900": 6401,
      "House": 6402,
      "Tues": 6403,
      "Youth": 6404,
      "rational": 6405,
      "sat": 6406,
      "tin": 6407,
      "thinking": 6408,
      "orm": 6409,
      "esti": 6410,
      "isol": 6411,
      "chance": 6412,
      "imper": 6413,
      "weather": 6414,
      "managed": 6415,
      "endor": 6416,
      "Progress": 6417,
      "guay": 6418,
      "airspace": 6419,
      "apping": 6420,
      "procedural": 6421,
      "Like": 6422,
      "Traffic": 6423,
      "film": 6424,
      "reserve": 6425,
      "Annual": 6426,
      "copies": 6427,
      "machine": 6428,
      "accessible": 6429,
      "utilization": 6430,
      "Welcomes": 6431,
      "Recommendation": 6432,
      "evaluate": 6433,
      "lasting": 6434,
      "olescent": 6435,
      "confirmed": 6436,
      "prohibited": 6437,
      "Uruguay": 6438,
      "Tuesday": 6439,
      "Self": 6440,
      "Zambia": 6441,
      "bomb": 6442,
      "gon": 6443,
      "pace": 6444,
      "tons": 6445,
      "input": 6446,
      "insufficient": 6447,
      "olonization": 6448,
      "composition": 6449,
      "commodity": 6450,
      "parame": 6451,
      "diff": 6452,
      "manif": 6453,
      "nationals": 6454,
      "neither": 6455,
      "iding": 6456,
      "uting": 6457,
      "operative": 6458,
      "Promo": 6459,
      "decline": 6460,
      "served": 6461,
      "desire": 6462,
      "dedicated": 6463,
      "signing": 6464,
      "anniversary": 6465,
      "staffing": 6466,
      "offers": 6467,
      "strugg": 6468,
      "scienti": 6469,
      "Japanese": 6470,
      "suggestions": 6471,
      "Communic": 6472,
      "drawing": 6473,
      "sponsors": 6474,
      "Standing": 6475,
      "indeed": 6476,
      "earthqu": 6477,
      "homes": 6478,
      "techniques": 6479,
      "deterior": 6480,
      "Agriculture": 6481,
      "Shanghai": 6482,
      "fighting": 6483,
      "Building": 6484,
      "enophobia": 6485,
      "Slovenia": 6486,
      "AF": 6487,
      "Bulg": 6488,
      "Mat": 6489,
      "Mong": 6490,
      "NL": 6491,
      "Spec": 6492,
      "TE": 6493,
      "gar": 6494,
      "hat": 6495,
      "kil": 6496,
      "ls": 6497,
      "nur": 6498,
      "ocide": 6499,
      "scre": 6500,
      "vit": 6501,
      "remember": 6502,
      "conjunction": 6503,
      "adver": 6504,
      "quo": 6505,
      "uds": 6506,
      "Commer": 6507,
      "Statute": 6508,
      "interim": 6509,
      "undering": 6510,
      "UNR": 6511,
      "obvious": 6512,
      "grate": 6513,
      "anyone": 6514,
      "thereby": 6515,
      "Intergovernmental": 6516,
      "hosti": 6517,
      "holder": 6518,
      "reading": 6519,
      "ensing": 6520,
      "coordinating": 6521,
      "conducting": 6522,
      "properly": 6523,
      "tility": 6524,
      "UNOPS": 6525,
      "relationships": 6526,
      "managing": 6527,
      "trees": 6528,
      "aneous": 6529,
      "Fifty": 6530,
      "gradation": 6531,
      "scheduled": 6532,
      "extremely": 6533,
      "advocacy": 6534,
      "Kyoto": 6535,
      "district": 6536,
      "doubt": 6537,
      "ESCAP": 6538,
      "inventory": 6539,
      "yesterday": 6540,
      "Libyan": 6541,
      "Encourages": 6542,
      "Kazakhstan": 6543,
      "Da": 6544,
      "Multi": 6545,
      "Rad": 6546,
      "TV": 6547,
      "Ver": 6548,
      "ahead": 6549,
      "bing": 6550,
      "fted": 6551,
      "gaps": 6552,
      "len": 6553,
      "page": 6554,
      "scar": 6555,
      "tables": 6556,
      "wage": 6557,
      "resumed": 6558,
      "isc": 6559,
      "cease": 6560,
      "rad": 6561,
      "Indeed": 6562,
      "trou": 6563,
      "outlined": 6564,
      "pressing": 6565,
      "Proliferation": 6566,
      "gives": 6567,
      "relevance": 6568,
      "foundation": 6569,
      "happened": 6570,
      "Having": 6571,
      "demobil": 6572,
      "CCC": 6573,
      "sponsor": 6574,
      "suffer": 6575,
      "index": 6576,
      "remedy": 6577,
      "doctor": 6578,
      "manufacture": 6579,
      "contingent": 6580,
      "Relations": 6581,
      "shape": 6582,
      "injured": 6583,
      "repatriation": 6584,
      "LDCs": 6585,
      "Business": 6586,
      "Occupied": 6587,
      "illustr": 6588,
      "Nicaragua": 6589,
      "Tanzania": 6590,
      "Bet": 6591,
      "Fas": 6592,
      "Hol": 6593,
      "Ham": 6594,
      "Hel": 6595,
      "IPS": 6596,
      "Mol": 6597,
      "Number": 6598,
      "OI": 6599,
      "Qatar": 6600,
      "Roma": 6601,
      "dress": 6602,
      "fresh": 6603,
      "rout": 6604,
      "tures": 6605,
      "western": 6606,
      "attain": 6607,
      "lob": 6608,
      "amond": 6609,
      "Concer": 6610,
      "president": 6611,
      "Chris": 6612,
      "cancer": 6613,
      "compati": 6614,
      "equally": 6615,
      "plants": 6616,
      "stocks": 6617,
      "appears": 6618,
      "solute": 6619,
      "methodology": 6620,
      "norm": 6621,
      "moral": 6622,
      "istering": 6623,
      "Educational": 6624,
      "advantages": 6625,
      "vinced": 6626,
      "Tax": 6627,
      "boundary": 6628,
      "music": 6629,
      "mountain": 6630,
      "Chemical": 6631,
      "Pursu": 6632,
      "Assessment": 6633,
      "Cambodia": 6634,
      "Excellency": 6635,
      "GC": 6636,
      "auc": 6637,
      "fers": 6638,
      "huge": 6639,
      "slight": 6640,
      "thin": 6641,
      "inser": 6642,
      "stat": 6643,
      "prostitution": 6644,
      "composed": 6645,
      "wered": 6646,
      "exact": 6647,
      "mative": 6648,
      "white": 6649,
      "uct": 6650,
      "amin": 6651,
      "output": 6652,
      "interview": 6653,
      "109": 6654,
      "invitation": 6655,
      "locations": 6656,
      "regards": 6657,
      "mostly": 6658,
      "scen": 6659,
      "adequ": 6660,
      "maternal": 6661,
      "stereo": 6662,
      "properties": 6663,
      "toward": 6664,
      "Indian": 6665,
      "eligible": 6666,
      "industries": 6667,
      "fishing": 6668,
      "hydro": 6669,
      "Election": 6670,
      "schemes": 6671,
      "Urges": 6672,
      "Jamaica": 6673,
      "dynamic": 6674,
      "Violence": 6675,
      "Study": 6676,
      "presidential": 6677,
      "inadequate": 6678,
      "Strengthening": 6679,
      "Communications": 6680,
      "Mongol": 6681,
      "UNRWA": 6682,
      "91": 6683,
      "Bal": 6684,
      "Dial": 6685,
      "Uz": 6686,
      "WG": 6687,
      "cance": 6688,
      "dden": 6689,
      "gri": 6690,
      "none": 6691,
      "pill": 6692,
      "stic": 6693,
      "ug": 6694,
      "vak": 6695,
      "rey": 6696,
      "rets": 6697,
      "touch": 6698,
      "hearing": 6699,
      "paralle": 6700,
      "moving": 6701,
      "outreach": 6702,
      "upd": 6703,
      "tradition": 6704,
      "decreas": 6705,
      "grants": 6706,
      "newspa": 6707,
      "transnational": 6708,
      "spending": 6709,
      "larger": 6710,
      "adopting": 6711,
      "myself": 6712,
      "indirect": 6713,
      "integral": 6714,
      "consultative": 6715,
      "bench": 6716,
      "appeals": 6717,
      "focusing": 6718,
      "contrary": 6719,
      "combination": 6720,
      "significance": 6721,
      "facilitated": 6722,
      "negotiation": 6723,
      "Representatives": 6724,
      "camps": 6725,
      "household": 6726,
      "functional": 6727,
      "reiterates": 6728,
      "Sixty": 6729,
      "arbitrary": 6730,
      "attached": 6731,
      "accurate": 6732,
      "Defence": 6733,
      "Local": 6734,
      "Employment": 6735,
      "IPSAS": 6736,
      "MP": 6737,
      "Omb": 6738,
      "PD": 6739,
      "Page": 6740,
      "mur": 6741,
      "tack": 6742,
      "onial": 6743,
      "acced": 6744,
      "devoted": 6745,
      "suit": 6746,
      "radi": 6747,
      "river": 6748,
      "shed": 6749,
      "ammunition": 6750,
      "formulated": 6751,
      "101": 6752,
      "humanity": 6753,
      "tension": 6754,
      "confidenti": 6755,
      "texts": 6756,
      "investors": 6757,
      "monthly": 6758,
      "substanti": 6759,
      "wished": 6760,
      "Observer": 6761,
      "ITR": 6762,
      "separation": 6763,
      "Operation": 6764,
      "barriers": 6765,
      "consumers": 6766,
      "Among": 6767,
      "eroon": 6768,
      "Cameroon": 6769,
      "flexible": 6770,
      "message": 6771,
      "accident": 6772,
      "Christ": 6773,
      "premises": 6774,
      "enemy": 6775,
      "grateful": 6776,
      "Pursuant": 6777,
      "120": 6778,
      "Chad": 6779,
      "tree": 6780,
      "uine": 6781,
      "rejected": 6782,
      "title": 6783,
      "aling": 6784,
      "tox": 6785,
      "itals": 6786,
      "stages": 6787,
      "stabil": 6788,
      "degradation": 6789,
      "agents": 6790,
      "porters": 6791,
      "izations": 6792,
      "overcome": 6793,
      "operate": 6794,
      "forests": 6795,
      "color": 6796,
      "Acting": 6797,
      "intelligence": 6798,
      "refers": 6799,
      "mercury": 6800,
      "incident": 6801,
      "League": 6802,
      "closer": 6803,
      "sumption": 6804,
      "expresses": 6805,
      "movements": 6806,
      "estimate": 6807,
      "Appro": 6808,
      "petition": 6809,
      "Heads": 6810,
      "eye": 6811,
      "juven": 6812,
      "linkages": 6813,
      "Committees": 6814,
      "urities": 6815,
      "medicine": 6816,
      "hazardous": 6817,
      "detainees": 6818,
      "Clo": 6819,
      "Just": 6820,
      "RC": 6821,
      "Rob": 6822,
      "Right": 6823,
      "block": 6824,
      "nit": 6825,
      "nity": 6826,
      "sl": 6827,
      "sick": 6828,
      "yo": 6829,
      "recip": 6830,
      "toms": 6831,
      "stresses": 6832,
      "street": 6833,
      "seized": 6834,
      "imag": 6835,
      "liability": 6836,
      "Institution": 6837,
      "ministries": 6838,
      "fications": 6839,
      "save": 6840,
      "grat": 6841,
      "programs": 6842,
      "mony": 6843,
      "Accoun": 6844,
      "curric": 6845,
      "productivity": 6846,
      "iang": 6847,
      "voy": 6848,
      "greatest": 6849,
      "sectoral": 6850,
      "flag": 6851,
      "Within": 6852,
      "Method": 6853,
      "TAR": 6854,
      "largely": 6855,
      "Prin": 6856,
      "ONU": 6857,
      "waiting": 6858,
      "UNCITR": 6859,
      "circulated": 6860,
      "households": 6861,
      "tization": 6862,
      "friendly": 6863,
      "complaint": 6864,
      "Oversight": 6865,
      "telephone": 6866,
      "Sixth": 6867,
      "arent": 6868,
      "Racial": 6869,
      "occasion": 6870,
      "coastal": 6871,
      "Albania": 6872,
      "Delegations": 6873,
      "memory": 6874,
      "Uzbek": 6875,
      "Ombuds": 6876,
      "UNCITRAL": 6877,
      "Pen": 6878,
      "bra": 6879,
      "duration": 6880,
      "hou": 6881,
      "pan": 6882,
      "inery": 6883,
      "replaced": 6884,
      "ordered": 6885,
      "isn": 6886,
      "ingu": 6887,
      "oud": 6888,
      "sumer": 6889,
      "sudden": 6890,
      "cele": 6891,
      "aband": 6892,
      "agno": 6893,
      "wider": 6894,
      "qui": 6895,
      "moved": 6896,
      "endar": 6897,
      "Combat": 6898,
      "Conventions": 6899,
      "requiring": 6900,
      "Country": 6901,
      "epide": 6902,
      "genuine": 6903,
      "Army": 6904,
      "faces": 6905,
      "Issu": 6906,
      "continuous": 6907,
      "surround": 6908,
      "Again": 6909,
      "allows": 6910,
      "allowing": 6911,
      "sky": 6912,
      "negotiating": 6913,
      "aspect": 6914,
      "feeling": 6915,
      "structural": 6916,
      "university": 6917,
      "drive": 6918,
      "adjustments": 6919,
      "removal": 6920,
      "modities": 6921,
      "forums": 6922,
      "Slovak": 6923,
      "attribut": 6924,
      "Inspection": 6925,
      "shares": 6926,
      "professionals": 6927,
      "Original": 6928,
      "liberal": 6929,
      "FC": 6930,
      "Ke": 6931,
      "NE": 6932,
      "Punish": 6933,
      "bs": 6934,
      "cry": 6935,
      "lists": 6936,
      "mir": 6937,
      "rul": 6938,
      "yal": 6939,
      "thro": 6940,
      "intim": 6941,
      "atmo": 6942,
      "stone": 6943,
      "accompan": 6944,
      "iling": 6945,
      "detec": 6946,
      "prosper": 6947,
      "condu": 6948,
      "format": 6949,
      "noting": 6950,
      "1967": 6951,
      "ishing": 6952,
      "missing": 6953,
      "phil": 6954,
      "providers": 6955,
      "Counter": 6956,
      "species": 6957,
      "transfers": 6958,
      "millions": 6959,
      "representing": 6960,
      "confisc": 6961,
      "successfully": 6962,
      "arrangement": 6963,
      "Malta": 6964,
      "salary": 6965,
      "seemed": 6966,
      "becomes": 6967,
      "Maced": 6968,
      "belonging": 6969,
      "pregnancy": 6970,
      "Muslim": 6971,
      "Taiwan": 6972,
      "Procedure": 6973,
      "Industrial": 6974,
      "earthquake": 6975,
      "OIOS": 6976,
      "Dialogue": 6977,
      "Gree": 6978,
      "Ill": 6979,
      "Mau": 6980,
      "OD": 6981,
      "Tar": 6982,
      "Take": 6983,
      "Vic": 6984,
      "ye": 6985,
      "replace": 6986,
      "enorm": 6987,
      "erly": 6988,
      "andum": 6989,
      "entrep": 6990,
      "icing": 6991,
      "absolute": 6992,
      "chol": 6993,
      "exists": 6994,
      "lie": 6995,
      "moti": 6996,
      "overview": 6997,
      "emen": 6998,
      "Stu": 6999,
      "pleased": 7000,
      "precise": 7001,
      "phr": 7002,
      "tenth": 7003,
      "Paragu": 7004,
      "capability": 7005,
      "regarded": 7006,
      "famous": 7007,
      "carefully": 7008,
      "Regulation": 7009,
      "questionn": 7010,
      "profit": 7011,
      "volunte": 7012,
      "Arabia": 7013,
      "entering": 7014,
      "Before": 7015,
      "covers": 7016,
      "defend": 7017,
      "livelihood": 7018,
      "models": 7019,
      "sibly": 7020,
      "deeply": 7021,
      "Burk": 7022,
      "flood": 7023,
      "soft": 7024,
      "announce": 7025,
      "glass": 7026,
      "witnesses": 7027,
      "Provisional": 7028,
      "deliberations": 7029,
      "probably": 7030,
      "excellent": 7031,
      "demobilization": 7032,
      "Mongolia": 7033,
      "entreprene": 7034,
      "Paraguay": 7035,
      ".”": 7036,
      "Evaluation": 7037,
      "MAN": 7038,
      "Rome": 7039,
      "culti": 7040,
      "furn": 7041,
      "ns": 7042,
      "heat": 7043,
      "absor": 7044,
      "imbur": 7045,
      "esty": 7046,
      "intervention": 7047,
      "pleas": 7048,
      "Conf": 7049,
      "sect": 7050,
      "secured": 7051,
      "understood": 7052,
      "grand": 7053,
      "newly": 7054,
      "Arbitr": 7055,
      "peacebuilding": 7056,
      "societies": 7057,
      "archit": 7058,
      "biodi": 7059,
      "nesses": 7060,
      "student": 7061,
      "researchers": 7062,
      "skin": 7063,
      "morrow": 7064,
      "occupying": 7065,
      "ashing": 7066,
      "borders": 7067,
      "HRC": 7068,
      "favor": 7069,
      "piece": 7070,
      "difficulty": 7071,
      "consolidation": 7072,
      "usual": 7073,
      "walk": 7074,
      "manufacturing": 7075,
      "flexibility": 7076,
      "frequently": 7077,
      "certificate": 7078,
      "explanation": 7079,
      "anticipated": 7080,
      "Reduction": 7081,
      "Hungary": 7082,
      "Bulgaria": 7083,
      "Faso": 7084,
      "Macedonia": 7085,
      "Burkina": 7086,
      "biodiversity": 7087,
      "ECO": 7088,
      "Mer": 7089,
      "NA": 7090,
      "Sam": 7091,
      "ae": 7092,
      "utr": 7093,
      "wound": 7094,
      "army": 7095,
      "segment": 7096,
      "begun": 7097,
      "adolescent": 7098,
      "diversi": 7099,
      "diagno": 7100,
      "Investig": 7101,
      "features": 7102,
      "disabled": 7103,
      "recalls": 7104,
      "finds": 7105,
      "decides": 7106,
      "County": 7107,
      "Demo": 7108,
      "tene": 7109,
      "Statements": 7110,
      "monetary": 7111,
      "Here": 7112,
      "cape": 7113,
      "thorough": 7114,
      "sett": 7115,
      "Ordin": 7116,
      "fraud": 7117,
      "domin": 7118,
      "heading": 7119,
      "1980": 7120,
      "collected": 7121,
      "patrol": 7122,
      "observation": 7123,
      "Application": 7124,
      "ratio": 7125,
      "reserves": 7126,
      "ashion": 7127,
      "Constitutional": 7128,
      "Doha": 7129,
      "expanding": 7130,
      "accommod": 7131,
      "transmitting": 7132,
      "Electr": 7133,
      "consolidated": 7134,
      "renewed": 7135,
      "solidarity": 7136,
      "elaboration": 7137,
      "Guidelines": 7138,
      "acknowledged": 7139,
      "Nevertheless": 7140,
      "conducive": 7141,
      "Mauri": 7142,
      "112": 7143,
      "963": 7144,
      "Emer": 7145,
      "FP": 7146,
      "Rio": 7147,
      "Tom": 7148,
      "Tran": 7149,
      "Zim": 7150,
      "bond": 7151,
      "flight": 7152,
      "gue": 7153,
      "west": 7154,
      "wards": 7155,
      "xenophobia": 7156,
      "therap": 7157,
      "remun": 7158,
      "tius": 7159,
      "entrust": 7160,
      "aspir": 7161,
      "illi": 7162,
      "confirm": 7163,
      "beings": 7164,
      "uras": 7165,
      "atever": 7166,
      "derived": 7167,
      "notably": 7168,
      "discre": 7169,
      "ellow": 7170,
      "focal": 7171,
      "recru": 7172,
      "subparagraph": 7173,
      "presents": 7174,
      "sessional": 7175,
      "130": 7176,
      "apparent": 7177,
      "incid": 7178,
      "budgeting": 7179,
      "accountable": 7180,
      "Disabilities": 7181,
      "evening": 7182,
      "northern": 7183,
      "smaller": 7184,
      "Montene": 7185,
      "explosive": 7186,
      "denied": 7187,
      "Road": 7188,
      "connected": 7189,
      "custody": 7190,
      "customers": 7191,
      "applies": 7192,
      "applying": 7193,
      "Deser": 7194,
      "driven": 7195,
      "transitional": 7196,
      "rapidly": 7197,
      "accession": 7198,
      "arrived": 7199,
      "conventional": 7200,
      "arbitration": 7201,
      "Yugoslav": 7202,
      "Statistical": 7203,
      "Forest": 7204,
      "bottom": 7205,
      "babwe": 7206,
      "package": 7207,
      "liberty": 7208,
      "comprising": 7209,
      "digital": 7210,
      "Zimbabwe": 7211,
      "Area": 7212,
      "CA": 7213,
      "PP": 7214,
      "Test": 7215,
      "bag": 7216,
      "filling": 7217,
      "gence": 7218,
      "orest": 7219,
      "tory": 7220,
      "thered": 7221,
      "anci": 7222,
      "tomorrow": 7223,
      "forcing": 7224,
      "devices": 7225,
      "seed": 7226,
      "urch": 7227,
      "ull": 7228,
      "quest": 7229,
      "ourg": 7230,
      "mitted": 7231,
      "prejud": 7232,
      "vise": 7233,
      "forec": 7234,
      "desk": 7235,
      "compli": 7236,
      "Statement": 7237,
      "transformation": 7238,
      "considerations": 7239,
      "facility": 7240,
      "producing": 7241,
      "calling": 7242,
      "match": 7243,
      "playing": 7244,
      "steel": 7245,
      "Without": 7246,
      "Mont": 7247,
      "reflecting": 7248,
      "stronger": 7249,
      "Palestinians": 7250,
      "dealt": 7251,
      "ratify": 7252,
      "seminar": 7253,
      "rupt": 7254,
      "deaths": 7255,
      "competitive": 7256,
      "cooperative": 7257,
      "opinions": 7258,
      "extradition": 7259,
      "briefing": 7260,
      "drink": 7261,
      "Medical": 7262,
      "Green": 7263,
      "schedule": 7264,
      "Recommendations": 7265,
      "Auditors": 7266,
      "residents": 7267,
      "narrow": 7268,
      "hunger": 7269,
      "destroyed": 7270,
      "aggregated": 7271,
      "MDGs": 7272,
      "Panama": 7273,
      "Cus": 7274,
      "Data": 7275,
      "Fig": 7276,
      "GM": 7277,
      "GR": 7278,
      "HK": 7279,
      "Mand": 7280,
      "Mater": 7281,
      "Ocean": 7282,
      "Sol": 7283,
      "aus": 7284,
      "ko": 7285,
      "ny": 7286,
      "pas": 7287,
      "sin": 7288,
      "tari": 7289,
      "arts": 7290,
      "telec": 7291,
      "manual": 7292,
      "cles": 7293,
      "utors": 7294,
      "interaction": 7295,
      "Proper": 7296,
      "desi": 7297,
      "intolerance": 7298,
      "bute": 7299,
      "college": 7300,
      "oked": 7301,
      "Organ": 7302,
      "couple": 7303,
      "Once": 7304,
      "roads": 7305,
      "amounted": 7306,
      "mix": 7307,
      "Moz": 7308,
      "preparations": 7309,
      "eastern": 7310,
      "collect": 7311,
      "delays": 7312,
      "diplom": 7313,
      "renewable": 7314,
      "allegedly": 7315,
      "smooth": 7316,
      "quantity": 7317,
      "Senior": 7318,
      "translation": 7319,
      "Similarly": 7320,
      "manifest": 7321,
      "Moldo": 7322,
      "parallel": 7323,
      "Uzbekistan": 7324,
      "accompanied": 7325,
      "Mauritius": 7326,
      "Biss": 7327,
      "CER": 7328,
      "Hond": 7329,
      "Id": 7330,
      "LA": 7331,
      "ODA": 7332,
      "SD": 7333,
      "Takes": 7334,
      "Ye": 7335,
      "Yemen": 7336,
      "cult": 7337,
      "iod": 7338,
      "maritime": 7339,
      "yuan": 7340,
      "ani": 7341,
      "remove": 7342,
      "ales": 7343,
      "ests": 7344,
      "ented": 7345,
      "ecture": 7346,
      "omet": 7347,
      "detection": 7348,
      "proof": 7349,
      "concep": 7350,
      "unch": 7351,
      "liabilities": 7352,
      "alleng": 7353,
      "ays": 7354,
      "minent": 7355,
      "feet": 7356,
      "gradu": 7357,
      "prud": 7358,
      "earn": 7359,
      "subjects": 7360,
      "gencies": 7361,
      "issuance": 7362,
      "continuation": 7363,
      "firms": 7364,
      "financed": 7365,
      "Developed": 7366,
      "signal": 7367,
      "frame": 7368,
      "depends": 7369,
      "laid": 7370,
      "prioriti": 7371,
      "Resource": 7372,
      "distingu": 7373,
      "recognizing": 7374,
      "realize": 7375,
      "focuses": 7376,
      "determining": 7377,
      "definite": 7378,
      "parent": 7379,
      "threatened": 7380,
      "lights": 7381,
      "demonstrate": 7382,
      "Taj": 7383,
      "prohibit": 7384,
      "machinery": 7385,
      "Invites": 7386,
      "coherent": 7387,
      "clients": 7388,
      "storage": 7389,
      "disciplinary": 7390,
      "attempts": 7391,
      "prospects": 7392,
      "favourable": 7393,
      "deemed": 7394,
      "progressive": 7395,
      "Greek": 7396,
      "enormous": 7397,
      "Ordinance": 7398,
      "incidence": 7399,
      "Montenegro": 7400,
      ".)": 7401,
      "Are": 7402,
      "Det": 7403,
      "Ed": 7404,
      "Equal": 7405,
      "Fish": 7406,
      "Games": 7407,
      "Hous": 7408,
      "IU": 7409,
      "LE": 7410,
      "Lith": 7411,
      "Outer": 7412,
      "euro": 7413,
      "fal": 7414,
      "falls": 7415,
      "gard": 7416,
      "mm": 7417,
      "ocean": 7418,
      "rand": 7419,
      "inputs": 7420,
      "injury": 7421,
      "itch": 7422,
      "stering": 7423,
      "device": 7424,
      "rier": 7425,
      "resto": 7426,
      "urge": 7427,
      "compe": 7428,
      "exchanges": 7429,
      "diamond": 7430,
      "posure": 7431,
      "movi": 7432,
      "mobility": 7433,
      "shot": 7434,
      "emin": 7435,
      "fees": 7436,
      "disaggregated": 7437,
      "visible": 7438,
      "posing": 7439,
      "posite": 7440,
      "married": 7441,
      "Advis": 7442,
      "bio": 7443,
      "banking": 7444,
      "accounted": 7445,
      "annually": 7446,
      "surpris": 7447,
      "brand": 7448,
      "offset": 7449,
      "administering": 7450,
      "assessing": 7451,
      "distance": 7452,
      "harass": 7453,
      "Life": 7454,
      "allowance": 7455,
      "clearance": 7456,
      "requesting": 7457,
      "occupational": 7458,
      "cells": 7459,
      "generate": 7460,
      "Geor": 7461,
      "advantaged": 7462,
      "stopped": 7463,
      "resolved": 7464,
      "advancement": 7465,
      "Basel": 7466,
      "baby": 7467,
      "SBI": 7468,
      "classification": 7469,
      "Survey": 7470,
      "journalists": 7471,
      "stipulated": 7472,
      "Trafficking": 7473,
      "scientists": 7474,
      "attributable": 7475,
      "Moldova": 7476,
      "Bissau": 7477,
      "\";": 7478,
      "115": 7479,
      "Mu": 7480,
      "OEC": 7481,
      "daughter": 7482,
      "ptions": 7483,
      "reimbur": 7484,
      "alysis": 7485,
      "ita": 7486,
      "style": 7487,
      "congrat": 7488,
      "teed": 7489,
      "agas": 7490,
      "cha": 7491,
      "diverse": 7492,
      "moon": 7493,
      "hair": 7494,
      "overseas": 7495,
      "council": 7496,
      "ministers": 7497,
      "disposal": 7498,
      "Reli": 7499,
      "Reports": 7500,
      "ords": 7501,
      "UNDC": 7502,
      "finally": 7503,
      "requis": 7504,
      "107": 7505,
      "grass": 7506,
      "relates": 7507,
      "compound": 7508,
      "struction": 7509,
      "Enter": 7510,
      "talking": 7511,
      "180": 7512,
      "director": 7513,
      "250": 7514,
      "documented": 7515,
      "realized": 7516,
      "Finance": 7517,
      "Protocols": 7518,
      "introducing": 7519,
      "guaranteed": 7520,
      "completely": 7521,
      "driving": 7522,
      "satisfied": 7523,
      "offering": 7524,
      "alternatives": 7525,
      "mutually": 7526,
      "exclusive": 7527,
      "drinking": 7528,
      "Estonia": 7529,
      "constitutes": 7530,
      "infection": 7531,
      "UNIFEM": 7532,
      "surveys": 7533,
      "River": 7534,
      "incurred": 7535,
      "spring": 7536,
      "ambique": 7537,
      "scenari": 7538,
      "celebr": 7539,
      "Desertification": 7540,
      "Mozambique": 7541,
      "119": 7542,
      "Free": 7543,
      "Gab": 7544,
      "IX": 7545,
      "Pover": 7546,
      "cope": 7547,
      "ki": 7548,
      "mn": 7549,
      "oting": 7550,
      "sess": 7551,
      "wants": 7552,
      "inational": 7553,
      "error": 7554,
      "helic": 7555,
      "cere": 7556,
      "consumer": 7557,
      "radic": 7558,
      "resc": 7559,
      "agen": 7560,
      "impossible": 7561,
      "mode": 7562,
      "render": 7563,
      "wastes": 7564,
      "cot": 7565,
      "print": 7566,
      "commence": 7567,
      "gration": 7568,
      "basel": 7569,
      "invite": 7570,
      "Articles": 7571,
      "interesting": 7572,
      "analys": 7573,
      "accordingly": 7574,
      "1970": 7575,
      "fisheries": 7576,
      "Volunte": 7577,
      "versities": 7578,
      "Nami": 7579,
      "accelerate": 7580,
      "square": 7581,
      "revealed": 7582,
      "mitigation": 7583,
      "FDI": 7584,
      "neighbouring": 7585,
      "phenomenon": 7586,
      "parameters": 7587,
      "adequately": 7588,
      "Transition": 7589,
      "Poverty": 7590,
      "110": 7591,
      "Bran": 7592,
      "Cross": 7593,
      "Dj": 7594,
      "Kar": 7595,
      "Log": 7596,
      "Pres": 7597,
      "Sw": 7598,
      "Spe": 7599,
      "Upon": 7600,
      "brain": 7601,
      "fashion": 7602,
      "itics": 7603,
      "sac": 7604,
      "restruct": 7605,
      "root": 7606,
      "accum": 7607,
      "forget": 7608,
      "iles": 7609,
      "depri": 7610,
      "conce": 7611,
      "pertaining": 7612,
      "challeng": 7613,
      "lip": 7614,
      "mbol": 7615,
      "neutr": 7616,
      "trip": 7617,
      "contents": 7618,
      "submissions": 7619,
      "Prohibition": 7620,
      "relate": 7621,
      "invites": 7622,
      "Acade": 7623,
      "holid": 7624,
      "respected": 7625,
      "receip": 7626,
      "putting": 7627,
      "summit": 7628,
      "store": 7629,
      "involves": 7630,
      "Guy": 7631,
      "players": 7632,
      "Mean": 7633,
      "objection": 7634,
      "burg": 7635,
      "customer": 7636,
      "Communication": 7637,
      "competitiveness": 7638,
      "acquire": 7639,
      "prohibition": 7640,
      "IMF": 7641,
      "thousand": 7642,
      "deposit": 7643,
      "ATIONS": 7644,
      "Reaffirms": 7645,
      "Reaffirming": 7646,
      "revenue": 7647,
      "decentral": 7648,
      "gonna": 7649,
      "Punishment": 7650,
      "Honduras": 7651,
      "Tajik": 7652,
      "UNDCP": 7653,
      "AB": 7654,
      "Du": 7655,
      "Lan": 7656,
      "Pris": 7657,
      "Sch": 7658,
      "Time": 7659,
      "Up": 7660,
      "Vir": 7661,
      "aven": 7662,
      "cards": 7663,
      "dens": 7664,
      "fru": 7665,
      "ives": 7666,
      "mouth": 7667,
      "sw": 7668,
      "spl": 7669,
      "sla": 7670,
      "wave": 7671,
      "zen": 7672,
      "”.": 7673,
      "inhuman": 7674,
      "instances": 7675,
      "ancies": 7676,
      "rote": 7677,
      "veget": 7678,
      "accred": 7679,
      "rip": 7680,
      "abin": 7681,
      "abuses": 7682,
      "irates": 7683,
      "sored": 7684,
      "Contri": 7685,
      "dispar": 7686,
      "disadvantaged": 7687,
      "UND": 7688,
      "duct": 7689,
      "104": 7690,
      "uality": 7691,
      "gry": 7692,
      "organizing": 7693,
      "transmission": 7694,
      "itici": 7695,
      "Web": 7696,
      "hang": 7697,
      "signature": 7698,
      "Alliance": 7699,
      "afternoon": 7700,
      "engaging": 7701,
      "define": 7702,
      "named": 7703,
      "suggestion": 7704,
      "zero": 7705,
      "generated": 7706,
      "Corpor": 7707,
      "aggression": 7708,
      "gradually": 7709,
      "fulfilment": 7710,
      "Lux": 7711,
      "meaningful": 7712,
      "supplementary": 7713,
      "admissible": 7714,
      "electricity": 7715,
      "Dominican": 7716,
      "Legislative": 7717,
      "retire": 7718,
      "toxic": 7719,
      "atmosphere": 7720,
      "Studies": 7721,
      "telecom": 7722,
      "helicop": 7723,
      "Namibia": 7724,
      ")/": 7725,
      "AU": 7726,
      "Cred": 7727,
      "Cru": 7728,
      "Did": 7729,
      "MO": 7730,
      "Mine": 7731,
      "RE": 7732,
      "Ty": 7733,
      "ba": 7734,
      "gently": 7735,
      "ón": 7736,
      "inju": 7737,
      "themes": 7738,
      "rev": 7739,
      "retain": 7740,
      "ara": 7741,
      "asc": 7742,
      "ils": 7743,
      "ceans": 7744,
      "bered": 7745,
      "exposure": 7746,
      "divi": 7747,
      "shoc": 7748,
      "plate": 7749,
      "idation": 7750,
      "feature": 7751,
      "Consequently": 7752,
      "center": 7753,
      "Three": 7754,
      "Thank": 7755,
      "transaction": 7756,
      "regardless": 7757,
      "laundering": 7758,
      "grown": 7759,
      "consultants": 7760,
      "founded": 7761,
      "evaluations": 7762,
      "freely": 7763,
      "eventually": 7764,
      "testi": 7765,
      "reportedly": 7766,
      "sentences": 7767,
      "England": 7768,
      "customary": 7769,
      "Contents": 7770,
      "houses": 7771,
      "satisfactory": 7772,
      "Emirates": 7773,
      "consequence": 7774,
      "vacc": 7775,
      "cruel": 7776,
      "Super": 7777,
      "orientation": 7778,
      "Judge": 7779,
      "Basic": 7780,
      "Consideration": 7781,
      "distinction": 7782,
      "liaison": 7783,
      "branch": 7784,
      "suspected": 7785,
      "Bahrain": 7786,
      "endeavour": 7787,
      "waters": 7788,
      "fortunately": 7789,
      "abandon": 7790,
      "accommodation": 7791,
      "ancient": 7792,
      "concepts": 7793,
      "Housing": 7794,
      "OECD": 7795,
      "Luxemb": 7796,
      "01": 7797,
      "2nd": 7798,
      "Citi": 7799,
      "GEF": 7800,
      "Ice": 7801,
      "Long": 7802,
      "Ren": 7803,
      "SU": 7804,
      "Tob": 7805,
      "gies": 7806,
      "killing": 7807,
      "som": 7808,
      "uania": 7809,
      "vary": 7810,
      "wrote": 7811,
      "inations": 7812,
      "edge": 7813,
      "aco": 7814,
      "acid": 7815,
      "prop": 7816,
      "seats": 7817,
      "lots": 7818,
      "adults": 7819,
      "union": 7820,
      "imes": 7821,
      "exem": 7822,
      "exposed": 7823,
      "divor": 7824,
      "preval": 7825,
      "jection": 7826,
      "possession": 7827,
      "possess": 7828,
      "margin": 7829,
      "thereof": 7830,
      "twice": 7831,
      "itious": 7832,
      "spend": 7833,
      "facto": 7834,
      "plicated": 7835,
      "Togo": 7836,
      "leads": 7837,
      "employers": 7838,
      "marketing": 7839,
      "conclude": 7840,
      "solven": 7841,
      "Final": 7842,
      "Period": 7843,
      "certainly": 7844,
      "1986": 7845,
      "malaria": 7846,
      "defenders": 7847,
      "flowers": 7848,
      "suggests": 7849,
      "biggest": 7850,
      "firmly": 7851,
      "sponsored": 7852,
      "Niger": 7853,
      "candidate": 7854,
      "Standards": 7855,
      "animals": 7856,
      "hopes": 7857,
      "memorandum": 7858,
      "reinforce": 7859,
      "Conclusion": 7860,
      "distinct": 7861,
      "clinical": 7862,
      "persistent": 7863,
      "sweet": 7864,
      "immunity": 7865,
      "shift": 7866,
      "struggle": 7867,
      "Issues": 7868,
      "Slovakia": 7869,
      "entrusted": 7870,
      "Lithuania": 7871,
      "Branch": 7872,
      "Luxembourg": 7873,
      "**": 7874,
      "//": 7875,
      "Gra": 7876,
      "Men": 7877,
      "Nar": 7878,
      "Pat": 7879,
      "UK": 7880,
      "Washing": 7881,
      "da": 7882,
      "eating": 7883,
      "iar": 7884,
      "ibid": 7885,
      "mately": 7886,
      "rgy": 7887,
      "spot": 7888,
      "induc": 7889,
      "instit": 7890,
      "oured": 7891,
      "asion": 7892,
      "assume": 7893,
      "acity": 7894,
      "projected": 7895,
      "confron": 7896,
      "convinced": 7897,
      "rig": 7898,
      "meant": 7899,
      "commodities": 7900,
      "cia": 7901,
      "lived": 7902,
      "dives": 7903,
      "Instead": 7904,
      "opol": 7905,
      "cohol": 7906,
      "regimes": 7907,
      "securities": 7908,
      "uber": 7909,
      "visual": 7910,
      "underlying": 7911,
      "assisted": 7912,
      "aught": 7913,
      "Procurement": 7914,
      "Province": 7915,
      "103": 7916,
      "thereto": 7917,
      "Interim": 7918,
      "Arms": 7919,
      "hotel": 7920,
      "bian": 7921,
      "1373": 7922,
      "----": 7923,
      "Discus": 7924,
      "headed": 7925,
      "sold": 7926,
      "solve": 7927,
      "caution": 7928,
      "pursued": 7929,
      "Obama": 7930,
      "push": 7931,
      "Design": 7932,
      "Prior": 7933,
      "organic": 7934,
      "exclusion": 7935,
      "boost": 7936,
      "limitations": 7937,
      "clarification": 7938,
      "clarify": 7939,
      "munications": 7940,
      "hospitals": 7941,
      "argument": 7942,
      "Kyrgy": 7943,
      "hundreds": 7944,
      "psychological": 7945,
      "provincial": 7946,
      "Settlements": 7947,
      "attitudes": 7948,
      "Signed": 7949,
      "macroeconomic": 7950,
      "NLB": 7951,
      "epidemic": 7952,
      "Montreal": 7953,
      "restructuring": 7954,
      "Washington": 7955,
      "Kyrgyz": 7956,
      ".:": 7957,
      "://": 7958,
      "Back": 7959,
      "Gren": 7960,
      "Nat": 7961,
      "RA": 7962,
      "Sund": 7963,
      "Twent": 7964,
      "cant": 7965,
      "htt": 7966,
      "kin": 7967,
      "oking": 7968,
      "song": 7969,
      "tun": 7970,
      "vable": 7971,
      "thes": 7972,
      "remarks": 7973,
      "enshr": 7974,
      "oul": 7975,
      "assumed": 7976,
      "aces": 7977,
      "defer": 7978,
      "riya": 7979,
      "ulsion": 7980,
      "shut": 7981,
      "rendered": 7982,
      "cool": 7983,
      "outputs": 7984,
      "fee": 7985,
      "fewer": 7986,
      "awa": 7987,
      "ums": 7988,
      "poly": 7989,
      "subregion": 7990,
      "responded": 7991,
      "Park": 7992,
      "thanks": 7993,
      "violent": 7994,
      "seeing": 7995,
      "Ensure": 7996,
      "venture": 7997,
      "limitation": 7998,
      "prisons": 7999,
      "Recon": 8000,
      "careful": 8001,
      "Regarding": 8002,
      "hiriya": 8003,
      "facilitation": 8004,
      "targeting": 8005,
      "filed": 8006,
      "sentenced": 8007,
      "consistency": 8008,
      "convening": 8009,
      "emphasize": 8010,
      "Maldives": 8011,
      "1978": 8012,
      "Korean": 8013,
      "Corruption": 8014,
      "Maur": 8015,
      "extrabudgetary": 8016,
      "disseminate": 8017,
      "reaffirms": 8018,
      "UNMI": 8019,
      "differenti": 8020,
      "leaves": 8021,
      "preserve": 8022,
      "CONF": 8023,
      "harmful": 8024,
      "preceding": 8025,
      "instructions": 8026,
      "Jamahiriya": 8027,
      "Biological": 8028,
      "intensify": 8029,
      "ranging": 8030,
      "autonomous": 8031,
      "explicitly": 8032,
      "Align": 8033,
      "Specific": 8034,
      "normally": 8035,
      "remuneration": 8036,
      "Twenty": 8037,
      "07": 8038,
      "Ah": 8039,
      "Date": 8040,
      "Kim": 8041,
      "Lim": 8042,
      "MA": 8043,
      "Mary": 8044,
      "Sat": 8045,
      "TION": 8046,
      "Would": 8047,
      "aur": 8048,
      "dil": 8049,
      "ek": 8050,
      "faster": 8051,
      "gments": 8052,
      "hum": 8053,
      "rub": 8054,
      "wild": 8055,
      "zz": 8056,
      "ano": 8057,
      "err": 8058,
      "icts": 8059,
      "icide": 8060,
      "propose": 8061,
      "convers": 8062,
      "uncertain": 8063,
      "impose": 8064,
      "weigh": 8065,
      "Street": 8066,
      "estate": 8067,
      "illance": 8068,
      "formulate": 8069,
      "register": 8070,
      "interference": 8071,
      "interactive": 8072,
      "minute": 8073,
      "discharge": 8074,
      "fostering": 8075,
      "Sector": 8076,
      "ews": 8077,
      "vested": 8078,
      "pher": 8079,
      "Provi": 8080,
      "102": 8081,
      "symbol": 8082,
      "measured": 8083,
      "Armed": 8084,
      "couldn": 8085,
      "producers": 8086,
      "Experi": 8087,
      "biennial": 8088,
      "Presid": 8089,
      "116": 8090,
      "consists": 8091,
      "ultimately": 8092,
      "aires": 8093,
      "necessity": 8094,
      "necessarily": 8095,
      "coordinator": 8096,
      "reductions": 8097,
      "handling": 8098,
      "contrast": 8099,
      "pursuing": 8100,
      "enhouse": 8101,
      "rooms": 8102,
      "animal": 8103,
      "judgement": 8104,
      "Urban": 8105,
      "permitted": 8106,
      "Judic": 8107,
      "eradic": 8108,
      "Benin": 8109,
      "technique": 8110,
      "chairman": 8111,
      "literacy": 8112,
      "beneficial": 8113,
      "provinces": 8114,
      "itored": 8115,
      "credibility": 8116,
      "Lastly": 8117,
      "exploration": 8118,
      "compatible": 8119,
      "Ombudsman": 8120,
      "therapy": 8121,
      "Figure": 8122,
      "Guyana": 8123,
      "05": 8124,
      "09": 8125,
      "113": 8126,
      "Abu": 8127,
      "BC": 8128,
      "Hague": 8129,
      "Mag": 8130,
      "RES": 8131,
      "SS": 8132,
      "Sex": 8133,
      "Sche": 8134,
      "WFP": 8135,
      "catch": 8136,
      "caught": 8137,
      "ei": 8138,
      "fu": 8139,
      "flat": 8140,
      "hut": 8141,
      "ni": 8142,
      "pal": 8143,
      "ugg": 8144,
      "winter": 8145,
      "insul": 8146,
      "referen": 8147,
      "seiz": 8148,
      "contemporary": 8149,
      "chai": 8150,
      "quiry": 8151,
      "club": 8152,
      "kee": 8153,
      "counselling": 8154,
      "intermedi": 8155,
      "lla": 8156,
      "Conduct": 8157,
      "politici": 8158,
      "genocide": 8159,
      "vals": 8160,
      "Adop": 8161,
      "colle": 8162,
      "ifications": 8163,
      "commended": 8164,
      "landlocked": 8165,
      "stands": 8166,
      "standardi": 8167,
      "herself": 8168,
      "knows": 8169,
      "casual": 8170,
      "elect": 8171,
      "Least": 8172,
      "helps": 8173,
      "handle": 8174,
      "methodologies": 8175,
      "atories": 8176,
      "profile": 8177,
      "studying": 8178,
      "apportion": 8179,
      "Engine": 8180,
      "convene": 8181,
      "universities": 8182,
      "enjoyed": 8183,
      "Private": 8184,
      "Latvia": 8185,
      "harmonization": 8186,
      "Capital": 8187,
      "expectations": 8188,
      "Facility": 8189,
      "desertification": 8190,
      "gathered": 8191,
      "accidents": 8192,
      "protocols": 8193,
      "accomplishments": 8194,
      "withdrawal": 8195,
      "promptly": 8196,
      "replies": 8197,
      "juvenile": 8198,
      "recipient": 8199,
      "prejudice": 8200,
      "Tajikistan": 8201,
      "Contribution": 8202,
      "injuries": 8203,
      "solvency": 8204,
      "http": 8205,
      "\"(": 8206,
      "Ato": 8207,
      "Bes": 8208,
      "Culture": 8209,
      "GE": 8210,
      "Lin": 8211,
      "Mc": 8212,
      "Ra": 8213,
      "Telec": 8214,
      "awi": 8215,
      "apart": 8216,
      "blow": 8217,
      "pair": 8218,
      "schol": 8219,
      "onto": 8220,
      "remark": 8221,
      "ender": 8222,
      "enrol": 8223,
      "outs": 8224,
      "lets": 8225,
      "convey": 8226,
      "meter": 8227,
      "merely": 8228,
      "unanim": 8229,
      "verbal": 8230,
      "perce": 8231,
      "chr": 8232,
      "noise": 8233,
      "existed": 8234,
      "Command": 8235,
      "cotic": 8236,
      "tribun": 8237,
      "Reiter": 8238,
      "politics": 8239,
      "entieth": 8240,
      "mart": 8241,
      "monitored": 8242,
      "Advance": 8243,
      "Governmental": 8244,
      "highlight": 8245,
      "merits": 8246,
      "authorization": 8247,
      "Enhan": 8248,
      "Atlan": 8249,
      "corner": 8250,
      "Level": 8251,
      "Organizations": 8252,
      "employee": 8253,
      "elderly": 8254,
      "courage": 8255,
      "communicate": 8256,
      "termination": 8257,
      "defining": 8258,
      "Address": 8259,
      "INF": 8260,
      "pursuit": 8261,
      "emerged": 8262,
      "Directorate": 8263,
      "corporations": 8264,
      "College": 8265,
      "simult": 8266,
      "taxes": 8267,
      "incenti": 8268,
      "appreciate": 8269,
      "breast": 8270,
      "hosted": 8271,
      "sorry": 8272,
      "Transnational": 8273,
      "speaker": 8274,
      "punished": 8275,
      "strike": 8276,
      "Cypri": 8277,
      "fellow": 8278,
      "Question": 8279,
      "villages": 8280,
      "Lao": 8281,
      "suspension": 8282,
      "SBSTA": 8283,
      "convicted": 8284,
      "IGH": 8285,
      "UNAMID": 8286,
      "branches": 8287,
      "Production": 8288,
      "Leste": 8289,
      "citizenship": 8290,
      "excluded": 8291,
      "imperative": 8292,
      "questionnaire": 8293,
      "Property": 8294,
      "harassment": 8295,
      "Atomic": 8296,
      ")]": 8297,
      "BT": 8298,
      "Ca": 8299,
      "Cal": 8300,
      "DE": 8301,
      "Del": 8302,
      "Durban": 8303,
      "Gol": 8304,
      "HU": 8305,
      "Jour": 8306,
      "Less": 8307,
      "Moun": 8308,
      "MONU": 8309,
      "Ret": 8310,
      "Round": 8311,
      "TC": 8312,
      "Will": 8313,
      "WAS": 8314,
      "Wood": 8315,
      "bis": 8316,
      "emotion": 8317,
      "fly": 8318,
      "games": 8319,
      "sport": 8320,
      "sory": 8321,
      "uters": 8322,
      "zhou": 8323,
      "replacement": 8324,
      "istical": 8325,
      "arise": 8326,
      "assembly": 8327,
      "acute": 8328,
      "ceptional": 8329,
      "metal": 8330,
      "unions": 8331,
      "tswan": 8332,
      "ager": 8333,
      "agent": 8334,
      "immigration": 8335,
      "withstanding": 8336,
      "notion": 8337,
      "ourselves": 8338,
      "tric": 8339,
      "haven": 8340,
      "mineral": 8341,
      "minors": 8342,
      "visiting": 8343,
      "Proposed": 8344,
      "108": 8345,
      "reets": 8346,
      "relatives": 8347,
      "certification": 8348,
      "compass": 8349,
      "foreseen": 8350,
      "Exchange": 8351,
      "casting": 8352,
      "Botswan": 8353,
      "itement": 8354,
      "initiate": 8355,
      "Organized": 8356,
      "employer": 8357,
      "clothes": 8358,
      "ultimate": 8359,
      "administr": 8360,
      "duplication": 8361,
      "terrorists": 8362,
      "paying": 8363,
      "succeed": 8364,
      "Trin": 8365,
      "skilled": 8366,
      "investigated": 8367,
      "potentially": 8368,
      "advances": 8369,
      "eleven": 8370,
      "enhancement": 8371,
      "passeng": 8372,
      "crises": 8373,
      "analyses": 8374,
      "analytical": 8375,
      "abortion": 8376,
      "adapt": 8377,
      "consolidate": 8378,
      "dimin": 8379,
      "Capacity": 8380,
      "Migration": 8381,
      "offee": 8382,
      "patient": 8383,
      "photograph": 8384,
      "crop": 8385,
      "crops": 8386,
      "client": 8387,
      "ESCWA": 8388,
      "Company": 8389,
      "occasions": 8390,
      "parliamentary": 8391,
      "admissibility": 8392,
      "Commonwealth": 8393,
      "Sahara": 8394,
      "genetic": 8395,
      "gathering": 8396,
      "David": 8397,
      "Against": 8398,
      "prosperity": 8399,
      "Target": 8400,
      "Conflic": 8401,
      "tariff": 8402,
      "Meanwhile": 8403,
      "Iceland": 8404,
      "Sunday": 8405,
      "incentives": 8406,
      "Botswana": 8407,
      "'>": 8408,
      "08": 8409,
      "Amend": 8410,
      "BA": 8411,
      "Black": 8412,
      "Dom": 8413,
      "Os": 8414,
      "TD": 8415,
      "Tu": 8416,
      "bles": 8417,
      "duly": 8418,
      "east": 8419,
      "fing": 8420,
      "mation": 8421,
      "pup": 8422,
      "pices": 8423,
      "sort": 8424,
      "yield": 8425,
      "zes": 8426,
      "throw": 8427,
      "tified": 8428,
      "ensions": 8429,
      "enforced": 8430,
      "deals": 8431,
      "sured": 8432,
      "ado": 8433,
      "abric": 8434,
      "irty": 8435,
      "ulum": 8436,
      "Incl": 8437,
      "motor": 8438,
      "hael": 8439,
      "Compli": 8440,
      "idad": 8441,
      "antly": 8442,
      "trials": 8443,
      "presses": 8444,
      "undermine": 8445,
      "trave": 8446,
      "submits": 8447,
      "subscri": 8448,
      "declined": 8449,
      "possibly": 8450,
      "therein": 8451,
      "invo": 8452,
      "Analysis": 8453,
      "span": 8454,
      "seeks": 8455,
      "extending": 8456,
      "chosen": 8457,
      "readiness": 8458,
      "closing": 8459,
      "administered": 8460,
      "indicating": 8461,
      "pick": 8462,
      "....": 8463,
      "1987": 8464,
      "ISS": 8465,
      "consisting": 8466,
      "Malawi": 8467,
      "finalized": 8468,
      "separately": 8469,
      "generations": 8470,
      "observe": 8471,
      "Emphas": 8472,
      "acquired": 8473,
      "Samo": 8474,
      "Should": 8475,
      "removed": 8476,
      "logistics": 8477,
      "1990s": 8478,
      "briefings": 8479,
      "Electoral": 8480,
      "modified": 8481,
      "incorporate": 8482,
      "penalties": 8483,
      "safeguard": 8484,
      "promulg": 8485,
      "constituted": 8486,
      "momentum": 8487,
      "piracy": 8488,
      "feeding": 8489,
      "gorith": 8490,
      "calculated": 8491,
      "Conclusions": 8492,
      "awarded": 8493,
      "inquiry": 8494,
      "municipalities": 8495,
      "credible": 8496,
      "ecosystem": 8497,
      "marginalized": 8498,
      "heritage": 8499,
      "Radio": 8500,
      "updating": 8501,
      "aspirations": 8502,
      "auspices": 8503,
      "receipt": 8504,
      ")).": 8505,
      "Five": 8506,
      "FCCC": 8507,
      "Mil": 8508,
      "Mun": 8509,
      "Miss": 8510,
      "Ps": 8511,
      "Pu": 8512,
      "Pension": 8513,
      "SE": 8514,
      "tac": 8515,
      "alcohol": 8516,
      "rog": 8517,
      "stro": 8518,
      "stories": 8519,
      "streets": 8520,
      "deple": 8521,
      "province": 8522,
      "raid": 8523,
      "adhe": 8524,
      "unlawful": 8525,
      "teor": 8526,
      "chlor": 8527,
      "nography": 8528,
      "exceptional": 8529,
      "diver": 8530,
      "poorest": 8531,
      "whatever": 8532,
      "truly": 8533,
      "nees": 8534,
      "regulated": 8535,
      "ller": 8536,
      "worker": 8537,
      "displacement": 8538,
      "missile": 8539,
      "leges": 8540,
      "supposed": 8541,
      "syner": 8542,
      "relax": 8543,
      "guided": 8544,
      "intends": 8545,
      "childhood": 8546,
      "settled": 8547,
      "refused": 8548,
      "Workers": 8549,
      "partially": 8550,
      "155": 8551,
      "140": 8552,
      "expressing": 8553,
      "reasury": 8554,
      "Library": 8555,
      "experiment": 8556,
      "Monetary": 8557,
      "consistently": 8558,
      "simpli": 8559,
      "separated": 8560,
      "contractors": 8561,
      "analyzed": 8562,
      "Major": 8563,
      "gained": 8564,
      "accommo": 8565,
      "destination": 8566,
      "Cuban": 8567,
      "Somali": 8568,
      "navi": 8569,
      "subsidies": 8570,
      "constitu": 8571,
      "heavily": 8572,
      "advisers": 8573,
      "repair": 8574,
      "elsewhere": 8575,
      "evolution": 8576,
      "Certain": 8577,
      "Effective": 8578,
      "UNITAR": 8579,
      "slightly": 8580,
      "Emergency": 8581,
      "requisite": 8582,
      "Tobago": 8583,
      "Maurit": 8584,
      "Aligned": 8585,
      "Trinidad": 8586,
      "='": 8587,
      "Bl": 8588,
      "GA": 8589,
      "Hy": 8590,
      "Jack": 8591,
      "Make": 8592,
      "Oman": 8593,
      "Sit": 8594,
      "__": 8595,
      "dual": 8596,
      "falling": 8597,
      "ky": 8598,
      "kok": 8599,
      "lers": 8600,
      "nice": 8601,
      "tured": 8602,
      "ua": 8603,
      "uous": 8604,
      "van": 8605,
      "vest": 8606,
      "inhe": 8607,
      "repar": 8608,
      "retained": 8609,
      "encoun": 8610,
      "orph": 8611,
      "orally": 8612,
      "arti": 8613,
      "itative": 8614,
      "asking": 8615,
      "lex": 8616,
      "forts": 8617,
      "devast": 8618,
      "raw": 8619,
      "park": 8620,
      "execu": 8621,
      "wash": 8622,
      "worry": 8623,
      "forming": 8624,
      "workplace": 8625,
      "feat": 8626,
      "Cons": 8627,
      "dismis": 8628,
      "disbur": 8629,
      "undersco": 8630,
      "stipul": 8631,
      "compul": 8632,
      "guy": 8633,
      "thereon": 8634,
      "fran": 8635,
      "atial": 8636,
      "column": 8637,
      "Access": 8638,
      "reviewing": 8639,
      "correspond": 8640,
      "tlement": 8641,
      "Programmes": 8642,
      "ICC": 8643,
      "Reser": 8644,
      "Resid": 8645,
      "stein": 8646,
      "profound": 8647,
      "Moham": 8648,
      "ethics": 8649,
      "calendar": 8650,
      "tested": 8651,
      "UNCCD": 8652,
      "happen": 8653,
      "generating": 8654,
      "UNOCI": 8655,
      "borrow": 8656,
      "broken": 8657,
      "adjusted": 8658,
      "vacancy": 8659,
      "logical": 8660,
      "logistical": 8661,
      "delayed": 8662,
      "promised": 8663,
      "Welcoming": 8664,
      "obtaining": 8665,
      "Bangkok": 8666,
      "comparative": 8667,
      "Madagas": 8668,
      "conviction": 8669,
      "concentrated": 8670,
      "channels": 8671,
      "exhaust": 8672,
      "Promoting": 8673,
      "murder": 8674,
      "Penal": 8675,
      "Arbitration": 8676,
      "Logistics": 8677,
      "Prison": 8678,
      "divided": 8679,
      "chaired": 8680,
      "Telecom": 8681,
      "Compliance": 8682,
      "Madagascar": 8683,
      "Bill": 8684,
      "Case": 8685,
      "CAT": 8686,
      "Eradic": 8687,
      "PL": 8688,
      "Pay": 8689,
      "Sir": 8690,
      "Source": 8691,
      "SAR": 8692,
      "Tele": 8693,
      "Ve": 8694,
      "WP": 8695,
      "aqu": 8696,
      "bloc": 8697,
      "drought": 8698,
      "fts": 8699,
      "fax": 8700,
      "fabric": 8701,
      "iro": 8702,
      "iencies": 8703,
      "iaries": 8704,
      "kg": 8705,
      "laugh": 8706,
      "luck": 8707,
      "py": 8708,
      "pin": 8709,
      "sister": 8710,
      "tent": 8711,
      "twel": 8712,
      "inhabit": 8713,
      "enacted": 8714,
      "ert": 8715,
      "entail": 8716,
      "asting": 8717,
      "sten": 8718,
      "stal": 8719,
      "seat": 8720,
      "terrey": 8721,
      "adult": 8722,
      "abduc": 8723,
      "excessive": 8724,
      "shif": 8725,
      "uding": 8726,
      "county": 8727,
      "redress": 8728,
      "preamb": 8729,
      "underlined": 8730,
      "vessels": 8731,
      "arious": 8732,
      "possibilities": 8733,
      "critic": 8734,
      "servants": 8735,
      "torney": 8736,
      "Decree": 8737,
      "twentieth": 8738,
      "spare": 8739,
      "measurement": 8740,
      "Which": 8741,
      "restaur": 8742,
      "hole": 8743,
      "signs": 8744,
      "Order": 8745,
      "117": 8746,
      "Lead": 8747,
      "applicant": 8748,
      "delegates": 8749,
      "expulsion": 8750,
      "Monterrey": 8751,
      "Reporting": 8752,
      "stuff": 8753,
      "damaged": 8754,
      "familiar": 8755,
      "demographic": 8756,
      "greenhouse": 8757,
      "prosecutors": 8758,
      "borne": 8759,
      "broke": 8760,
      "mothers": 8761,
      "performing": 8762,
      "mobilize": 8763,
      "titude": 8764,
      "expensive": 8765,
      "comparison": 8766,
      "Audit": 8767,
      "Workshop": 8768,
      "pregnant": 8769,
      "discipline": 8770,
      "survival": 8771,
      "UNIFIL": 8772,
      "surveillance": 8773,
      "compilation": 8774,
      "predictable": 8775,
      "Matters": 8776,
      "Commercial": 8777,
      "confidential": 8778,
      "quiet": 8779,
      "ruling": 8780,
      "philoso": 8781,
      "Customs": 8782,
      "prudence": 8783,
      "Relief": 8784,
      "Gabon": 8785,
      "Swiss": 8786,
      "prevalence": 8787,
      "enshrined": 8788,
      "Advancement": 8789,
      "Journal": 8790,
      "3rd": 8791,
      "Fu": 8792,
      "Freedom": 8793,
      "Mart": 8794,
      "Vis": 8795,
      "auty": 8796,
      "fa": 8797,
      "nom": 8798,
      "pand": 8799,
      "tap": 8800,
      "ui": 8801,
      "yn": 8802,
      "”,": 8803,
      "inner": 8804,
      "isations": 8805,
      "assur": 8806,
      "degrading": 8807,
      "ram": 8808,
      "beat": 8809,
      "unlikely": 8810,
      "abo": 8811,
      "porteur": 8812,
      "vigor": 8813,
      "interface": 8814,
      "display": 8815,
      "disappearance": 8816,
      "trig": 8817,
      "Reform": 8818,
      "suppor": 8819,
      "phones": 8820,
      "declar": 8821,
      "presentations": 8822,
      "boss": 8823,
      "guard": 8824,
      "Interior": 8825,
      "capita": 8826,
      "sitting": 8827,
      "122": 8828,
      "addresses": 8829,
      "plane": 8830,
      "Expresses": 8831,
      "cars": 8832,
      "holm": 8833,
      "118": 8834,
      "apped": 8835,
      "choices": 8836,
      "votes": 8837,
      "Peter": 8838,
      "munitions": 8839,
      "maternity": 8840,
      "durable": 8841,
      "powerful": 8842,
      "profits": 8843,
      "reflection": 8844,
      "1981": 8845,
      "recording": 8846,
      "CRP": 8847,
      "PAD": 8848,
      "maintains": 8849,
      "rapporteur": 8850,
      "happiness": 8851,
      "classes": 8852,
      "describe": 8853,
      "PRO": 8854,
      "grew": 8855,
      "Australian": 8856,
      "predic": 8857,
      "accessibility": 8858,
      "silver": 8859,
      "battle": 8860,
      "deadline": 8861,
      "enabled": 8862,
      "Voluntary": 8863,
      "Outcome": 8864,
      "mortg": 8865,
      "feedback": 8866,
      "Related": 8867,
      "justify": 8868,
      "lawyer": 8869,
      "hurt": 8870,
      "Participation": 8871,
      "attitude": 8872,
      "Establishment": 8873,
      "impartial": 8874,
      "straight": 8875,
      "swim": 8876,
      "bridge": 8877,
      "Americans": 8878,
      "decreased": 8879,
      "phrase": 8880,
      "diversification": 8881,
      "desirable": 8882,
      "garden": 8883,
      "Adviser": 8884,
      "Transitional": 8885,
      "deprived": 8886,
      "Academy": 8887,
      "Langu": 8888,
      "abinet": 8889,
      "MONUC": 8890,
      "compulsory": 8891,
      "AI": 8892,
      "Age": 8893,
      "Ef": 8894,
      "Home": 8895,
      "Line": 8896,
      "NAT": 8897,
      "SCO": 8898,
      "Tour": 8899,
      "UL": 8900,
      "bac": 8901,
      "dates": 8902,
      "dwell": 8903,
      "fan": 8904,
      "hid": 8905,
      "lending": 8906,
      "ration": 8907,
      "snow": 8908,
      "thick": 8909,
      "tight": 8910,
      "enrich": 8911,
      "encompass": 8912,
      "ato": 8913,
      "isive": 8914,
      "iced": 8915,
      "lean": 8916,
      "proving": 8917,
      "sives": 8918,
      "sized": 8919,
      "unto": 8920,
      "Indu": 8921,
      "disclosure": 8922,
      "eless": 8923,
      "license": 8924,
      "contacts": 8925,
      "fix": 8926,
      "recall": 8927,
      "106": 8928,
      "wouldn": 8929,
      "Italian": 8930,
      "partly": 8931,
      "invasion": 8932,
      "gian": 8933,
      "spatial": 8934,
      "ensured": 8935,
      "Arch": 8936,
      "125": 8937,
      "promotes": 8938,
      "Envoy": 8939,
      "mandatory": 8940,
      "angers": 8941,
      "offenders": 8942,
      "amounting": 8943,
      "Disaster": 8944,
      "Monaco": 8945,
      "farm": 8946,
      "emergencies": 8947,
      "equipped": 8948,
      "secretariats": 8949,
      "referring": 8950,
      "contractual": 8951,
      "uniform": 8952,
      "attacked": 8953,
      "grees": 8954,
      "Civilian": 8955,
      "analyse": 8956,
      "spokes": 8957,
      "complexity": 8958,
      "Standard": 8959,
      "Professor": 8960,
      "doctors": 8961,
      "perspectives": 8962,
      "acknowledge": 8963,
      "severely": 8964,
      "Opening": 8965,
      "Look": 8966,
      "conscious": 8967,
      "feasible": 8968,
      "tangible": 8969,
      "robust": 8970,
      "hatred": 8971,
      "ceasefire": 8972,
      "Between": 8973,
      "lobally": 8974,
      "Christmas": 8975,
      "Closed": 8976,
      "architecture": 8977,
      "adolescents": 8978,
      "Forests": 8979,
      "Material": 8980,
      "Scheme": 8981,
      "enrolment": 8982,
      "Conflict": 8983,
      "Samoa": 8984,
      "06": 8985,
      "Care": 8986,
      "Lt": 8987,
      "None": 8988,
      "Old": 8989,
      "Sil": 8990,
      "Wall": 8991,
      "XI": 8992,
      "Young": 8993,
      "bour": 8994,
      "bread": 8995,
      "burn": 8996,
      "ctic": 8997,
      "evi": 8998,
      "idi": 8999,
      "macy": 9000,
      "pical": 9001,
      "wages": 9002,
      "zo": 9003,
      "鈥檚": 9004,
      "theore": 9005,
      "reaction": 9006,
      "revital": 9007,
      "algorith": 9008,
      "ingly": 9009,
      "outi": 9010,
      "asts": 9011,
      "democra": 9012,
      "sees": 9013,
      "sevent": 9014,
      "conversion": 9015,
      "rah": 9016,
      "loan": 9017,
      "urally": 9018,
      "urgently": 9019,
      "wet": 9020,
      "viable": 9021,
      "expend": 9022,
      "Independence": 9023,
      "shor": 9024,
      "shore": 9025,
      "trac": 9026,
      "pling": 9027,
      "amas": 9028,
      "wasn": 9029,
      "worse": 9030,
      "registry": 9031,
      "actor": 9032,
      "decolonization": 9033,
      "prime": 9034,
      "useum": 9035,
      "drafted": 9036,
      "avy": 9037,
      "airport": 9038,
      "Former": 9039,
      "hero": 9040,
      "shipping": 9041,
      "linking": 9042,
      "111": 9043,
      "brings": 9044,
      "summits": 9045,
      "ranean": 9046,
      "busy": 9047,
      "welcoming": 9048,
      "phases": 9049,
      "wheel": 9050,
      "listen": 9051,
      "mediation": 9052,
      "ASE": 9053,
      "damages": 9054,
      "ceptions": 9055,
      "description": 9056,
      "Operational": 9057,
      "guiding": 9058,
      "About": 9059,
      "occurs": 9060,
      "ORD": 9061,
      "minimize": 9062,
      "reiterate": 9063,
      "Bush": 9064,
      "intensive": 9065,
      "promising": 9066,
      "eliminating": 9067,
      "Cape": 9068,
      "doctr": 9069,
      "granting": 9070,
      "databases": 9071,
      "towns": 9072,
      "forthcoming": 9073,
      "preservation": 9074,
      "massive": 9075,
      "Michael": 9076,
      "deficit": 9077,
      "condemned": 9078,
      "MINUS": 9079,
      "resistance": 9080,
      "Stockholm": 9081,
      "Personal": 9082,
      "Currently": 9083,
      "prescribed": 9084,
      "Christian": 9085,
      "Institutions": 9086,
      "curriculum": 9087,
      "Principal": 9088,
      "ECOWAS": 9089,
      "restore": 9090,
      "synergies": 9091,
      "Efforts": 9092,
      "Industry": 9093,
      "==": 9094,
      "Ach": 9095,
      "Base": 9096,
      "CB": 9097,
      "CL": 9098,
      "Cath": 9099,
      "Cali": 9100,
      "FR": 9101,
      "Fij": 9102,
      "Press": 9103,
      "Rot": 9104,
      "RIGH": 9105,
      "Teach": 9106,
      "dad": 9107,
      "evil": 9108,
      "evac": 9109,
      "fre": 9110,
      "pig": 9111,
      "sme": 9112,
      "wis": 9113,
      "escal": 9114,
      "eces": 9115,
      "statute": 9116,
      "degrees": 9117,
      "rix": 9118,
      "meth": 9119,
      "mere": 9120,
      "aba": 9121,
      "commemor": 9122,
      "Inhuman": 9123,
      "utin": 9124,
      "coer": 9125,
      "codes": 9126,
      "discover": 9127,
      "disproportion": 9128,
      "pret": 9129,
      "aine": 9130,
      "earing": 9131,
      "retention": 9132,
      "fined": 9133,
      "Provide": 9134,
      "creative": 9135,
      "Degrading": 9136,
      "inequality": 9137,
      "tened": 9138,
      "2017": 9139,
      "marry": 9140,
      "approve": 9141,
      "establishes": 9142,
      "somewhat": 9143,
      "militi": 9144,
      "121": 9145,
      "culo": 9146,
      "participatory": 9147,
      "neck": 9148,
      "114": 9149,
      "continuously": 9150,
      "Minor": 9151,
      "whereby": 9152,
      "discussing": 9153,
      "depending": 9154,
      "applicants": 9155,
      "submitting": 9156,
      "attending": 9157,
      "warrant": 9158,
      "officially": 9159,
      "Maybe": 9160,
      "contracting": 9161,
      "atorial": 9162,
      "placing": 9163,
      "volati": 9164,
      "reliance": 9165,
      "definitions": 9166,
      "showing": 9167,
      "prevented": 9168,
      "1985": 9169,
      "Administr": 9170,
      "practition": 9171,
      "defense": 9172,
      "emphasizes": 9173,
      "Collec": 9174,
      "proceeds": 9175,
      "custom": 9176,
      "ashes": 9177,
      "feelings": 9178,
      "gotten": 9179,
      "stakeholder": 9180,
      "extraordinary": 9181,
      "gaining": 9182,
      "seekers": 9183,
      "turning": 9184,
      "printing": 9185,
      "aneously": 9186,
      "qualifications": 9187,
      "suppliers": 9188,
      "departure": 9189,
      "Mediter": 9190,
      "UNMIL": 9191,
      "Barbad": 9192,
      "slowly": 9193,
      "launching": 9194,
      "repeat": 9195,
      "validity": 9196,
      "complementary": 9197,
      "systematically": 9198,
      "delivering": 9199,
      "frequency": 9200,
      "cataly": 9201,
      "messages": 9202,
      "historic": 9203,
      "willingness": 9204,
      "Consult": 9205,
      "aligned": 9206,
      "affordable": 9207,
      "autonomy": 9208,
      "feasibility": 9209,
      "Appeals": 9210,
      "stabilization": 9211,
      "suddenly": 9212,
      "surrounding": 9213,
      "Electronic": 9214,
      "cultures": 9215,
      "false": 9216,
      "uberculo": 9217,
      "Satur": 9218,
      "Atlantic": 9219,
      "Golan": 9220,
      "stipulates": 9221,
      "supportive": 9222,
      "NATO": 9223,
[...]
